<0x00>	0
<s>	0
</s>	0
<unk>	0
<0x01>	0
<0x02>	0
<0x03>	0
<0x04>	0
<0x05>	0
<0x06>	0
<0x07>	0
<0x08>	0
<0x09>	0
<0x0A>	0
<0x0B>	0
<0x0C>	0
<0x0D>	0
<0x0E>	0
<0x0F>	0
<0x10>	0
<0x11>	0
<0x12>	0
<0x13>	0
<0x14>	0
<0x15>	0
<0x16>	0
<0x17>	0
<0x18>	0
<0x19>	0
<0x1A>	0
<0x1B>	0
<0x1C>	0
<0x1D>	0
<0x1E>	0
<0x1F>	0
<0x20>	0
<0x21>	0
<0x22>	0
<0x23>	0
<0x24>	0
<0x25>	0
<0x26>	0
<0x27>	0
<0x28>	0
<0x29>	0
<0x2A>	0
<0x2B>	0
<0x2C>	0
<0x2D>	0
<0x2E>	0
<0x2F>	0
<0x30>	0
<0x31>	0
<0x32>	0
<0x33>	0
<0x34>	0
<0x35>	0
<0x36>	0
<0x37>	0
<0x38>	0
<0x39>	0
<0x3A>	0
<0x3B>	0
<0x3C>	0
<0x3D>	0
<0x3E>	0
<0x3F>	0
<0x40>	0
<0x41>	0
<0x42>	0
<0x43>	0
<0x44>	0
<0x45>	0
<0x46>	0
<0x47>	0
<0x48>	0
<0x49>	0
<0x4A>	0
<0x4B>	0
<0x4C>	0
<0x4D>	0
<0x4E>	0
<0x4F>	0
<0x50>	0
<0x51>	0
<0x52>	0
<0x53>	0
<0x54>	0
<0x55>	0
<0x56>	0
<0x57>	0
<0x58>	0
<0x59>	0
<0x5A>	0
<0x5B>	0
<0x5C>	0
<0x5D>	0
<0x5E>	0
<0x5F>	0
<0x60>	0
<0x61>	0
<0x62>	0
<0x63>	0
<0x64>	0
<0x65>	0
<0x66>	0
<0x67>	0
<0x68>	0
<0x69>	0
<0x6A>	0
<0x6B>	0
<0x6C>	0
<0x6D>	0
<0x6E>	0
<0x6F>	0
<0x70>	0
<0x71>	0
<0x72>	0
<0x73>	0
<0x74>	0
<0x75>	0
<0x76>	0
<0x77>	0
<0x78>	0
<0x79>	0
<0x7A>	0
<0x7B>	0
<0x7C>	0
<0x7D>	0
<0x7E>	0
<0x7F>	0
<0x80>	0
<0x81>	0
<0x82>	0
<0x83>	0
<0x84>	0
<0x85>	0
<0x86>	0
<0x87>	0
<0x88>	0
<0x89>	0
<0x8A>	0
<0x8B>	0
<0x8C>	0
<0x8D>	0
<0x8E>	0
<0x8F>	0
<0x90>	0
<0x91>	0
<0x92>	0
<0x93>	0
<0x94>	0
<0x95>	0
<0x96>	0
<0x97>	0
<0x98>	0
<0x99>	0
<0x9A>	0
<0x9B>	0
<0x9C>	0
<0x9D>	0
<0x9E>	0
<0x9F>	0
<0xA0>	0
<0xA1>	0
<0xA2>	0
<0xA3>	0
<0xA4>	0
<0xA5>	0
<0xA6>	0
<0xA7>	0
<0xA8>	0
<0xA9>	0
<0xAA>	0
<0xAB>	0
<0xAC>	0
<0xAD>	0
<0xAE>	0
<0xAF>	0
<0xB0>	0
<0xB1>	0
<0xB2>	0
<0xB3>	0
<0xB4>	0
<0xB5>	0
<0xB6>	0
<0xB7>	0
<0xB8>	0
<0xB9>	0
<0xBA>	0
<0xBB>	0
<0xBC>	0
<0xBD>	0
<0xBE>	0
<0xBF>	0
<0xC0>	0
<0xC1>	0
<0xC2>	0
<0xC3>	0
<0xC4>	0
<0xC5>	0
<0xC6>	0
<0xC7>	0
<0xC8>	0
<0xC9>	0
<0xCA>	0
<0xCB>	0
<0xCC>	0
<0xCD>	0
<0xCE>	0
<0xCF>	0
<0xD0>	0
<0xD1>	0
<0xD2>	0
<0xD3>	0
<0xD4>	0
<0xD5>	0
<0xD6>	0
<0xD7>	0
<0xD8>	0
<0xD9>	0
<0xDA>	0
<0xDB>	0
<0xDC>	0
<0xDD>	0
<0xDE>	0
<0xDF>	0
<0xE0>	0
<0xE1>	0
<0xE2>	0
<0xE3>	0
<0xE4>	0
<0xE5>	0
<0xE6>	0
<0xE7>	0
<0xE8>	0
<0xE9>	0
<0xEA>	0
<0xEB>	0
<0xEC>	0
<0xED>	0
<0xEE>	0
<0xEF>	0
<0xF0>	0
<0xF1>	0
<0xF2>	0
<0xF3>	0
<0xF4>	0
<0xF5>	0
<0xF6>	0
<0xF7>	0
<0xF8>	0
<0xF9>	0
<0xFA>	0
<0xFB>	0
<0xFC>	0
<0xFD>	0
<0xFE>	0
<0xFF>	0
▁'	-0
▁c	-1
▁s	-2
▁m	-3
te	-4
▁p	-5
ta	-6
re	-7
ll	-8
an	-9
▁v	-10
▁a	-11
en	-12
to	-13
no	-14
▁d	-15
na	-16
▁f	-17
mm	-18
▁t	-19
hi	-20
▁e	-21
▁n	-22
un	-23
ra	-24
▁ca	-25
io	-26
cc	-27
ar	-28
ne	-29
ce	-30
me	-31
he	-32
▁te	-33
ia	-34
▁l	-35
ie	-36
ss	-37
▁pe	-38
▁b	-39
▁tu	-40
ore	-41
▁nun	-42
je	-43
▁ma	-44
ro	-45
st	-46
lla	-47
ri	-48
co	-49
▁C	-50
▁M	-51
▁chi	-52
▁se	-53
le	-54
▁che	-55
▁fa	-56
gl	-57
▁mme	-58
▁g	-59
▁di	-60
▁so	-61
▁E	-62
▁ll	-63
▁S	-64
▁cu	-65
▁cc	-66
▁vo	-67
uo	-68
▁me	-69
mp	-70
sta	-71
nu	-72
▁co	-73
ur	-74
tt	-75
▁è	-76
ente	-77
tto	-78
ci	-79
tte	-80
se	-81
anno	-82
qu	-83
ene	-84
▁pa	-85
▁si	-86
▁N	-87
pp	-88
ul	-89
hiù	-90
nt	-91
amm	-92
▁"	-93
▁T	-94
▁cchiù	-95
sa	-96
▁P	-97
gg	-98
lle	-99
▁sta	-100
llo	-101
ca	-102
▁qu	-103
ve	-104
de	-105
▁vi	-106
za	-107
▁ce	-108
▁po	-109
▁va	-110
▁ve	-111
la	-112
glio	-113
▁be	-114
▁sc	-115
▁sp	-116
▁core	-117
▁mm	-118
va	-119
▁la	-120
▁can	-121
ap	-122
stu	-123
ti	-124
▁Ma	-125
ng	-126
us	-127
mme	-128
tta	-129
zo	-130
ssa	-131
una	-132
▁o	-133
ano	-134
▁no	-135
▁mo	-136
▁A	-137
nno	-138
dd	-139
ento	-140
▁pi	-141
ule	-142
ha	-143
lo	-144
cchi	-145
▁V	-146
▁i	-147
▁mare	-148
er	-149
sse	-150
da	-151
tà	-152
▁ne	-153
▁sî	-154
ammore	-155
▁pu	-156
vo	-157
▁mia	-158
do	-159
sti	-160
mmo	-161
▁ri	-162
ru	-163
mma	-164
ma	-165
is	-166
▁ta	-167
bb	-168
cch	-169
▁vu	-170
or	-171
acc	-172
▁gu	-173
▁ch	-174
ggio	-175
▁Nap	-176
▁D	-177
▁st	-178
ag	-179
▁tutt	-180
▁sen	-181
▁par	-182
ngo	-183
▁io	-184
zz	-185
nna	-186
▁bella	-187
▁dint	-188
li	-189
▁I	-190
nne	-191
▁Tu	-192
▁de	-193
▁voglio	-194
uor	-195
▁L	-196
ura	-197
▁comm	-198
▁bene	-199
nc	-200
▁Napule	-201
▁dice	-202
cché	-203
cchie	-204
ane	-205
▁add	-206
▁fi	-207
mpe	-208
anta	-209
▁Si	-210
mb	-211
▁da	-212
▁sul	-213
cca	-214
▁quanno	-215
uto	-216
pi	-217
di	-218
▁fá	-219
▁Che	-220
▁fe	-221
▁per	-222
▁pen	-223
▁sa	-224
ggi	-225
mo	-226
▁do	-227
▁gi	-228
▁man	-229
▁fà	-230
uli	-231
▁ni	-232
nf	-233
▁ste	-234
Qu	-235
glia	-236
int	-237
sso	-238
ste	-239
▁F	-240
▁ci	-241
▁re	-242
unta	-243
▁Chi	-244
sto	-245
nto	-246
uje	-247
ena	-248
mi	-249
ff	-250
▁mio	-251
▁Qu	-252
uocchie	-253
▁ti	-254
pe	-255
▁Mar	-256
ante	-257
mmore	-258
tá	-259
▁Io	-260
▁j	-261
▁sempe	-262
▁Pe	-263
ccio	-264
hê	-265
▁lu	-266
▁cca	-267
▁Nun	-268
nte	-269
▁luna	-270
sc	-271
▁ff	-272
ata	-273
▁pecché	-274
▁canta	-275
',	-276
copp	-277
glie	-278
zone	-279
▁an	-280
▁mi	-281
▁tur	-282
▁to	-283
vi	-284
▁comme	-285
▁senza	-286
iez	-287
nta	-288
mente	-289
▁pure	-290
▁fatto	-291
zza	-292
ccia	-293
▁acc	-294
▁tra	-295
▁chiag	-296
▁G	-297
▁sap	-298
iello	-299
ielo	-300
▁cun	-301
ni	-302
▁suo	-303
▁li	-304
uorno	-305
▁sole	-306
▁ro	-307
▁guar	-308
▁r	-309
▁pp	-310
uta	-311
zze	-312
▁app	-313
▁vuó	-314
▁pri	-315
gna	-316
▁camp	-317
gli	-318
gno	-319
gne	-320
▁nce	-321
so	-322
▁sulo	-323
▁vita	-324
▁niente	-325
▁z	-326
▁tre	-327
▁ar	-328
are	-329
ciu	-330
tu	-331
lli	-332
ncopp	-333
▁Co	-334
nz	-335
nà	-336
▁O	-337
rà	-338
▁sce	-339
mmiez	-340
aro	-341
aggi	-342
▁pur	-343
▁Mo	-344
cce	-345
▁cap	-346
▁ha	-347
aggio	-348
▁mu	-349
rta	-350
▁Car	-351
▁accu	-352
▁maje	-353
▁tte	-354
▁ven	-355
▁na	-356
mmura	-357
ppo	-358
zzo	-359
▁doce	-360
uspi	-361
▁lla	-362
▁sto	-363
▁abb	-364
▁â	-365
ent	-366
▁chesta	-367
rra	-368
▁sera	-369
al	-370
▁ved	-371
▁lunta	-372
▁le	-373
▁pass	-374
ione	-375
▁suspi	-376
ari	-377
▁canzone	-378
si	-379
▁R	-380
▁chiagne	-381
cci	-382
cche	-383
▁spo	-384
▁addó	-385
▁voce	-386
▁tengo	-387
▁bb	-388
▁su	-389
ammo	-390
▁So	-391
▁casa	-392
▁pare	-393
▁lo	-394
▁faje	-395
▁cielo	-396
▁mamma	-397
mbra	-398
po	-399
ran	-400
▁Di	-401
ze	-402
▁B	-403
▁Mme	-404
▁accuss	-405
▁chella	-406
Na	-407
▁dd	-408
▁tro	-409
nnammura	-410
▁tor	-411
rì	-412
ato	-413
usi	-414
▁Te	-415
▁feli	-416
rí	-417
ann	-418
▁tene	-419
lu	-420
eno	-421
aria	-422
▁gua	-423
▁qua	-424
▁vota	-425
ène	-426
enno	-427
▁oje	-428
▁ammore	-429
ria	-430
▁Se	-431
ara	-432
iere	-433
▁pre	-434
gi	-435
▁fer	-436
▁Quanno	-437
mpo	-438
unno	-439
▁cer	-440
▁lle	-441
▁scu	-442
▁passa	-443
▁scur	-444
amma	-445
anto	-446
cino	-447
▁ghi	-448
▁notte	-449
che	-450
▁ra	-451
▁sott	-452
▁gente	-453
▁songo	-454
▁pro	-455
?"	-456
▁stra	-457
mento	-458
▁belle	-459
iso	-460
spe	-461
sce	-462
ietto	-463
▁penz	-464
▁bello	-465
▁Vi	-466
▁stelle	-467
ba	-468
cora	-469
llu	-470
▁in	-471
anne	-472
▁vedé	-473
▁tutte	-474
▁–	-475
▁Vo	-476
▁bo	-477
▁nu	-478
▁non	-479
▁faccio	-480
chi	-481
▁ancora	-482
cre	-483
ora	-484
▁Cu	-485
anna	-486
▁fre	-487
tella	-488
cor	-489
nce	-490
qua	-491
sca	-492
▁Ah	-493
▁sun	-494
▁staje	-495
▁dda	-496
▁for	-497
▁pò	-498
rella	-499
▁vase	-500
go	-501
mmena	-502
▁luntano	-503
▁vène	-504
▁lassa	-505
▁suonno	-506
oro	-507
rio	-508
▁chistu	-509
ese	-510
rre	-511
▁tru	-512
▁tiene	-513
▁primma	-514
ná	-515
abb	-516
add	-517
urm	-518
▁dduje	-519
▁tutto	-520
ge	-521
ssi	-522
tti	-523
▁Ca	-524
sera	-525
▁nis	-526
iempo	-527
▁lass	-528
▁vuje	-529
sà	-530
▁No	-531
nata	-532
▁Ll	-533
▁Po	-534
▁cre	-535
▁via	-536
▁mur	-537
dà	-538
ana	-539
▁ditto	-540
▁sento	-541
nn	-542
▁parl	-543
▁sf	-544
▁vv	-545
vero	-546
▁Oje	-547
▁tanto	-548
▁vocca	-549
rá	-550
sp	-551
tì	-552
une	-553
mmene	-554
nella	-555
▁cosa	-556
ttà	-557
▁Pa	-558
enta	-559
▁Sta	-560
▁sar	-561
▁munno	-562
Nu	-563
▁poco	-564
cco	-565
gge	-566
duli	-567
▁fanno	-568
vera	-569
▁sci	-570
▁dico	-571
▁tant	-572
▁cantà	-573
▁femmena	-574
dá	-575
mane	-576
nato	-577
tina	-578
▁vvo	-579
▁Ammore	-580
▁dà	-581
▁spa	-582
ciuno	-583
creme	-584
▁porta	-585
▁tiempo	-586
▁accussì	-587
mmi	-588
ppe	-589
cchè	-590
▁una	-591
▁Carm	-592
▁mala	-593
▁vicino	-594
Sta	-595
ier	-596
cqua	-597
▁sola	-598
▁veco	-599
▁chist	-600
▁siente	-601
▁viento	-602
uv	-603
▁ô	-604
urt	-605
▁dì	-606
▁ge	-607
dere	-608
accio	-609
▁sente	-610
ja	-611
rie	-612
▁un	-613
mpag	-614
▁rro	-615
▁ssa	-616
▁sapé	-617
▁paese	-618
nfa	-619
▁am	-620
▁zi	-621
notte	-622
▁sper	-623
▁chita	-624
▁piglia	-625
pa	-626
mpa	-627
uso	-628
▁La	-629
▁fo	-630
▁il	-631
iero	-632
tore	-633
▁car	-634
▁sceta	-635
▁Pecché	-636
arca	-637
▁ama	-638
▁già	-639
▁spe	-640
▁assa	-641
▁male	-642
▁paro	-643
▁perd	-644
▁quanta	-645
cia	-646
▁av	-647
▁tri	-648
▁felice	-649
▁né	-650
nzie	-651
▁ddo	-652
▁figlio	-653
▁puó	-654
cente	-655
ttuorno	-656
jo	-657
▁ba	-658
amme	-659
enne	-660
nano	-661
▁mmane	-662
▁tutta	-663
▁assaje	-664
▁juorno	-665
▁manduli	-666
vano	-667
urtuna	-668
▁aggio	-669
né	-670
sco	-671
uoco	-672
▁sba	-673
▁pace	-674
▁scri	-675
▁overo	-676
▁nisciuno	-677
▁chiagnere	-678
▁U	-679
aff	-680
app	-681
▁Be	-682
▁buo	-683
▁more	-684
▁bbene	-685
▁guarda	-686
▁u	-687
ant	-688
zio	-689
▁Va	-690
▁aff	-691
▁ccan	-692
▁face	-693
▁ogne	-694
▁Comme	-695
▁purta	-696
▁attuorno	-697
▁Ce	-698
nate	-699
▁mie	-700
▁pru	-701
▁vul	-702
▁Comm	-703
▁nuje	-704
▁sape	-705
raccia	-706
▁penza	-707
av	-708
lleco	-709
▁saje	-710
spetta	-711
▁Carmè	-712
▁parla	-713
mbracci	-714
▁chiamma	-715
gnu	-716
▁Mm	-717
ncun	-718
urri	-719
hanno	-720
▁capi	-721
▁faci	-722
▁luce	-723
▁rosa	-724
▁torna	-725
▁chello	-726
▁ah	-727
entre	-728
▁bona	-729
▁sciu	-730
▁Maria	-731
▁cunte	-732
▁chesto	-733
▁faccia	-734
▁passione	-735
sci	-736
▁dá	-737
▁viene	-738
ate	-739
rde	-740
rìa	-741
enza	-742
ggia	-743
▁pia	-744
▁sse	-745
acqua	-746
▁moro	-747
▁dimane	-748
▁pecchè	-749
uó	-750
rte	-751
ría	-752
▁gg	-753
▁sti	-754
▁stu	-755
acche	-756
ielle	-757
▁Dint	-758
▁vico	-759
cà	-760
nca	-761
▁ru	-762
arra	-763
élla	-764
▁far	-765
▁gio	-766
▁stà	-767
tanto	-768
▁dici	-769
▁schi	-770
▁vaso	-771
▁rrose	-772
▁senti	-773
▁signo	-774
▁saccio	-775
▁stasera	-776
▁‘	-777
llè	-778
▁Fa	-779
▁Me	-780
▁tt	-781
lore	-782
▁abba	-783
▁aggi	-784
▁alle	-785
▁ddoje	-786
▁pòzzo	-787
▁stanno	-788
▁Lu	-789
cone	-790
iste	-791
scia	-792
ulita	-793
▁ciar	-794
▁vede	-795
▁buono	-796
▁mette	-797
▁mille	-798
usilleco	-799
",	-800
▁Ro	-801
▁cad	-802
accia	-803
▁Tutt	-804
▁scia	-805
▁truv	-806
▁vaje	-807
▁picce	-808
▁meglio	-809
▁Pusilleco	-810
fi	-811
èh	-812
man	-813
ure	-814
acci	-815
▁nen	-816
cchio	-817
▁mamm	-818
▁mari	-819
▁murì	-820
▁vasa	-821
▁vino	-822
giento	-823
▁since	-824
urriento	-825
ga	-826
and	-827
gni	-828
ppa	-829
use	-830
enti	-831
orta	-832
rato	-833
▁fene	-834
▁mano	-835
▁varca	-836
▁apprie	-837
▁dicere	-838
▁felici	-839
▁matina	-840
▁accussí	-841
▁ccanzone	-842
▁Surriento	-843
▁Ci	-844
▁dí	-845
anza	-846
onne	-847
▁con	-848
▁sal	-849
▁durm	-850
▁sere	-851
▁vuli	-852
amente	-853
▁sposa	-854
▁ssere	-855
▁tanta	-856
▁chitarra	-857
tra	-858
zia	-859
▁Gi	-860
▁bi	-861
cere	-862
▁giá	-863
▁spi	-864
cordo	-865
dente	-866
▁vule	-867
▁dimme	-868
▁doppo	-869
▁penzo	-870
▁maggio	-871
▁mentre	-872
argiento	-873
▁ê	-874
ami	-875
ric	-876
enze	-877
nnan	-878
ommo	-879
▁sca	-880
llina	-881
▁capa	-882
▁mese	-883
▁rose	-884
▁scio	-885
▁sentì	-886
▁appriesso	-887
▁sulamente	-888
ía	-889
▁Z	-890
ute	-891
arte	-892
erra	-893
▁bus	-894
▁vur	-895
▁giuv	-896
▁prop	-897
▁vasà	-898
▁vene	-899
▁veri	-900
▁Mamma	-901
▁lassà	-902
▁Quanta	-903
▁lacreme	-904
Stu	-905
▁vò	-906
entù	-907
viso	-908
▁Add	-909
stino	-910
▁Marí	-911
▁mali	-912
▁vaco	-913
▁tantu	-914
▁ciardi	-915
▁pienze	-916
▁guaglio	-917
▁proprio	-918
es	-919
stà	-920
ttá	-921
▁Sî	-922
▁sì	-923
óngo	-924
▁dor	-925
▁sco	-926
▁ser	-927
▁vuò	-928
▁Dice	-929
▁Mare	-930
▁ride	-931
▁tiri	-932
ncielo	-933
▁Marge	-934
▁cammi	-935
▁parlà	-936
▁rossa	-937
▁quacche	-938
▁giuventù	-939
▁stanotte	-940
▁Margellina	-941
uc	-942
eni	-943
ruo	-944
éne	-945
▁má	-946
mmoce	-947
ronne	-948
▁suff	-949
tiello	-950
▁Bella	-951
▁cantá	-952
▁stato	-953
tí	-954
▁.	-955
▁Gu	-956
rano	-957
tena	-958
▁ris	-959
▁san	-960
▁sur	-961
anema	-962
▁pigli	-963
▁Chella	-964
▁chillo	-965
▁primmo	-966
▁sciure	-967
▁scurdà	-968
▁strada	-969
▁primmavera	-970
▁Ti	-971
anca	-972
iera	-973
scio	-974
teme	-975
vere	-976
▁stá	-977
▁tuo	-978
▁Cata	-979
▁fati	-980
▁gran	-981
▁tuor	-982
enella	-983
▁vvote	-984
▁chiano	-985
▁lassato	-986
▁lucente	-987
'?	-988
sá	-989
ere	-990
agna	-991
vato	-992
▁ddi	-993
▁ffe	-994
nziem	-995
ombra	-996
▁cerca	-997
▁scuro	-998
▁terra	-999
▁marena	-1000
▁parola	-1001
▁saglie	-1002
▁triste	-1003
nnammurate	-1004
▁mandulino	-1005
..	-1006
hé	-1007
zi	-1008
▁h	-1009
bbe	-1010
cio	-1011
ver	-1012
side	-1013
unne	-1014
Ncopp	-1015
uorme	-1016
▁disp	-1017
▁musi	-1018
▁sona	-1019
▁vide	-1020
▁campà	-1021
▁campá	-1022
▁città	-1023
▁nomme	-1024
▁ardente	-1025
▁destino	-1026
▁scritto	-1027
▁figliola	-1028
nnammurata	-1029
!..	-1030
nco	-1031
anco	-1032
roce	-1033
unce	-1034
énne	-1035
▁bal	-1036
▁bar	-1037
▁por	-1038
mmano	-1039
urast	-1040
▁Marì	-1041
▁arri	-1042
mporta	-1043
▁forte	-1044
▁fosse	-1045
▁nutta	-1046
▁perdo	-1047
▁resta	-1048
antella	-1049
▁suonne	-1050
▁troppo	-1051
cá	-1052
▁J	-1053
▁vó	-1054
arda	-1055
▁fra	-1056
▁mar	-1057
llora	-1058
mpare	-1059
▁cante	-1060
▁chest	-1061
▁famme	-1062
▁rispo	-1063
▁scenne	-1064
nnammurato	-1065
▁guaglione	-1066
tè	-1067
avi	-1068
ino	-1069
unc	-1070
uro	-1071
▁nd	-1072
▁za	-1073
acca	-1074
nchi	-1075
rile	-1076
▁Per	-1077
▁cri	-1078
▁ppo	-1079
▁cura	-1080
▁miso	-1081
▁murí	-1082
▁pazz	-1083
▁scar	-1084
▁Canta	-1085
▁belli	-1086
▁metto	-1087
▁quann	-1088
▁torno	-1089
▁ciento	-1090
▁deside	-1091
▁furast	-1092
▁suspira	-1093
▁suspire	-1094
▁ffemmene	-1095
gn	-1096
atu	-1097
usa	-1098
ceno	-1099
▁San	-1100
▁fri	-1101
cenno	-1102
▁Mado	-1103
▁tujo	-1104
ncanta	-1105
▁amare	-1106
▁canto	-1107
▁manco	-1108
▁trova	-1109
mpietto	-1110
▁sponta	-1111
▁luntana	-1112
bi	-1113
fe	-1114
rno	-1115
▁Pi	-1116
▁du	-1117
ando	-1118
▁Dio	-1119
▁rre	-1120
enare	-1121
▁fuje	-1122
addore	-1123
▁trase	-1124
▁turnà	-1125
ariello	-1126
cchiere	-1127
▁Voglio	-1128
▁chiena	-1129
▁guardà	-1130
▁musica	-1131
▁quanto	-1132
▁aspetta	-1133
▁vulesse	-1134
▁malincun	-1135
fu	-1136
anu	-1137
bba	-1138
era	-1139
ulo	-1140
▁"'	-1141
▁Cc	-1142
nore	-1143
ètte	-1144
▁blu	-1145
▁bri	-1146
▁cco	-1147
▁gel	-1148
ronte	-1149
uonno	-1150
▁nato	-1151
▁sman	-1152
quante	-1153
▁Cchiù	-1154
▁ferma	-1155
▁mammá	-1156
▁sotto	-1157
▁sposo	-1158
▁ssaje	-1159
▁denare	-1160
▁ffuoco	-1161
▁fresca	-1162
▁lietto	-1163
▁Madonna	-1164
▁ffronne	-1165
▁felicità	-1166
▁penziero	-1167
▁sultanto	-1168
là	-1169
rr	-1170
nza	-1171
stá	-1172
▁je	-1173
esta	-1174
nuto	-1175
stri	-1176
ccato	-1177
gione	-1178
llèro	-1179
▁Rosa	-1180
▁toja	-1181
▁chisà	-1182
▁turmi	-1183
▁allora	-1184
▁chiamm	-1185
▁figlia	-1186
▁scurdá	-1187
▁tuorne	-1188
▁fenesta	-1189
nì	-1190
rò	-1191
ero	-1192
nti	-1193
tro	-1194
uvi	-1195
arrà	-1196
▁mma	-1197
cchia	-1198
mpara	-1199
▁dato	-1200
▁nire	-1201
▁Carul	-1202
▁fatta	-1203
▁fatte	-1204
▁lassá	-1205
▁parte	-1206
▁scusa	-1207
▁turná	-1208
▁stella	-1209
▁stesso	-1210
▁vucche	-1211
▁perduto	-1212
▁signora	-1213
▁abbraccia	-1214
Si	-1215
aa	-1216
fo	-1217
all	-1218
len	-1219
ove	-1220
urà	-1221
▁fu	-1222
accu	-1223
cato	-1224
dato	-1225
isce	-1226
▁bru	-1227
▁gra	-1228
▁può	-1229
ariul	-1230
▁arre	-1231
▁cara	-1232
▁copp	-1233
▁vasá	-1234
pulita	-1235
▁Santa	-1236
▁cerco	-1237
▁quant	-1238
▁sentí	-1239
▁vanno	-1240
nfronte	-1241
▁addurm	-1242
▁chesti	-1243
▁chianu	-1244
▁cumpag	-1245
gu	-1246
ró	-1247
và	-1248
vá	-1249
éa	-1250
Sti	-1251
dde	-1252
mpi	-1253
mone	-1254
mpre	-1255
usci	-1256
▁Cap	-1257
▁Tor	-1258
ierno	-1259
ttore	-1260
▁Core	-1261
▁Voca	-1262
▁caro	-1263
▁cera	-1264
▁niro	-1265
▁spus	-1266
▁voca	-1267
nzieme	-1268
ulella	-1269
▁Chist	-1270
▁bellu	-1271
▁cagna	-1272
▁ccose	-1273
▁mente	-1274
▁quase	-1275
▁sarrà	-1276
▁sunnà	-1277
▁tremm	-1278
cenella	-1279
▁calore	-1280
▁Marechi	-1281
▁mumento	-1282
▁cuntento	-1283
▁napulita	-1284
▁vucchella	-1285
Oh	-1286
fè	-1287
dro	-1288
per	-1289
▁Fi	-1290
▁Ni	-1291
▁hê	-1292
cina	-1293
illo	-1294
usia	-1295
▁nèh	-1296
▁ppe	-1297
amico	-1298
unato	-1299
▁appa	-1300
▁daje	-1301
▁fore	-1302
▁pute	-1303
cchete	-1304
ncello	-1305
▁crede	-1306
▁mieje	-1307
▁nisci	-1308
▁nonna	-1309
▁scetá	-1310
uquante	-1311
▁Chesta	-1312
▁parole	-1313
▁quante	-1314
▁sbatte	-1315
▁stóngo	-1316
▁balcone	-1317
▁dicette	-1318
▁nuttata	-1319
▁cantanno	-1320
▁llacreme	-1321
▁malincunia	-1322
Che	-1323
ave	-1324
mba	-1325
▁Do	-1326
▁al	-1327
▁nn	-1328
▁sò	-1329
stre	-1330
usto	-1331
vole	-1332
▁ami	-1333
▁cur	-1334
▁era	-1335
▁tar	-1336
▁vie	-1337
arole	-1338
iette	-1339
▁Vuje	-1340
▁cchi	-1341
▁cose	-1342
▁quar	-1343
▁stri	-1344
Ammore	-1345
▁festa	-1346
▁nasce	-1347
▁porto	-1348
▁purtà	-1349
▁pònno	-1350
▁vonno	-1351
▁catena	-1352
▁marina	-1353
▁scuorno	-1354
▁ciardine	-1355
nè	-1356
Nun	-1357
dio	-1358
▁Ri	-1359
▁là	-1360
abba	-1361
jeno	-1362
nema	-1363
tate	-1364
teve	-1365
vate	-1366
vece	-1367
▁all	-1368
▁ffa	-1369
tiere	-1370
uorne	-1371
venta	-1372
▁appi	-1373
▁ched	-1374
▁date	-1375
▁mana	-1376
▁mise	-1377
▁teni	-1378
nterra	-1379
▁Dimme	-1380
▁Torna	-1381
▁Viene	-1382
▁cittá	-1383
▁fuoco	-1384
▁giura	-1385
▁morte	-1386
▁nénna	-1387
▁paura	-1388
▁ppene	-1389
▁prufu	-1390
▁steva	-1391
▁tante	-1392
▁zitto	-1393
aspetta	-1394
▁guagli	-1395
▁verità	-1396
▁capille	-1397
▁furtuna	-1398
ch	-1399
aré	-1400
auc	-1401
ciò	-1402
spi	-1403
èra	-1404
▁bu	-1405
▁ga	-1406
▁nc	-1407
▁sb	-1408
▁tè	-1409
isci	-1410
mela	-1411
sche	-1412
tino	-1413
èlle	-1414
▁Sto	-1415
▁Tar	-1416
▁Ten	-1417
▁rie	-1418
▁vve	-1419
mpazz	-1420
nfami	-1421
rillo	-1422
ruove	-1423
▁anti	-1424
▁fino	-1425
▁salu	-1426
▁spar	-1427
▁vola	-1428
▁Passa	-1429
▁cride	-1430
▁pisca	-1431
▁succe	-1432
▁trovo	-1433
nzuonno	-1434
uommene	-1435
▁figlie	-1436
▁guardá	-1437
▁miette	-1438
▁sciore	-1439
▁suffrì	-1440
▁vurría	-1441
▁gelusia	-1442
▁campagna	-1443
▁risponne	-1444
▁piccerella	-1445
▁tuttuquante	-1446
Ah	-1447
ìa	-1448
enz	-1449
nci	-1450
nga	-1451
sia	-1452
▁Sc	-1453
▁Ve	-1454
▁ss	-1455
▁zo	-1456
ande	-1457
duto	-1458
hann	-1459
▁ara	-1460
▁cal	-1461
▁pie	-1462
▁que	-1463
▁vuo	-1464
mbria	-1465
menta	-1466
meric	-1467
ppete	-1468
rimma	-1469
uorto	-1470
▁addu	-1471
▁cump	-1472
▁cunz	-1473
▁ognu	-1474
▁ttre	-1475
▁vint	-1476
nnanze	-1477
▁Tutto	-1478
▁durmì	-1479
▁guard	-1480
▁quale	-1481
▁rezza	-1482
▁tradi	-1483
▁smania	-1484
▁tremma	-1485
▁facette	-1486
▁ssaccio	-1487
▁suspirà	-1488
▁serenata	-1489
Ma	-1490
az	-1491
té	-1492
esa	-1493
run	-1494
ssà	-1495
tur	-1496
ula	-1497
uni	-1498
áte	-1499
▁Da	-1500
▁Mi	-1501
▁ho	-1502
arri	-1503
nghe	-1504
rica	-1505
▁avi	-1506
▁col	-1507
▁ffi	-1508
▁gia	-1509
arche	-1510
nenno	-1511
nnanz	-1512
ttate	-1513
ulina	-1514
▁Addó	-1515
▁Luna	-1516
▁risp	-1517
▁scor	-1518
▁stru	-1519
▁tale	-1520
▁tené	-1521
▁vasi	-1522
lenzio	-1523
▁Gente	-1524
▁basta	-1525
▁brill	-1526
▁fanta	-1527
▁forse	-1528
▁lasso	-1529
▁perde	-1530
▁simmo	-1531
▁spusa	-1532
▁vvéne	-1533
▁vònno	-1534
▁vócca	-1535
▁diceva	-1536
▁piglio	-1537
▁stessa	-1538
▁vuluto	-1539
▁Carmela	-1540
▁cantano	-1541
▁chiammo	-1542
▁chianto	-1543
▁signore	-1544
▁vecchia	-1545
▁ghiuorno	-1546
▁speranza	-1547
▁desiderio	-1548
▁manduline	-1549
St	-1550
ei	-1551
ré	-1552
dda	-1553
ete	-1554
ndo	-1555
und	-1556
uno	-1557
nuti	-1558
onna	-1559
orme	-1560
polo	-1561
tuto	-1562
ènno	-1563
▁Nen	-1564
▁Non	-1565
▁Tre	-1566
▁del	-1567
▁più	-1568
▁pun	-1569
▁spí	-1570
lomma	-1571
mmeta	-1572
nfama	-1573
ngule	-1574
unata	-1575
uorde	-1576
uorte	-1577
▁Essa	-1578
▁Napo	-1579
▁Tene	-1580
▁addò	-1581
▁anna	-1582
▁busc	-1583
▁capì	-1584
▁fina	-1585
▁mane	-1586
▁rima	-1587
▁site	-1588
▁song	-1589
▁tira	-1590
accare	-1591
mmella	-1592
nfacci	-1593
spetto	-1594
▁addio	-1595
▁amaro	-1596
▁capri	-1597
▁damme	-1598
▁freva	-1599
▁funta	-1600
▁janca	-1601
▁metti	-1602
▁munta	-1603
▁nenna	-1604
▁stata	-1605
▁state	-1606
▁chiare	-1607
▁facite	-1608
▁teneva	-1609
▁veritá	-1610
▁Stasera	-1611
▁abbrile	-1612
▁appassi	-1613
▁campana	-1614
▁credere	-1615
▁pparole	-1616
▁sincera	-1617
▁sincero	-1618
▁tornano	-1619
▁turnata	-1620
▁cuntenta	-1621
▁marenare	-1622
▁penzanno	-1623
▁silenzio	-1624
▁tarantella	-1625
ccu	-1626
gio	-1627
llá	-1628
tri	-1629
ttu	-1630
éva	-1631
▁Ch	-1632
▁Fe	-1633
▁Ne	-1634
▁Sa	-1635
▁Sp	-1636
▁br	-1637
▁uè	-1638
dite	-1639
està	-1640
mbre	-1641
mmen	-1642
tene	-1643
vota	-1644
▁Gen	-1645
▁Vur	-1646
▁cag	-1647
▁nnu	-1648
unate	-1649
▁adde	-1650
▁addi	-1651
▁allè	-1652
▁cafè	-1653
▁essa	-1654
▁fran	-1655
▁meza	-1656
▁nata	-1657
▁nera	-1658
▁scen	-1659
ncroce	-1660
▁Canne	-1661
▁Senza	-1662
▁astri	-1663
▁chino	-1664
▁corre	-1665
▁ddice	-1666
▁ninno	-1667
▁parlá	-1668
▁passe	-1669
▁piace	-1670
▁ppoco	-1671
▁truvá	-1672
▁vesta	-1673
▁vesti	-1674
▁Siente	-1675
▁allero	-1676
▁chisto	-1677
▁guardo	-1678
▁invece	-1679
▁ognuno	-1680
▁piglià	-1681
▁saluto	-1682
▁facenno	-1683
▁perdere	-1684
▁ragione	-1685
▁truvato	-1686
▁turnato	-1687
▁uocchie	-1688
▁Napulita	-1689
▁sfurtuna	-1690
▁turmiento	-1691
Mm	-1692
alb	-1693
azá	-1694
cer	-1695
nfo	-1696
▁go	-1697
▁zu	-1698
anti	-1699
anze	-1700
date	-1701
nale	-1702
ncan	-1703
ncuo	-1704
rata	-1705
sciu	-1706
▁Par	-1707
▁mal	-1708
▁nuo	-1709
▁pap	-1710
▁scé	-1711
▁sol	-1712
iempe	-1713
perta	-1714
racce	-1715
ssato	-1716
▁Pure	-1717
▁Zazá	-1718
▁allu	-1719
▁arru	-1720
▁cade	-1721
▁chia	-1722
▁para	-1723
▁puti	-1724
▁scun	-1725
▁semp	-1726
gliole	-1727
▁Aggio	-1728
▁Lucia	-1729
▁Tengo	-1730
▁inuti	-1731
▁jammo	-1732
▁manca	-1733
▁manna	-1734
▁padro	-1735
▁passà	-1736
▁passá	-1737
▁pazzo	-1738
▁pizza	-1739
▁suone	-1740
▁visto	-1741
uncella	-1742
▁Catarì	-1743
▁appena	-1744
▁capito	-1745
▁fatica	-1746
▁ghiuta	-1747
▁ghiuto	-1748
▁malata	-1749
▁ndande	-1750
▁scordo	-1751
▁barcone	-1752
▁chiagno	-1753
▁passato	-1754
▁peccato	-1755
▁muntagna	-1756
▁brillante	-1757
▁dispietto	-1758
▁sentimento	-1759
Io	-1760
Chi	-1761
ccà	-1762
ddo	-1763
ion	-1764
tia	-1765
tre	-1766
óre	-1767
▁Pu	-1768
▁Uè	-1769
▁sí	-1770
▁zù	-1771
agno	-1772
data	-1773
iore	-1774
orte	-1775
rità	-1776
uvio	-1777
▁Lei	-1778
▁Ves	-1779
▁lli	-1780
▁ssi	-1781
▁uno	-1782
atale	-1783
corde	-1784
dimmo	-1785
llari	-1786
nanno	-1787
ranno	-1788
rotta	-1789
▁Mari	-1790
▁asci	-1791
▁cadé	-1792
▁nove	-1793
▁pena	-1794
▁seta	-1795
▁spie	-1796
gliere	-1797
merica	-1798
miglia	-1799
raccio	-1800
▁aggiu	-1801
▁cunto	-1802
▁dorme	-1803
▁lette	-1804
▁mmale	-1805
▁perzo	-1806
▁sanno	-1807
▁santa	-1808
▁segno	-1809
▁sonno	-1810
▁spusà	-1811
▁tanno	-1812
mmascia	-1813
nammura	-1814
ncuntra	-1815
▁Carulí	-1816
▁Cicere	-1817
▁Natale	-1818
▁Primma	-1819
▁chiove	-1820
▁chisti	-1821
▁duorme	-1822
▁guappo	-1823
▁lariul	-1824
▁raggio	-1825
▁venuta	-1826
▁vulite	-1827
affaccia	-1828
mbraccio	-1829
▁capisce	-1830
▁feneste	-1831
▁suspiro	-1832
▁ciardino	-1833
▁nisciuna	-1834
▁penziere	-1835
▁capriccio	-1836
▁casarella	-1837
▁Marechiaro	-1838
▁furastiero	-1839
▁piccerillo	-1840
▁Cicerenella	-1841
'"	-1842
No	-1843
Te	-1844
am	-1845
má	-1846
rè	-1847
cqu	-1848
ies	-1849
ita	-1850
mmé	-1851
ntu	-1852
rrà	-1853
▁pè	-1854
▁ze	-1855
acco	-1856
appi	-1857
cate	-1858
ccià	-1859
essa	-1860
fica	-1861
isto	-1862
lano	-1863
lena	-1864
mata	-1865
rase	-1866
stra	-1867
urde	-1868
▁Nce	-1869
▁ave	-1870
▁ban	-1871
▁dul	-1872
▁ffà	-1873
▁guí	-1874
▁lib	-1875
▁ppa	-1876
▁sfi	-1877
▁sic	-1878
Mmiez	-1879
ffere	-1880
gnore	-1881
relle	-1882
ttero	-1883
zione	-1884
▁Ogne	-1885
▁anne	-1886
▁arra	-1887
▁bion	-1888
▁libb	-1889
▁rena	-1890
▁tras	-1891
▁vela	-1892
▁venì	-1893
arella	-1894
gliera	-1895
tténne	-1896
▁Addio	-1897
▁Chest	-1898
▁Cunce	-1899
▁Jammo	-1900
▁campo	-1901
▁chill	-1902
▁croce	-1903
▁donna	-1904
▁figli	-1905
▁genti	-1906
▁guaje	-1907
▁pazzi	-1908
▁ritur	-1909
▁sagli	-1910
▁sango	-1911
▁scola	-1912
▁serve	-1913
▁tosta	-1914
▁truvà	-1915
▁tuoje	-1916
▁turna	-1917
▁verde	-1918
nfaccia	-1919
nfamità	-1920
▁Guarda	-1921
▁abband	-1922
▁fredda	-1923
▁guarde	-1924
▁juorne	-1925
▁limone	-1926
▁malato	-1927
▁pietto	-1928
▁rrobba	-1929
▁salute	-1930
▁venuto	-1931
▁vierno	-1932
Nnammura	-1933
llarilli	-1934
mericano	-1935
▁Vesuvio	-1936
▁bbracce	-1937
▁cammina	-1938
▁cantava	-1939
▁perduta	-1940
▁tricche	-1941
▁vasillo	-1942
▁bbraccia	-1943
▁marenaro	-1944
▁paraviso	-1945
▁rispunne	-1946
▁bicchiere	-1947
▁ndanderan	-1948
▁piscatore	-1949
▁Tarantella	-1950
▁trallarilli	-1951
Pe	-1952
cí	-1953
mà	-1954
ut	-1955
emo	-1956
llà	-1957
mbi	-1958
ngu	-1959
nia	-1960
nnu	-1961
rri	-1962
zie	-1963
▁jì	-1964
annà	-1965
ardo	-1966
atta	-1967
ccer	-1968
cese	-1969
dico	-1970
dono	-1971
ertà	-1972
jere	-1973
lice	-1974
mpar	-1975
nche	-1976
ntra	-1977
▁For	-1978
▁Lui	-1979
▁Nèh	-1980
▁bbe	-1981
▁cha	-1982
▁fro	-1983
▁ttu	-1984
canno	-1985
celle	-1986
mmema	-1987
mmero	-1988
ncapa	-1989
nnere	-1990
onore	-1991
ttura	-1992
▁Dici	-1993
▁alla	-1994
▁atta	-1995
▁cava	-1996
▁cian	-1997
▁filo	-1998
▁gelo	-1999
▁lire	-2000
▁meje	-2001
▁pene	-2002
▁sana	-2003
▁spia	-2004
▁stre	-2005
▁sunà	-2006
▁tène	-2007
▁vedè	-2008
▁velo	-2009
arraje	-2010
mpagna	-2011
▁carre	-2012
▁carta	-2013
▁dinto	-2014
▁durmí	-2015
▁fernì	-2016
▁forza	-2017
▁giuvi	-2018
▁lloro	-2019
▁musso	-2020
▁parle	-2021
▁pizzo	-2022
▁sarrá	-2023
▁venne	-2024
▁vista	-2025
araviso	-2026
differe	-2027
▁Catarí	-2028
▁Napoli	-2029
▁Pecchè	-2030
▁allèra	-2031
▁cammen	-2032
▁culore	-2033
▁guerra	-2034
▁moglie	-2035
▁pigliá	-2036
▁popolo	-2037
▁puorte	-2038
▁suffrí	-2039
▁truove	-2040
▁vurrìa	-2041
unciello	-2042
▁Dicette	-2043
▁abballa	-2044
▁fernuto	-2045
▁inutile	-2046
▁purtato	-2047
▁rimasto	-2048
▁scetata	-2049
▁ttrezze	-2050
accarezza	-2051
▁spíngule	-2052
▁viecchio	-2053
▁guagliune	-2054
▁chiagnenno	-2055
Mo	-2056
dí	-2057
ou	-2058
Oje	-2059
cur	-2060
esù	-2061
rna	-2062
uva	-2063
ven	-2064
▁Oh	-2065
▁Sf	-2066
▁Zi	-2067
▁mà	-2068
▁sg	-2069
anni	-2070
cata	-2071
iett	-2072
iole	-2073
isco	-2074
ngio	-2075
nute	-2076
rino	-2077
èlla	-2078
▁Man	-2079
▁asc	-2080
▁dur	-2081
amice	-2082
arola	-2083
bbeto	-2084
mmeno	-2085
nello	-2086
telle	-2087
ttato	-2088
▁Gesù	-2089
▁Nuje	-2090
▁Pare	-2091
▁Pule	-2092
▁avve	-2093
▁capp	-2094
▁cier	-2095
▁fata	-2096
▁isso	-2097
▁nova	-2098
▁pala	-2099
▁pane	-2100
▁sapè	-2101
▁soja	-2102
▁vogl	-2103
▁vvuó	-2104
emonte	-2105
entite	-2106
ntusse	-2107
tratto	-2108
ulillo	-2109
ùppete	-2110
▁Quant	-2111
▁Tutte	-2112
▁amore	-2113
▁credo	-2114
▁farme	-2115
▁legge	-2116
▁morta	-2117
▁ponno	-2118
▁sarra	-2119
▁signu	-2120
▁spine	-2121
▁suono	-2122
▁treno	-2123
▁vvoce	-2124
America	-2125
▁amante	-2126
▁annasc	-2127
▁caccia	-2128
▁chillu	-2129
▁dicite	-2130
▁dulore	-2131
▁friddo	-2132
▁nnotte	-2133
▁statte	-2134
▁ullèro	-2135
▁Manduli	-2136
▁chiamme	-2137
▁facimmo	-2138
▁gentile	-2139
▁padrone	-2140
▁piacere	-2141
▁ricordo	-2142
▁sbaglia	-2143
▁succede	-2144
▁Sfurtuna	-2145
▁chitarre	-2146
▁felicitá	-2147
▁mugliera	-2148
differente	-2149
▁Capemonte	-2150
▁quartiere	-2151
Nf	-2152
dé	-2153
hh	-2154
in	-2155
gia	-2156
gre	-2157
mbè	-2158
rni	-2159
▁De	-2160
▁Lo	-2161
▁Nu	-2162
▁ai	-2163
▁cá	-2164
acce	-2165
agne	-2166
cciá	-2167
ccol	-2168
gelo	-2169
gnor	-2170
mato	-2171
tria	-2172
uolo	-2173
vane	-2174
zzur	-2175
▁Ohé	-2176
▁Pap	-2177
▁Sal	-2178
▁poi	-2179
▁vvi	-2180
ccaro	-2181
gnere	-2182
ietta	-2183
rezza	-2184
tillo	-2185
▁Faci	-2186
▁acco	-2187
▁cumm	-2188
▁cuno	-2189
▁deli	-2190
▁fora	-2191
▁gela	-2192
▁mena	-2193
▁mure	-2194
▁ogge	-2195
▁palu	-2196
▁papá	-2197
▁pate	-2198
▁però	-2199
▁suna	-2200
mpiett	-2201
nganna	-2202
nghete	-2203
spettà	-2204
ssione	-2205
▁Chisà	-2206
▁Genna	-2207
▁Ninno	-2208
▁Quann	-2209
▁Tiene	-2210
▁certo	-2211
▁conta	-2212
▁cunzi	-2213
▁ddico	-2214
▁ddoce	-2215
▁lasse	-2216
▁magni	-2217
▁mmare	-2218
▁passo	-2219
▁perme	-2220
▁piano	-2221
▁prega	-2222
▁pòrta	-2223
▁retta	-2224
▁sette	-2225
▁vengo	-2226
andiera	-2227
eniello	-2228
isciuno	-2229
ramente	-2230
▁Chistu	-2231
▁antico	-2232
▁bionda	-2233
▁faceva	-2234
▁ggrano	-2235
▁muorto	-2236
▁pronta	-2237
▁quatto	-2238
▁ridere	-2239
▁saputo	-2240
▁spezza	-2241
▁stanco	-2242
▁tenite	-2243
▁tirito	-2244
▁varche	-2245
▁vascio	-2246
aucielle	-2247
▁cantate	-2248
▁facesse	-2249
▁purtaje	-2250
▁putesse	-2251
▁sentite	-2252
▁vestito	-2253
▁vulimmo	-2254
▁curaggio	-2255
▁dincello	-2256
▁pigliato	-2257
▁ritratto	-2258
▁scurdata	-2259
▁specchio	-2260
▁tantillo	-2261
▁turmenta	-2262
▁magnifica	-2263
▁Pulecenella	-2264
!"	-2265
ns	-2266
sì	-2267
ior	-2268
lor	-2269
lum	-2270
res	-2271
rme	-2272
rro	-2273
ssá	-2274
ére	-2275
▁Li	-2276
▁Uh	-2277
▁cò	-2278
▁gh	-2279
anná	-2280
cund	-2281
enzo	-2282
erba	-2283
está	-2284
lici	-2285
nuta	-2286
ture	-2287
urre	-2288
étte	-2289
▁Cca	-2290
▁Era	-2291
▁are	-2292
▁asp	-2293
▁ciu	-2294
▁fia	-2295
▁fin	-2296
▁ggu	-2297
▁vap	-2298
cante	-2299
crema	-2300
gnato	-2301
llone	-2302
nfosa	-2303
nnamm	-2304
ttina	-2305
télla	-2306
▁Però	-2307
▁bell	-2308
▁canz	-2309
▁care	-2310
▁curo	-2311
▁damm	-2312
▁haje	-2313
▁lusi	-2314
▁miez	-2315
▁ppuó	-2316
▁preg	-2317
▁pres	-2318
▁rumm	-2319
▁senz	-2320
▁zing	-2321
ciello	-2322
mmocca	-2323
mpagne	-2324
mpetto	-2325
nzerra	-2326
ttella	-2327
vicina	-2328
▁Cielo	-2329
▁Doppo	-2330
▁Filum	-2331
▁Sarrà	-2332
▁Songo	-2333
▁amico	-2334
▁avuto	-2335
▁campa	-2336
▁conto	-2337
▁cumbi	-2338
▁curte	-2339
▁dormo	-2340
▁folla	-2341
▁gioja	-2342
▁mammà	-2343
▁muore	-2344
▁pazze	-2345
▁pozzo	-2346
▁restà	-2347
▁spieg	-2348
▁stevo	-2349
▁sunná	-2350
▁tramo	-2351
▁veste	-2352
▁Carulì	-2353
▁Chillo	-2354
▁Quanto	-2355
▁Vicino	-2356
▁Vurrìa	-2357
▁chiara	-2358
▁dicive	-2359
▁fianco	-2360
▁marito	-2361
▁miglia	-2362
▁piglie	-2363
▁pronto	-2364
▁scorda	-2365
▁serena	-2366
▁sfizio	-2367
▁spassa	-2368
▁struje	-2369
▁tenevo	-2370
▁tiempe	-2371
▁vicchi	-2372
annaggia	-2373
nnucente	-2374
▁Sentite	-2375
▁femmene	-2376
▁giovane	-2377
▁mámmeta	-2378
▁Carulina	-2379
▁Nisciuno	-2380
▁bandiera	-2381
▁fantasia	-2382
▁pigliaje	-2383
▁surtanto	-2384
▁addeventa	-2385
▁ffigliole	-2386
▁canzuncella	-2387
Nnammuratella	-2388
Gu	-2389
Sì	-2390
Tu	-2391
lì	-2392
nd	-2393
uò	-2394
vu	-2395
alu	-2396
arb	-2397
arà	-2398
ati	-2399
cul	-2400
gar	-2401
mmó	-2402
nqu	-2403
rda	-2404
uce	-2405
unn	-2406
zzi	-2407
èle	-2408
▁Ba	-2409
▁Re	-2410
▁aj	-2411
▁lá	-2412
▁oi	-2413
ario	-2414
arre	-2415
avit	-2416
ceta	-2417
cine	-2418
divi	-2419
enné	-2420
gliá	-2421
isso	-2422
leno	-2423
lino	-2424
mice	-2425
nono	-2426
osta	-2427
pite	-2428
rene	-2429
rera	-2430
rina	-2431
rite	-2432
stur	-2433
tare	-2434
tone	-2435
undi	-2436
uole	-2437
usce	-2438
vore	-2439
vula	-2440
▁Cer	-2441
▁Gué	-2442
▁Rus	-2443
▁Tra	-2444
▁and	-2445
▁avé	-2446
▁ffá	-2447
▁gli	-2448
▁gri	-2449
▁jur	-2450
▁lie	-2451
▁mez	-2452
▁pal	-2453
▁pan	-2454
▁res	-2455
▁vva	-2456
arrìa	-2457
enzia	-2458
ggina	-2459
gnano	-2460
ierde	-2461
nconi	-2462
nelle	-2463
nillo	-2464
nterr	-2465
rraje	-2466
áteto	-2467
ùceno	-2468
▁Gies	-2469
▁Mamm	-2470
▁Sott	-2471
▁Sulo	-2472
▁Vide	-2473
▁Vita	-2474
▁atti	-2475
▁cria	-2476
▁fede	-2477
▁fine	-2478
▁gruo	-2479
▁hann	-2480
▁riso	-2481
▁soff	-2482
▁veni	-2483
▁vote	-2484
gliate	-2485
lmente	-2486
tielle	-2487
▁Famme	-2488
▁amara	-2489
▁anema	-2490
▁busci	-2491
▁costa	-2492
▁cumpá	-2493
▁cunta	-2494
▁curre	-2495
▁dóngo	-2496
▁facce	-2497
▁ferne	-2498
▁freve	-2499
▁palli	-2500
▁parlo	-2501
▁penzà	-2502
▁prete	-2503
▁resto	-2504
▁servo	-2505
▁stran	-2506
▁tocca	-2507
abbasta	-2508
allunta	-2509
lluccio	-2510
ngiorno	-2511
▁Meglio	-2512
▁Statte	-2513
▁cunzul	-2514
▁rieste	-2515
▁saluta	-2516
▁scinne	-2517
▁strade	-2518
▁tremmà	-2519
▁turchi	-2520
▁vapore	-2521
▁voglia	-2522
ssignore	-2523
zzarella	-2524
▁apposta	-2525
▁cammisa	-2526
▁cchiesa	-2527
▁curtese	-2528
▁diciste	-2529
▁funtana	-2530
▁jurnata	-2531
▁lettera	-2532
▁marisci	-2533
▁palomma	-2534
▁parlate	-2535
▁scétate	-2536
▁turnate	-2537
▁vvoglio	-2538
mmasciata	-2539
mparaviso	-2540
▁bellezza	-2541
▁francese	-2542
▁ppassato	-2543
▁sunnanno	-2544
▁truvanno	-2545
▁malamente	-2546
▁napulitana	-2547
▁indifferente	-2548
▁trallarillirera	-2549
"?	-2550
Fa	-2551
Nn	-2552
bù	-2553
nò	-2554
Add	-2555
ama	-2556
ché	-2557
enu	-2558
lia	-2559
mpu	-2560
ona	-2561
ras	-2562
sio	-2563
zzà	-2564
▁Mé	-2565
▁ja	-2566
arru	-2567
arrá	-2568
auto	-2569
doje	-2570
este	-2571
ieme	-2572
nare	-2573
ncia	-2574
rciò	-2575
rena	-2576
veru	-2577
zona	-2578
▁Fre	-2579
▁Ven	-2580
▁agg	-2581
▁ass	-2582
▁ber	-2583
▁die	-2584
▁fru	-2585
▁gué	-2586
▁mag	-2587
▁nel	-2588
▁ohé	-2589
▁ppi	-2590
▁spu	-2591
▁ten	-2592
▁vol	-2593
avevo	-2594
china	-2595
dillo	-2596
notto	-2597
ntano	-2598
razia	-2599
ssimo	-2600
state	-2601
tèlla	-2602
ánema	-2603
▁Accu	-2604
▁Giul	-2605
▁Luci	-2606
▁Mali	-2607
▁Sole	-2608
▁Tule	-2609
▁Vola	-2610
▁acca	-2611
▁arap	-2612
▁asce	-2613
▁azze	-2614
▁capo	-2615
▁chiá	-2616
▁culu	-2617
▁dich	-2618
▁dire	-2619
▁giur	-2620
▁jéva	-2621
▁leva	-2622
▁muti	-2623
▁pais	-2624
▁pari	-2625
▁pumm	-2626
▁rica	-2627
▁scre	-2628
▁sfre	-2629
▁vulà	-2630
anella	-2631
ariulà	-2632
eterni	-2633
istero	-2634
ncoppa	-2635
ntenne	-2636
riello	-2637
ulelle	-2638
unicul	-2639
urdemo	-2640
èllera	-2641
▁Ddoje	-2642
▁Forse	-2643
▁Giesù	-2644
▁Nanni	-2645
▁Salva	-2646
▁Sento	-2647
▁Staje	-2648
▁amata	-2649
▁amato	-2650
▁ampre	-2651
▁brune	-2652
▁carce	-2653
▁carro	-2654
▁cercà	-2655
▁coppa	-2656
▁gusto	-2657
▁magna	-2658
▁nosta	-2659
▁parti	-2660
▁pecca	-2661
▁pietà	-2662
▁prume	-2663
▁purtá	-2664
▁respi	-2665
▁scetà	-2666
▁schia	-2667
▁signa	-2668
▁solde	-2669
▁songh	-2670
▁sorde	-2671
▁ssape	-2672
▁stive	-2673
▁zampo	-2674
▁zittu	-2675
ncatena	-2676
ncuollo	-2677
▁Ciento	-2678
▁Dimane	-2679
▁Duorme	-2680
▁Mentre	-2681
▁Saccio	-2682
▁Saglie	-2683
▁arrubb	-2684
▁brutta	-2685
▁caduta	-2686
▁cadute	-2687
▁capace	-2688
▁cierti	-2689
▁favore	-2690
▁fronna	-2691
▁ggente	-2692
▁grande	-2693
▁marenà	-2694
▁nuvole	-2695
▁piccer	-2696
▁pierde	-2697
▁povero	-2698
▁quando	-2699
▁scarpe	-2700
▁spalle	-2701
auciello	-2702
ràcchete	-2703
▁Chiagne	-2704
▁Gennaro	-2705
▁abballà	-2706
▁cuperta	-2707
▁dicenno	-2708
▁malatia	-2709
▁mannato	-2710
▁nuttate	-2711
▁passano	-2712
▁purtate	-2713
▁ricorde	-2714
▁scoglio	-2715
▁surdato	-2716
arricordo	-2717
▁affaccia	-2718
▁ampresso	-2719
▁cardillo	-2720
▁famiglia	-2721
▁llariulà	-2722
▁passanno	-2723
▁rimpetto	-2724
▁semplice	-2725
▁Giulietta	-2726
▁Mannaggia	-2727
▁guardanno	-2728
▁turmiente	-2729
▁Cannetella	-2730
▁Marechiare	-2731
▁Napulitana	-2732
▁aspettanno	-2733
▁giuramente	-2734
▁napulitano	-2735
▁tradimento	-2736
▁appassiunata	-2737
▁vicchiarella	-2738
Sí	-2739
ab	-2740
aj	-2741
rù	-2742
sé	-2743
tò	-2744
Ave	-2745
aut	-2746
ghe	-2747
lze	-2748
ncu	-2749
ppi	-2750
rrè	-2751
ssì	-2752
upp	-2753
urè	-2754
usà	-2755
▁Uo	-2756
▁có	-2757
▁lè	-2758
▁nf	-2759
▁sè	-2760
▁vé	-2761
alba	-2762
ance	-2763
bile	-2764
cosa	-2765
entr	-2766
esce	-2767
fess	-2768
gare	-2769
mate	-2770
odio	-2771
ogne	-2772
ppur	-2773
rare	-2774
reta	-2775
rosa	-2776
ssiù	-2777
turo	-2778
uovo	-2779
urna	-2780
ùrde	-2781
▁Gio	-2782
▁Pus	-2783
▁Qua	-2784
▁Que	-2785
▁cus	-2786
▁ele	-2787
▁gar	-2788
▁ria	-2789
▁rri	-2790
▁sié	-2791
▁smo	-2792
▁ver	-2793
aggiu	-2794
austo	-2795
avite	-2796
cammo	-2797
ccole	-2798
cella	-2799
denno	-2800
gneme	-2801
lzebù	-2802
mmaré	-2803
mmolà	-2804
ncate	-2805
nnece	-2806
nnola	-2807
ntere	-2808
nélla	-2809
rante	-2810
ritto	-2811
rónna	-2812
rónne	-2813
ssere	-2814
stato	-2815
ttono	-2816
▁Arri	-2817
▁Bamm	-2818
▁Fran	-2819
▁Furt	-2820
▁Isso	-2821
▁Maru	-2822
▁Palu	-2823
▁Vino	-2824
▁ascí	-2825
▁cala	-2826
▁cane	-2827
▁capí	-2828
▁cele	-2829
▁coro	-2830
▁mico	-2831
▁neve	-2832
▁qual	-2833
▁resa	-2834
▁sane	-2835
▁sono	-2836
▁squa	-2837
▁vera	-2838
▁vulé	-2839
albere	-2840
albero	-2841
andona	-2842
angelo	-2843
annasc	-2844
ciento	-2845
eneste	-2846
nnante	-2847
▁Chita	-2848
▁Damme	-2849
▁Lunta	-2850
▁Pulle	-2851
▁asciu	-2852
▁bruna	-2853
▁cagnà	-2854
▁cagná	-2855
▁cuore	-2856
▁dille	-2857
▁fiore	-2858
▁jètte	-2859
▁lenta	-2860
▁llire	-2861
▁monte	-2862
▁parto	-2863
▁partì	-2864
▁penzá	-2865
▁prego	-2866
▁prese	-2867
▁prora	-2868
▁rosse	-2869
▁rundi	-2870
▁sospi	-2871
▁sparo	-2872
▁sunna	-2873
▁truva	-2874
▁tutti	-2875
▁vosta	-2876
▁zampu	-2877
aniello	-2878
mbriaco	-2879
▁Chisto	-2880
▁addora	-2881
▁buscia	-2882
▁buscía	-2883
▁cerasa	-2884
▁chilli	-2885
▁culure	-2886
▁cuncer	-2887
▁curona	-2888
▁diceno	-2889
▁dispia	-2890
▁facive	-2891
▁faticà	-2892
▁fronne	-2893
▁giorno	-2894
▁nuosto	-2895
▁pareva	-2896
▁pazzià	-2897
▁pecund	-2898
▁povera	-2899
▁páteto	-2900
▁ricche	-2901
▁scelle	-2902
▁scunte	-2903
▁sonano	-2904
▁stesse	-2905
▁storia	-2906
▁suppur	-2907
▁tiritì	-2908
▁vulive	-2909
▁zoccol	-2910
mbraccia	-2911
▁Belzebù	-2912
▁Cannetè	-2913
▁Furturè	-2914
▁Palomma	-2915
▁Vommero	-2916
▁cantina	-2917
▁canzona	-2918
▁carnale	-2919
▁chiammà	-2920
▁cumpare	-2921
▁fermato	-2922
▁fernuta	-2923
▁ghiammo	-2924
▁lacrema	-2925
▁libertà	-2926
▁luntane	-2927
▁nemmeno	-2928
▁pallida	-2929
▁portame	-2930
▁ppecché	-2931
▁sentere	-2932
▁signale	-2933
▁traduto	-2934
▁vraccio	-2935
entimento	-2936
▁Filumena	-2937
▁Vatténne	-2938
▁blummaré	-2939
▁mariscià	-2940
▁vennegna	-2941
annascunne	-2942
▁Mandulino	-2943
▁cappiello	-2944
▁ccancelle	-2945
▁pummarola	-2946
▁sarracino	-2947
▁suspirano	-2948
▁giuvinotto	-2949
▁abbracciata	-2950
▁abbracciato	-2951
▁cavalluccio	-2952
▁Pullecenella	-2953
Fi	-2954
Vi	-2955
du	-2956
hè	-2957
tó	-2958
Mio	-2959
Sto	-2960
ccá	-2961
gnó	-2962
ine	-2963
lfo	-2964
nfi	-2965
ntà	-2966
ola	-2967
rrá	-2968
tté	-2969
uri	-2970
zzu	-2971
íte	-2972
▁Sí	-2973
▁mé	-2974
▁pá	-2975
▁pó	-2976
▁vè	-2977
Unne	-2978
affi	-2979
arro	-2980
colo	-2981
cule	-2982
duno	-2983
ggià	-2984
gura	-2985
lala	-2986
mani	-2987
mita	-2988
nite	-2989
ntre	-2990
ntro	-2991
ogge	-2992
pera	-2993
posa	-2994
rava	-2995
rese	-2996
rete	-2997
rrìa	-2998
scià	-2999
tano	-3000
tata	-3001
tine	-3002
tura	-3003
uncè	-3004
untà	-3005
voce	-3006
vuto	-3007
zola	-3008
éllo	-3009
▁Ara	-3010
▁Gia	-3011
▁Lle	-3012
▁Prò	-3013
▁ddì	-3014
▁ghì	-3015
▁ing	-3016
▁int	-3017
▁men	-3018
▁sei	-3019
▁ter	-3020
▁tta	-3021
▁tua	-3022
▁zia	-3023
addur	-3024
anche	-3025
arosa	-3026
arric	-3027
avota	-3028
bante	-3029
gente	-3030
iella	-3031
mbino	-3032
nfunn	-3033
nnera	-3034
ntiso	-3035
nzino	-3036
scata	-3037
sella	-3038
tenne	-3039
ttaje	-3040
ttata	-3041
ttere	-3042
vanna	-3043
èvera	-3044
éneme	-3045
▁Damm	-3046
▁Nove	-3047
▁Rose	-3048
▁Sani	-3049
▁Sera	-3050
▁balc	-3051
▁come	-3052
▁comp	-3053
▁fare	-3054
▁fern	-3055
▁fido	-3056
▁geni	-3057
▁gira	-3058
▁larà	-3059
▁lume	-3060
▁ogni	-3061
▁part	-3062
▁pian	-3063
▁pper	-3064
▁quel	-3065
▁rido	-3066
▁rito	-3067
▁sano	-3068
▁sapi	-3069
▁sora	-3070
▁vení	-3071
▁vero	-3072
▁vvie	-3073
addora	-3074
agnola	-3075
cciato	-3076
cuorde	-3077
ncantà	-3078
ncantá	-3079
ncuoll	-3080
sciona	-3081
stiere	-3082
▁Dorme	-3083
▁Manco	-3084
▁Tutta	-3085
▁amice	-3086
▁bersa	-3087
▁botta	-3088
▁ciard	-3089
▁colpa	-3090
▁danno	-3091
▁durmi	-3092
▁golfo	-3093
▁jette	-3094
▁manno	-3095
▁miezo	-3096
▁onore	-3097
▁passi	-3098
▁pisce	-3099
▁pizze	-3100
▁quatt	-3101
▁ricci	-3102
▁rilor	-3103
▁secca	-3104
▁sfrun	-3105
▁sparà	-3106
▁spusá	-3107
▁stutà	-3108
▁suoje	-3109
▁tarde	-3110
▁tempe	-3111
▁vuole	-3112
▁vvide	-3113
▁zompa	-3114
abballa	-3115
addorme	-3116
annasco	-3117
aspetto	-3118
glietto	-3119
mparato	-3120
nconico	-3121
resenta	-3122
ìgliate	-3123
▁Margar	-3124
▁Napuli	-3125
▁Niente	-3126
▁Patria	-3127
▁anduvi	-3128
▁benedi	-3129
▁brutto	-3130
▁caduto	-3131
▁cazone	-3132
▁ciucci	-3133
▁cresce	-3134
▁dateme	-3135
▁fantas	-3136
▁peggio	-3137
▁perché	-3138
▁pianta	-3139
▁prince	-3140
▁questa	-3141
▁scugni	-3142
▁sempre	-3143
▁sigare	-3144
▁sparte	-3145
▁ssanno	-3146
▁stammo	-3147
▁stanca	-3148
▁stongo	-3149
▁tremmá	-3150
▁veleno	-3151
▁vicina	-3152
mpazzuto	-3153
ncantata	-3154
ncantate	-3155
veriello	-3156
▁Uocchie	-3157
▁appicce	-3158
▁cucente	-3159
▁cunosco	-3160
▁cònnola	-3161
▁dicimmo	-3162
▁funicul	-3163
▁gruosso	-3164
▁llastre	-3165
▁manella	-3166
▁mantene	-3167
▁mettere	-3168
▁mumente	-3169
▁mámmema	-3170
▁nnuvole	-3171
▁passate	-3172
▁perdona	-3173
▁perdono	-3174
▁pittore	-3175
▁prufumo	-3176
▁putimmo	-3177
▁pòrtame	-3178
▁scetato	-3179
▁schiupp	-3180
▁sciummo	-3181
▁sentono	-3182
▁tènnera	-3183
▁vedenno	-3184
abbandona	-3185
abbraccia	-3186
▁Stanotte	-3187
▁astrinto	-3188
▁bellizze	-3189
▁bonasera	-3190
▁chitarrè	-3191
▁durmenno	-3192
▁faccella	-3193
▁facevano	-3194
▁figliole	-3195
▁genitore	-3196
▁guardata	-3197
▁nennélla	-3198
▁permesso	-3199
▁scioscia	-3200
▁scurdato	-3201
▁sentenno	-3202
▁stagione	-3203
▁tramente	-3204
▁tramonto	-3205
▁ttùppete	-3206
▁zampogna	-3207
accumpagna	-3208
appariello	-3209
arricuorde	-3210
▁Salvatore	-3211
▁attaccato	-3212
▁cantatore	-3213
▁cumpagnia	-3214
▁curtiello	-3215
▁furastèra	-3216
▁guagliona	-3217
▁tremmanno	-3218
▁Palummella	-3219
▁cuncertino	-3220
▁funtanella	-3221
▁furastiere	-3222
▁sissignore	-3223
▁suspiranno	-3224
▁abbandunato	-3225
▁abbracciate	-3226
▁alleramente	-3227
▁bersagliere	-3228
▁ndanderandá	-3229
▁tiritommolà	-3230
▁ciucciariello	-3231
:"	-3232
ah	-3233
as	-3234
fa	-3235
ho	-3236
lí	-3237
su	-3238
òr	-3239
agn	-3240
ame	-3241
asp	-3242
avé	-3243
eco	-3244
enè	-3245
eta	-3246
ina	-3247
inf	-3248
lto	-3249
mun	-3250
nio	-3251
rto	-3252
ssí	-3253
zzá	-3254
▁In	-3255
▁Sì	-3256
▁Sò	-3257
▁ap	-3258
▁au	-3259
▁ed	-3260
▁eh	-3261
▁es	-3262
▁oh	-3263
▁sm	-3264
▁só	-3265
▁sù	-3266
▁vá	-3267
ango	-3268
antu	-3269
calo	-3270
cano	-3271
chia	-3272
dama	-3273
deme	-3274
erno	-3275
esia	-3276
ggiá	-3277
gola	-3278
haje	-3279
iezo	-3280
jola	-3281
lità	-3282
male	-3283
mbro	-3284
mica	-3285
nfam	-3286
nzer	-3287
ormo	-3288
rame	-3289
rono	-3290
ráte	-3291
schi	-3292
seca	-3293
stal	-3294
stru	-3295
tico	-3296
uomo	-3297
vamo	-3298
vite	-3299
òzzo	-3300
▁Amà	-3301
▁Fri	-3302
▁Sul	-3303
▁Vuó	-3304
▁amm	-3305
▁amà	-3306
▁cuo	-3307
▁dde	-3308
▁ero	-3309
▁ete	-3310
▁fur	-3311
▁giu	-3312
▁gul	-3313
▁hai	-3314
▁nno	-3315
▁one	-3316
▁sia	-3317
Addio	-3318
abbra	-3319
arena	-3320
aruta	-3321
asciu	-3322
astre	-3323
avimm	-3324
fiuso	-3325
forte	-3326
giuro	-3327
gnata	-3328
gnono	-3329
gnora	-3330
greto	-3331
ncore	-3332
nnome	-3333
ppato	-3334
riere	-3335
rille	-3336
risco	-3337
ssano	-3338
steco	-3339
ttene	-3340
ttino	-3341
ttite	-3342
ulino	-3343
uorzo	-3344
urato	-3345
étate	-3346
▁Bene	-3347
▁Come	-3348
▁Embè	-3349
▁Giuv	-3350
▁Maje	-3351
▁Mata	-3352
▁Rusi	-3353
▁Vint	-3354
▁acci	-3355
▁affi	-3356
▁asse	-3357
▁cari	-3358
▁ccre	-3359
▁fate	-3360
▁gghi	-3361
▁girà	-3362
▁have	-3363
▁lava	-3364
▁mira	-3365
▁muro	-3366
▁ndrà	-3367
▁nere	-3368
▁note	-3369
▁paci	-3370
▁puté	-3371
▁sagl	-3372
▁sore	-3373
▁tico	-3374
▁zeff	-3375
accide	-3376
amante	-3377
anotte	-3378
avanta	-3379
cciate	-3380
estero	-3381
gliano	-3382
gliato	-3383
mbarca	-3384
mmaggi	-3385
mmaria	-3386
mméllo	-3387
ncanto	-3388
nfunno	-3389
nnammo	-3390
riesto	-3391
tiempo	-3392
ttanta	-3393
usella	-3394
zzurro	-3395
ímmoce	-3396
▁Canto	-3397
▁Cuncè	-3398
▁Dille	-3399
▁Mammá	-3400
▁Peppe	-3401
▁Porta	-3402
▁Tanno	-3403
▁Varca	-3404
▁abbru	-3405
▁acqua	-3406
▁ajere	-3407
▁arric	-3408
▁bocca	-3409
▁ccase	-3410
▁certa	-3411
▁chell	-3412
▁corro	-3413
▁cumma	-3414
▁cuntà	-3415
▁desse	-3416
▁dorge	-3417
▁farlo	-3418
▁finta	-3419
▁hanno	-3420
▁longa	-3421
▁lugge	-3422
▁manto	-3423
▁mazza	-3424
▁mezzo	-3425
▁mmiez	-3426
▁overa	-3427
▁panne	-3428
▁pansé	-3429
▁posto	-3430
▁ppane	-3431
▁primm	-3432
▁purpe	-3433
▁rassi	-3434
▁regno	-3435
▁ricco	-3436
▁ricur	-3437
▁sacca	-3438
▁salvà	-3439
▁santo	-3440
▁scesa	-3441
▁scura	-3442
▁scurd	-3443
▁simpa	-3444
▁sotta	-3445
▁spero	-3446
▁spese	-3447
▁spina	-3448
▁stuta	-3449
▁viole	-3450
▁vvene	-3451
accatto	-3452
almente	-3453
enziero	-3454
mmatina	-3455
mmeneca	-3456
nchiuso	-3457
nfamitá	-3458
rascata	-3459
umiglia	-3460
▁Chiara	-3461
▁Facite	-3462
▁Poveru	-3463
▁Ullèro	-3464
▁adduro	-3465
▁arreto	-3466
▁arriva	-3467
▁azzecc	-3468
▁capita	-3469
▁chiaro	-3470
▁chiste	-3471
▁coppia	-3472
▁faticá	-3473
▁frenne	-3474
▁gelosa	-3475
▁levato	-3476
▁luceno	-3477
▁lèvate	-3478
▁lùceno	-3479
▁muorzo	-3480
▁mutivo	-3481
▁nuoste	-3482
▁nustal	-3483
▁perciò	-3484
▁piente	-3485
▁pressa	-3486
▁pututo	-3487
▁riesto	-3488
▁rumman	-3489
▁sapore	-3490
▁scrive	-3491
▁serata	-3492
▁spante	-3493
▁spassá	-3494
▁sperde	-3495
▁spisso	-3496
▁strata	-3497
▁sulita	-3498
▁sòreta	-3499
▁tuosto	-3500
▁vedite	-3501
eternità	-3502
nzerrata	-3503
▁Luciana	-3504
▁addeven	-3505
▁addurmì	-3506
▁affacci	-3507
▁cagnata	-3508
▁cammino	-3509
▁capisco	-3510
▁celeste	-3511
▁chiammá	-3512
▁cunzola	-3513
▁cunzulá	-3514
▁lariulá	-3515
▁mistero	-3516
▁nisciun	-3517
▁parlano	-3518
▁perdute	-3519
▁pianino	-3520
▁rummore	-3521
▁sapenno	-3522
▁scetano	-3523
▁segreto	-3524
▁sunanno	-3525
▁sèntere	-3526
▁sùbbeto	-3527
▁tenente	-3528
▁venette	-3529
▁zingara	-3530
undulella	-3531
untamento	-3532
▁Dincello	-3533
▁addirosa	-3534
▁aggrazia	-3535
▁carretta	-3536
▁cercanno	-3537
▁cumpagna	-3538
▁dispiace	-3539
▁ghiuorne	-3540
▁giurnale	-3541
▁guardavo	-3542
▁mettette	-3543
▁nennillo	-3544
▁pacienza	-3545
▁pariente	-3546
▁perdenno	-3547
▁princepe	-3548
▁rilorgio	-3549
▁scrivere	-3550
▁serenate	-3551
▁tempesta	-3552
▁vatténne	-3553
▁zampugna	-3554
▁zeffunno	-3555
▁addurmuto	-3556
▁annascuso	-3557
▁busciarda	-3558
▁carcerato	-3559
▁mezanotte	-3560
▁settembre	-3561
▁sigaretta	-3562
▁Cuncettina	-3563
▁Napulitano	-3564
▁certamente	-3565
▁overamente	-3566
▁riturnello	-3567
▁sciasciona	-3568
▁appassiunate	-3569
▁Chiappariello	-3570
!!	-3571
Ca	-3572
Mp	-3573
Nc	-3574
Sî	-3575
Ti	-3576
Vo	-3577
lá	-3578
pà	-3579
Cca	-3580
amo	-3581
anz	-3582
apì	-3583
ará	-3584
arè	-3585
dia	-3586
ffo	-3587
fle	-3588
giá	-3589
glu	-3590
gui	-3591
hai	-3592
men	-3593
nfe	-3594
nge	-3595
nni	-3596
osc	-3597
rla	-3598
ruv	-3599
unà	-3600
uná	-3601
urá	-3602
utà	-3603
ése	-3604
îmm	-3605
▁Cá	-3606
▁Eh	-3607
▁Ge	-3608
▁Mu	-3609
▁Né	-3610
▁Ru	-3611
▁Su	-3612
▁Ta	-3613
▁Vì	-3614
▁Vò	-3615
▁Zo	-3616
▁cà	-3617
▁sv	-3618
▁uh	-3619
alle	-3620
alli	-3621
angi	-3622
anní	-3623
antà	-3624
aran	-3625
arma	-3626
atti	-3627
avve	-3628
bbio	-3629
bito	-3630
citá	-3631
cque	-3632
curo	-3633
ella	-3634
ertá	-3635
gghi	-3636
gina	-3637
glià	-3638
iate	-3639
iola	-3640
isca	-3641
lata	-3642
late	-3643
lato	-3644
lera	-3645
neca	-3646
ordo	-3647
pote	-3648
rasè	-3649
rate	-3650
rche	-3651
rito	-3652
same	-3653
sano	-3654
sino	-3655
soro	-3656
squa	-3657
tite	-3658
titì	-3659
ttaj	-3660
uliá	-3661
unte	-3662
uone	-3663
uono	-3664
vena	-3665
visa	-3666
ètta	-3667
ónne	-3668
▁Abb	-3669
▁Can	-3670
▁Fur	-3671
▁Gua	-3672
▁Mia	-3673
▁Ris	-3674
▁Sca	-3675
▁Spo	-3676
▁Stu	-3677
▁caz	-3678
▁ccá	-3679
▁lei	-3680
▁mer	-3681
▁ppó	-3682
▁ras	-3683
▁rra	-3684
▁rru	-3685
▁sop	-3686
▁squ	-3687
Viene	-3688
amerò	-3689
arría	-3690
astri	-3691
bbele	-3692
bbete	-3693
biere	-3694
chier	-3695
cillo	-3696
gante	-3697
hizze	-3698
liune	-3699
llera	-3700
llune	-3701
mmagi	-3702
mmola	-3703
mmole	-3704
mpará	-3705
nfame	-3706
nfamó	-3707
niere	-3708
nnalo	-3709
nname	-3710
nzace	-3711
ssala	-3712
ssero	-3713
sture	-3714
uline	-3715
vista	-3716
ziosa	-3717
zzalo	-3718
ànema	-3719
évamo	-3720
íteme	-3721
▁Bona	-3722
▁Cade	-3723
▁Ched	-3724
▁Faje	-3725
▁Fior	-3726
▁Frun	-3727
▁Pusí	-3728
▁Scio	-3729
▁Sola	-3730
▁Tóre	-3731
▁affa	-3732
▁amma	-3733
▁aret	-3734
▁azzi	-3735
▁bamb	-3736
▁came	-3737
▁cart	-3738
▁chie	-3739
▁chiu	-3740
▁chiù	-3741
▁dito	-3742
▁fací	-3743
▁fece	-3744
▁foto	-3745
▁levá	-3746
▁lira	-3747
▁luci	-3748
▁ndrí	-3749
▁oilà	-3750
▁pens	-3751
▁penà	-3752
▁puta	-3753
▁père	-3754
▁ramm	-3755
▁raso	-3756
▁sanà	-3757
▁sbre	-3758
▁sche	-3759
▁solo	-3760
▁tiro	-3761
▁trov	-3762
▁vell	-3763
▁vuto	-3764
Signor	-3765
accuno	-3766
altare	-3767
ammoce	-3768
angolo	-3769
arbere	-3770
estate	-3771
licità	-3772
luccio	-3773
mmanna	-3774
nzisto	-3775
squale	-3776
unaste	-3777
urdema	-3778
urnate	-3779
utunno	-3780
zzella	-3781
zzurra	-3782
ènnere	-3783
ùrdemo	-3784
▁Amice	-3785
▁Cante	-3786
▁Certo	-3787
▁Pasca	-3788
▁Piere	-3789
▁Sarra	-3790
▁Sempe	-3791
▁Suspi	-3792
▁Terra	-3793
▁Vocca	-3794
▁affli	-3795
▁ajuta	-3796
▁alleg	-3797
▁arape	-3798
▁arrep	-3799
▁avimm	-3800
▁basti	-3801
▁cagne	-3802
▁calma	-3803
▁canne	-3804
▁carne	-3805
▁ccafè	-3806
▁cusci	-3807
▁danná	-3808
▁detto	-3809
▁diece	-3810
▁erano	-3811
▁feste	-3812
▁frate	-3813
▁frato	-3814
▁gguar	-3815
▁giurà	-3816
▁legna	-3817
▁lluce	-3818
▁lusso	-3819
▁mange	-3820
▁mante	-3821
▁mmari	-3822
▁nasco	-3823
▁nennì	-3824
▁panza	-3825
▁pelle	-3826
▁penti	-3827
▁petto	-3828
▁pittà	-3829
▁prova	-3830
▁puntu	-3831
▁quest	-3832
▁rampi	-3833
▁scemo	-3834
▁smale	-3835
▁smove	-3836
▁sonna	-3837
▁spara	-3838
▁spera	-3839
▁stesa	-3840
▁tiéne	-3841
▁tuccà	-3842
▁vatte	-3843
▁viche	-3844
▁vigna	-3845
▁vinti	-3846
▁vongo	-3847
accatta	-3848
addormo	-3849
attacco	-3850
fessore	-3851
glianno	-3852
inferno	-3853
rasella	-3854
rèmmano	-3855
stratta	-3856
unnella	-3857
▁Cerasè	-3858
▁Chello	-3859
▁Chesto	-3860
▁Chiove	-3861
▁Grotta	-3862
▁Madama	-3863
▁Nuvole	-3864
▁Pirciò	-3865
▁Poesia	-3866
▁Povero	-3867
▁Quando	-3868
▁Questo	-3869
▁Tiempe	-3870
▁Tititì	-3871
▁Tremma	-3872
▁Viento	-3873
▁andivi	-3874
▁antica	-3875
▁bevere	-3876
▁buscìa	-3877
▁caccio	-3878
▁chelli	-3879
▁chiene	-3880
▁chille	-3881
▁distru	-3882
▁essere	-3883
▁figura	-3884
▁leggia	-3885
▁làlala	-3886
▁mangiá	-3887
▁minuto	-3888
▁nuvena	-3889
▁piazza	-3890
▁pporte	-3891
▁quadro	-3892
▁quantu	-3893
▁quarto	-3894
▁saglio	-3895
▁sciato	-3896
▁soffre	-3897
▁specia	-3898
▁spezzà	-3899
▁stanza	-3900
▁stenne	-3901
▁taglia	-3902
▁tavuto	-3903
▁tenive	-3904
▁tenore	-3905
▁ttuppe	-3906
▁vurria	-3907
▁vviole	-3908
▁vènono	-3909
▁zùcate	-3910
accumpag	-3911
appiccia	-3912
arraggio	-3913
artenato	-3914
ncantato	-3915
nnammurà	-3916
urtunato	-3917
▁Azzurra	-3918
▁Carmenè	-3919
▁Dicimmo	-3920
▁Femmena	-3921
▁Luntano	-3922
▁Maronna	-3923
▁Scétate	-3924
▁allucca	-3925
▁asciuto	-3926
▁aspettà	-3927
▁azzicco	-3928
▁braccia	-3929
▁cammena	-3930
▁cammenà	-3931
▁cammine	-3932
▁cavallo	-3933
▁chiuovo	-3934
▁credevo	-3935
▁cuscino	-3936
▁delizia	-3937
▁durmite	-3938
▁ffrónne	-3939
▁granato	-3940
▁lampare	-3941
▁lassate	-3942
▁lettere	-3943
▁mellone	-3944
▁mettite	-3945
▁mmatine	-3946
▁mmeglio	-3947
▁màmmema	-3948
▁palazze	-3949
▁partuto	-3950
▁penzava	-3951
▁pittate	-3952
▁purtava	-3953
▁riggina	-3954
▁riturnà	-3955
▁schiaff	-3956
▁schiavo	-3957
▁sghizze	-3958
▁sincere	-3959
▁ssiente	-3960
▁ssirene	-3961
▁strazie	-3962
▁subbeto	-3963
▁surdate	-3964
▁truvate	-3965
▁viulino	-3966
▁vucanno	-3967
▁vulisse	-3968
Nfrascata	-3969
abbraccio	-3970
americano	-3971
chierchia	-3972
ncuntraje	-3973
▁Figliole	-3974
▁Matalena	-3975
▁Paraviso	-3976
▁Pasquale	-3977
▁abbascio	-3978
▁ascianno	-3979
▁aspiette	-3980
▁attiento	-3981
▁avvelena	-3982
▁banchina	-3983
▁barbiere	-3984
▁benedico	-3985
▁cumpagne	-3986
▁dammillo	-3987
▁desidero	-3988
▁ffeneste	-3989
▁guardate	-3990
▁lassanno	-3991
▁libbertà	-3992
▁mammélla	-3993
▁mestiere	-3994
▁migliara	-3995
▁nennella	-3996
▁nnuttate	-3997
▁parlammo	-3998
▁prumesse	-3999
▁quaccuno	-4000
▁sagliuta	-4001
▁scumpare	-4002
▁sentette	-4003
▁speranze	-4004
▁spezzato	-4005
▁suppurtà	-4006
▁tremmano	-4007
▁turchine	-4008
▁viecchie	-4009
angiulillo	-4010
annasconne	-4011
▁Cerasella	-4012
▁Pusílleco	-4013
▁addurmuta	-4014
▁americano	-4015
▁biglietto	-4016
▁cartulina	-4017
▁chiagnono	-4018
▁chiagnute	-4019
▁cucchiere	-4020
▁distratta	-4021
▁dummeneca	-4022
▁mannaggia	-4023
▁prufumata	-4024
▁scugnizze	-4025
▁scuntento	-4026
▁succedere	-4027
▁varchetta	-4028
▁Lazzarella	-4029
▁Primmavera	-4030
▁anduvinate	-4031
▁fenestella	-4032
▁mettettero	-4033
▁napulitane	-4034
▁ndrínghete	-4035
▁rundinella	-4036
▁sentinella	-4037
▁tradimente	-4038
▁ttràcchete	-4039
▁ammartenato	-4040
▁biundulella	-4041
▁chiacchiere	-4042
▁mandulinata	-4043
▁ndanderandí	-4044
▁rammariello	-4045
▁Chichierchia	-4046
▁puntualmente	-4047
".	-4048
,'	-4049
Co	-4050
Ll	-4051
Ri	-4052
Se	-4053
So	-4054
Ve	-4055
cu	-4056
dè	-4057
ld	-4058
oh	-4059
pì	-4060
sí	-4061
tr	-4062
éh	-4063
▁é	-4064
Aaa	-4065
Mme	-4066
ani	-4067
cie	-4068
ció	-4069
cri	-4070
ffi	-4071
ggo	-4072
gnà	-4073
gra	-4074
gua	-4075
gía	-4076
isi	-4077
mmu	-4078
ngi	-4079
nie	-4080
nze	-4081
one	-4082
pio	-4083
pri	-4084
rai	-4085
rnò	-4086
tie	-4087
ttó	-4088
unt	-4089
usá	-4090
éro	-4091
▁Al	-4092
▁Má	-4093
▁Na	-4094
▁Pí	-4095
▁To	-4096
▁Tt	-4097
▁ab	-4098
▁fé	-4099
▁jé	-4100
▁mó	-4101
▁oè	-4102
▁pà	-4103
▁sé	-4104
▁tá	-4105
▁zí	-4106
aaaa	-4107
addi	-4108
allu	-4109
antè	-4110
arie	-4111
arme	-4112
arne	-4113
aría	-4114
aste	-4115
asti	-4116
bbia	-4117
bbli	-4118
ccum	-4119
chio	-4120
core	-4121
dore	-4122
duta	-4123
ette	-4124
iesu	-4125
iona	-4126
jemo	-4127
lina	-4128
mana	-4129
meno	-4130
nfin	-4131
ngra	-4132
nive	-4133
orza	-4134
otta	-4135
otto	-4136
para	-4137
pata	-4138
rane	-4139
rore	-4140
rría	-4141
ruso	-4142
sore	-4143
stro	-4144
temo	-4145
tira	-4146
ulia	-4147
ulti	-4148
unto	-4149
vete	-4150
veva	-4151
vita	-4152
vola	-4153
élle	-4154
ésse	-4155
▁App	-4156
▁Cre	-4157
▁Fra	-4158
▁Isa	-4159
▁Lla	-4160
▁Puó	-4161
▁Sap	-4162
▁Sba	-4163
▁Séh	-4164
▁ahi	-4165
▁bbì	-4166
▁bir	-4167
▁cia	-4168
▁ddá	-4169
▁fai	-4170
▁fan	-4171
▁ire	-4172
▁mai	-4173
▁mmu	-4174
▁noi	-4175
▁oro	-4176
▁pié	-4177
▁puo	-4178
▁ref	-4179
▁roc	-4180
▁sai	-4181
▁scà	-4182
▁sec	-4183
▁spá	-4184
▁vas	-4185
▁zen	-4186
▁zuc	-4187
▁zzu	-4188
Aaaah	-4189
Turna	-4190
abbru	-4191
abbus	-4192
amaje	-4193
arape	-4194
banno	-4195
canna	-4196
ccata	-4197
cceré	-4198
ciano	-4199
condo	-4200
detta	-4201
erano	-4202
gnurí	-4203
ister	-4204
juolo	-4205
ldule	-4206
letta	-4207
llata	-4208
mbula	-4209
mmine	-4210
monio	-4211
monta	-4212
nante	-4213
nanze	-4214
nchiu	-4215
ncuje	-4216
ncunt	-4217
nfamo	-4218
ngopp	-4219
nnose	-4220
négna	-4221
ppure	-4222
racci	-4223
ranzo	-4224
riato	-4225
satto	-4226
sceno	-4227
tarre	-4228
trone	-4229
ténne	-4230
ulato	-4231
vella	-4232
verti	-4233
viera	-4234
▁Fací	-4235
▁Fore	-4236
▁Lass	-4237
▁Penz	-4238
▁Quar	-4239
▁Scri	-4240
▁Sere	-4241
▁Stri	-4242
▁Vase	-4243
▁Veco	-4244
▁assi	-4245
▁atto	-4246
▁avvi	-4247
▁cape	-4248
▁ccer	-4249
▁chià	-4250
▁coce	-4251
▁cull	-4252
▁cund	-4253
▁cupo	-4254
▁cuse	-4255
▁dell	-4256
▁embè	-4257
▁fatt	-4258
▁ghié	-4259
▁inte	-4260
▁lamp	-4261
▁lavo	-4262
▁lino	-4263
▁masc	-4264
▁meda	-4265
▁mett	-4266
▁mili	-4267
▁morí	-4268
▁naso	-4269
▁oilì	-4270
▁pavà	-4271
▁pezz	-4272
▁port	-4273
▁ppar	-4274
▁ppuò	-4275
▁pump	-4276
▁pupa	-4277
▁rifi	-4278
▁risa	-4279
▁riva	-4280
▁roll	-4281
▁sala	-4282
▁saná	-4283
▁sciù	-4284
▁scru	-4285
▁seje	-4286
▁serv	-4287
▁sete	-4288
▁sfri	-4289
▁stur	-4290
▁sujo	-4291
▁sull	-4292
▁tazz	-4293
▁teng	-4294
▁tuzz	-4295
▁vole	-4296
▁vvuò	-4297
▁zita	-4298
Chella	-4299
Figlio	-4300
Nnanze	-4301
Pecché	-4302
Quanno	-4303
addurm	-4304
andivi	-4305
cchere	-4306
enesta	-4307
enzole	-4308
glione	-4309
gliuto	-4310
licitá	-4311
mincia	-4312
mpazzí	-4313
ngannà	-4314
ngrata	-4315
ráteto	-4316
schera	-4317
ssetto	-4318
stante	-4319
ulione	-4320
ulélla	-4321
untato	-4322
vecata	-4323
ásteco	-4324
ènnono	-4325
▁Fatte	-4326
▁Gioja	-4327
▁Giuse	-4328
▁Notte	-4329
▁Nénna	-4330
▁Parla	-4331
▁Penza	-4332
▁Sante	-4333
▁Tanto	-4334
▁apier	-4335
▁avite	-4336
▁ballo	-4337
▁banca	-4338
▁briga	-4339
▁cacce	-4340
▁camme	-4341
▁cente	-4342
▁chine	-4343
▁cient	-4344
▁cummi	-4345
▁cumpa	-4346
▁dannà	-4347
▁ddete	-4348
▁degna	-4349
▁degno	-4350
▁digni	-4351
▁dispe	-4352
▁dormi	-4353
▁falle	-4354
▁farla	-4355
▁farrá	-4356
▁fermo	-4357
▁fermà	-4358
▁ferní	-4359
▁gatta	-4360
▁giesu	-4361
▁giova	-4362
▁lagna	-4363
▁lampe	-4364
▁lieve	-4365
▁magná	-4366
▁malep	-4367
▁matri	-4368
▁mentr	-4369
▁muzze	-4370
▁palla	-4371
▁pasta	-4372
▁pasti	-4373
▁penna	-4374
▁pensa	-4375
▁pesca	-4376
▁piaci	-4377
▁picci	-4378
▁pigne	-4379
▁posta	-4380
▁preta	-4381
▁raggi	-4382
▁ricca	-4383
▁rifle	-4384
▁rimme	-4385
▁salvá	-4386
▁scapp	-4387
▁scene	-4388
▁schio	-4389
▁sciso	-4390
▁scure	-4391
▁serio	-4392
▁sicco	-4393
▁sient	-4394
▁sorda	-4395
▁spuse	-4396
▁surri	-4397
▁sutta	-4398
▁taran	-4399
▁terza	-4400
▁testa	-4401
▁villa	-4402
▁vinte	-4403
▁viola	-4404
▁vvele	-4405
▁vótta	-4406
▁zitta	-4407
▁zíeta	-4408
▁ánema	-4409
abbrile	-4410
accordo	-4411
affacce	-4412
afferra	-4413
agnuole	-4414
arancio	-4415
atamone	-4416
attacca	-4417
cchiano	-4418
cchiate	-4419
ennélle	-4420
gghiese	-4421
ngalera	-4422
rraggio	-4423
stinato	-4424
turella	-4425
vannarè	-4426
zziello	-4427
▁Catena	-4428
▁Fresca	-4429
▁Frunné	-4430
▁Mister	-4431
▁Napole	-4432
▁Perciò	-4433
▁Povera	-4434
▁Rusina	-4435
▁Sanità	-4436
▁Signor	-4437
▁Stella	-4438
▁Sunate	-4439
▁Tenevo	-4440
▁Tuledo	-4441
▁Tuleto	-4442
▁Vierno	-4443
▁accapì	-4444
▁acciso	-4445
▁affata	-4446
▁allera	-4447
▁allèro	-4448
▁americ	-4449
▁anèlle	-4450
▁bbelle	-4451
▁caccià	-4452
▁cascia	-4453
▁ccarne	-4454
▁cerase	-4455
▁chelle	-4456
▁contro	-4457
▁cuollo	-4458
▁facile	-4459
▁fedele	-4460
▁fiamma	-4461
▁geluso	-4462
▁grazia	-4463
▁loggia	-4464
▁maland	-4465
▁meglia	-4466
▁meglie	-4467
▁mussiù	-4468
▁ppòzzo	-4469
▁pranzo	-4470
▁puteva	-4471
▁putite	-4472
▁reggia	-4473
▁reposa	-4474
▁ricamo	-4475
▁rrusso	-4476
▁scappa	-4477
▁scarpi	-4478
▁scella	-4479
▁sicura	-4480
▁smanie	-4481
▁spasse	-4482
▁spasso	-4483
▁spassà	-4484
▁spunta	-4485
▁sunava	-4486
▁tavula	-4487
▁tesoro	-4488
▁tiritá	-4489
▁tterre	-4490
▁tènono	-4491
▁vasato	-4492
▁vasava	-4493
▁vedevo	-4494
▁vuleva	-4495
▁vverde	-4496
▁zùcalo	-4497
Paraviso	-4498
adduorme	-4499
aspiette	-4500
autriere	-4501
mbarcato	-4502
ngannato	-4503
ratiello	-4504
spettosa	-4505
▁Accussí	-4506
▁Bambino	-4507
▁Canteno	-4508
▁Canzone	-4509
▁Facimmo	-4510
▁Mafiuso	-4511
▁Margarì	-4512
▁Martino	-4513
▁Napuliò	-4514
▁Picceré	-4515
▁Pròceta	-4516
▁Quacche	-4517
▁Tarantè	-4518
▁Vòmmero	-4519
▁accossì	-4520
▁addurmí	-4521
▁allumma	-4522
▁autunno	-4523
▁cagnato	-4524
▁cammená	-4525
▁canusce	-4526
▁ciancio	-4527
▁collera	-4528
▁credite	-4529
▁cunosce	-4530
▁cunusce	-4531
▁fráteto	-4532
▁ghianca	-4533
▁lassaje	-4534
▁lusinga	-4535
▁meliune	-4536
▁miseria	-4537
▁murenno	-4538
▁nascere	-4539
▁paisane	-4540
▁pallone	-4541
▁palumme	-4542
▁parente	-4543
▁parlaje	-4544
▁partito	-4545
▁passata	-4546
▁priesto	-4547
▁puntone	-4548
▁purtata	-4549
▁redenno	-4550
▁respiro	-4551
▁ricurdá	-4552
▁rummané	-4553
▁sarraje	-4554
▁schiara	-4555
▁scianto	-4556
▁sciorta	-4557
▁scoglie	-4558
▁signure	-4559
▁sorella	-4560
▁speruto	-4561
▁spusata	-4562
▁stretta	-4563
▁suldato	-4564
▁sunnate	-4565
▁sunnato	-4566
▁suspirá	-4567
▁tatillo	-4568
▁tenesse	-4569
▁tenimmo	-4570
▁trasuto	-4571
▁turnaje	-4572
▁vedette	-4573
▁vedimmo	-4574
▁velluto	-4575
▁vvarche	-4576
▁zoccolé	-4577
▁zuccaro	-4578
Avemmaria	-4579
abbraccià	-4580
accarezzo	-4581
alluntane	-4582
annammura	-4583
ariatella	-4584
mbriacato	-4585
ssumiglia	-4586
▁Catarina	-4587
▁Marianní	-4588
▁Sultanto	-4589
▁Tramonta	-4590
▁Veníteme	-4591
▁accumpag	-4592
▁afflitto	-4593
▁arrivato	-4594
▁dimmello	-4595
▁lusinghe	-4596
▁mammella	-4597
▁maschera	-4598
▁mettisse	-4599
▁migliare	-4600
▁parlanno	-4601
▁perdette	-4602
▁pumpiere	-4603
▁ricuorde	-4604
▁sbattere	-4605
▁speranno	-4606
▁turchino	-4607
▁tècchete	-4608
▁vennégna	-4609
▁zzuccaro	-4610
nnammuraje	-4611
▁Lavannarè	-4612
▁Napulione	-4613
▁ccampagne	-4614
▁cchitarre	-4615
▁centenare	-4616
▁chiagnuto	-4617
▁chiammano	-4618
▁cuscienza	-4619
▁distrutto	-4620
▁fravecata	-4621
▁mmaretata	-4622
▁nnennélle	-4623
▁pagghiese	-4624
▁pastiglia	-4625
▁pecundría	-4626
▁presebbio	-4627
▁resatella	-4628
▁ricchezza	-4629
▁sottavoce	-4630
▁sserenate	-4631
▁straniero	-4632
▁sulitaria	-4633
▁tiritomba	-4634
▁Bellavista	-4635
▁Carmenella	-4636
▁Chiatamone	-4637
▁Piererotta	-4638
▁appresenta	-4639
▁bastimento	-4640
▁dispettosa	-4641
▁matrimonio	-4642
▁piccerille	-4643
▁puveriello	-4644
▁rampicante	-4645
▁sfurtunato	-4646
▁stammatina	-4647
▁sunnambula	-4648
▁tazzulella	-4649
▁zampugnaro	-4650
▁Mandulinata	-4651
▁abbandunata	-4652
▁brunettella	-4653
▁Sfurtunatella	-4654
▁presentimento	-4655
▁trallarillirá	-4656
▁Sfurtunatiello	-4657
'.	-4658
."	-4659
Mb	-4660
Nt	-4661
Va	-4662
Zi	-4663
ai	-4664
at	-4665
bo	-4666
bá	-4667
dì	-4668
fé	-4669
gh	-4670
on	-4671
pù	-4672
zí	-4673
ìe	-4674
ío	-4675
▁,	-4676
?".	-4677
All	-4678
Gué	-4679
Int	-4680
Mar	-4681
Non	-4682
Nte	-4683
Par	-4684
Qui	-4685
amb	-4686
ang	-4687
anè	-4688
asc	-4689
ast	-4690
bbi	-4691
cin	-4692
cià	-4693
ciù	-4694
céa	-4695
emi	-4696
enó	-4697
gue	-4698
ide	-4699
meo	-4700
mmá	-4701
mmè	-4702
ncò	-4703
nzè	-4704
nía	-4705
off	-4706
par	-4707
qui	-4708
rze	-4709
ser	-4710
tiè	-4711
tré	-4712
ulì	-4713
ára	-4714
ère	-4715
▁Bo	-4716
▁Dd	-4717
▁Du	-4718
▁Ff	-4719
▁Fo	-4720
▁Il	-4721
▁Pp	-4722
▁Vó	-4723
▁fò	-4724
▁mò	-4725
▁nè	-4726
▁pí	-4727
▁vì	-4728
Cala	-4729
Core	-4730
Titì	-4731
adde	-4732
affa	-4733
allo	-4734
antá	-4735
arde	-4736
azze	-4737
bato	-4738
bitu	-4739
cene	-4740
cito	-4741
dare	-4742
dele	-4743
dicà	-4744
dona	-4745
erta	-4746
erzi	-4747
fane	-4748
fano	-4749
fare	-4750
fono	-4751
gale	-4752
galo	-4753
gata	-4754
hhhh	-4755
iato	-4756
iete	-4757
ietà	-4758
lito	-4759
lora	-4760
mano	-4761
maro	-4762
mbar	-4763
mico	-4764
more	-4765
naco	-4766
ncer	-4767
neno	-4768
nese	-4769
nfra	-4770
nole	-4771
ogni	-4772
orma	-4773
orre	-4774
peta	-4775
rita	-4776
seme	-4777
sina	-4778
suma	-4779
tale	-4780
tali	-4781
tant	-4782
tato	-4783
tive	-4784
trip	-4785
uléa	-4786
unná	-4787
untá	-4788
urro	-4789
urzo	-4790
vame	-4791
vemo	-4792
vine	-4793
vità	-4794
volì	-4795
vule	-4796
ènne	-4797
ònne	-4798
òrta	-4799
ósse	-4800
▁Cri	-4801
▁Fro	-4802
▁Frì	-4803
▁Già	-4804
▁Giá	-4805
▁Pié	-4806
▁Pru	-4807
▁Pur	-4808
▁Qui	-4809
▁Sci	-4810
▁Seh	-4811
▁Ssi	-4812
▁Tro	-4813
▁Tru	-4814
▁Uhi	-4815
▁Uno	-4816
▁amá	-4817
▁ato	-4818
▁avè	-4819
▁bon	-4820
▁bro	-4821
▁buc	-4822
▁cce	-4823
▁cié	-4824
▁ciù	-4825
▁cru	-4826
▁dai	-4827
▁ddà	-4828
▁ddí	-4829
▁dei	-4830
▁dia	-4831
▁dir	-4832
▁dié	-4833
▁don	-4834
▁err	-4835
▁est	-4836
▁fal	-4837
▁fuì	-4838
▁ghí	-4839
▁guá	-4840
▁lan	-4841
▁lic	-4842
▁lui	-4843
▁mad	-4844
▁ndà	-4845
▁nne	-4846
▁nni	-4847
▁nsi	-4848
▁ogn	-4849
▁pav	-4850
▁pul	-4851
▁qui	-4852
▁quí	-4853
▁seh	-4854
▁spó	-4855
▁ssu	-4856
▁stó	-4857
▁trà	-4858
▁zio	-4859
▁zuó	-4860
Comme	-4861
Nnanz	-4862
amore	-4863
araci	-4864
armun	-4865
astré	-4866
avuto	-4867
cette	-4868
chete	-4869
chine	-4870
della	-4871
enite	-4872
gazze	-4873
ggena	-4874
gnate	-4875
gnuta	-4876
iezzo	-4877
jezza	-4878
lallá	-4879
llano	-4880
llino	-4881
lluta	-4882
lotto	-4883
melle	-4884
mentà	-4885
mette	-4886
mmare	-4887
mmere	-4888
mpane	-4889
mpano	-4890
mpesa	-4891
mpruv	-4892
nanza	-4893
nfuse	-4894
nfuso	-4895
ngano	-4896
nguaj	-4897
nimmo	-4898
nnano	-4899
nnolo	-4900
nnono	-4901
nnote	-4902
nonna	-4903
ntina	-4904
nèlla	-4905
passa	-4906
ranca	-4907
randa	-4908
rdame	-4909
riate	-4910
rinci	-4911
scura	-4912
stano	-4913
stata	-4914
tegge	-4915
tello	-4916
tiene	-4917
trona	-4918
ttace	-4919
tuppe	-4920
ulito	-4921
usate	-4922
usica	-4923
évano	-4924
▁Aggi	-4925
▁Ange	-4926
▁Anze	-4927
▁Camm	-4928
▁Caro	-4929
▁Ddio	-4930
▁Doce	-4931
▁Giro	-4932
▁Mala	-4933
▁Nana	-4934
▁Ogge	-4935
▁Ogni	-4936
▁Papi	-4937
▁Pari	-4938
▁Puli	-4939
▁Risp	-4940
▁Rusì	-4941
▁Scor	-4942
▁Sona	-4943
▁Song	-4944
▁Sora	-4945
▁Sper	-4946
▁Stre	-4947
▁Tira	-4948
▁Vaco	-4949
▁Vene	-4950
▁Zing	-4951
▁abbe	-4952
▁addo	-4953
▁ahim	-4954
▁annu	-4955
▁appe	-4956
▁asti	-4957
▁barc	-4958
▁bevo	-4959
▁bone	-4960
▁cann	-4961
▁cuff	-4962
▁cuje	-4963
▁cunf	-4964
▁cuor	-4965
▁cupp	-4966
▁cure	-4967
▁curà	-4968
▁deci	-4969
▁dife	-4970
▁durà	-4971
▁fila	-4972
▁fini	-4973
▁frun	-4974
▁jamm	-4975
▁jate	-4976
▁ligg	-4977
▁malu	-4978
▁mani	-4979
▁meno	-4980
▁mina	-4981
▁misa	-4982
▁murm	-4983
▁nchi	-4984
▁nfrù	-4985
▁nuti	-4986
▁oggi	-4987
▁papà	-4988
▁paré	-4989
▁pedi	-4990
▁perg	-4991
▁peri	-4992
▁pesa	-4993
▁pise	-4994
▁pote	-4995
▁revo	-4996
▁rota	-4997
▁sfer	-4998
▁soje	-4999
▁spen	-5000
▁spru	-5001
▁sule	-5002
▁suná	-5003
▁suri	-5004
▁tara	-5005
▁tipo	-5006
▁tirà	-5007
▁trap	-5008
▁trie	-5009
▁vale	-5010
▁vavo	-5011
▁vien	-5012
▁vier	-5013
▁vucá	-5014
▁véve	-5015
▁zero	-5016
Chesta	-5017
Guarda	-5018
abband	-5019
annata	-5020
annato	-5021
antato	-5022
appura	-5023
aranto	-5024
avimmo	-5025
bblico	-5026
cchine	-5027
cciano	-5028
chella	-5029
cioffo	-5030
enimmo	-5031
gliame	-5032
gliata	-5033
gliema	-5034
grante	-5035
immagi	-5036
mmanno	-5037
mmélla	-5038
mmórre	-5039
mpanno	-5040
mpizze	-5041
ncoppo	-5042
nfiore	-5043
nfonne	-5044
ngarra	-5045
ngrato	-5046
niello	-5047
quatto	-5048
riente	-5049
serate	-5050
spettá	-5051
stanza	-5052
stiera	-5053
tienne	-5054
ulesse	-5055
ulille	-5056
usanto	-5057
èttame	-5058
èttemo	-5059
ònneta	-5060
▁Acqua	-5061
▁Ajere	-5062
▁Basta	-5063
▁Capre	-5064
▁Carmé	-5065
▁Donna	-5066
▁Falle	-5067
▁Gennà	-5068
▁Isaia	-5069
▁Lassa	-5070
▁Marzo	-5071
▁Nenné	-5072
▁Nennì	-5073
▁Nonna	-5074
▁Pisca	-5075
▁Resta	-5076
▁Sente	-5077
▁Terzi	-5078
▁Ttrip	-5079
▁Turna	-5080
▁Turre	-5081
▁Vatte	-5082
▁areto	-5083
▁bagno	-5084
▁busto	-5085
▁caldo	-5086
▁capre	-5087
▁cardí	-5088
▁cinqu	-5089
▁conti	-5090
▁corta	-5091
▁cunnu	-5092
▁cunti	-5093
▁cunzu	-5094
▁cuoro	-5095
▁cónta	-5096
▁dalla	-5097
▁dalle	-5098
▁dammo	-5099
▁della	-5100
▁dette	-5101
▁diver	-5102
▁dongo	-5103
▁durme	-5104
▁ffaje	-5105
▁fronn	-5106
▁fusse	-5107
▁giuro	-5108
▁gulío	-5109
▁guver	-5110
▁jaste	-5111
▁jetta	-5112
▁jettá	-5113
▁latte	-5114
▁lente	-5115
▁letto	-5116
▁ligge	-5117
▁litro	-5118
▁magno	-5119
▁magnà	-5120
▁manch	-5121
▁molla	-5122
▁morto	-5123
▁mossa	-5124
▁mosse	-5125
▁nnote	-5126
▁partí	-5127
▁pazza	-5128
▁pella	-5129
▁perle	-5130
▁poppa	-5131
▁posso	-5132
▁pregà	-5133
▁pruvà	-5134
▁pétte	-5135
▁restá	-5136
▁ricce	-5137
▁ricor	-5138
▁rumba	-5139
▁saglì	-5140
▁sbari	-5141
▁sbatt	-5142
▁sceto	-5143
▁siete	-5144
▁sisco	-5145
▁spasa	-5146
▁spose	-5147
▁stace	-5148
▁stamp	-5149
▁surda	-5150
▁tazza	-5151
▁tempo	-5152
▁tenta	-5153
▁terre	-5154
▁tieni	-5155
▁tirit	-5156
▁tragi	-5157
▁trasí	-5158
▁tuojo	-5159
▁vatté	-5160
▁venga	-5161
▁vestu	-5162
▁vénne	-5163
accattà	-5164
accosta	-5165
accunte	-5166
affacci	-5167
allisci	-5168
anielle	-5169
annario	-5170
arielle	-5171
arrubba	-5172
aspettà	-5173
azzurro	-5174
carella	-5175
cchiapp	-5176
cchiata	-5177
ccolaro	-5178
lluccia	-5179
nchiusa	-5180
nchiuse	-5181
ncontra	-5182
ncujetá	-5183
nfierno	-5184
ngrazio	-5185
nguerra	-5186
ntiempo	-5187
ntussec	-5188
tamente	-5189
ttajano	-5190
ttiello	-5191
untagne	-5192
usciuta	-5193
▁Allora	-5194
▁Chesti	-5195
▁Chillu	-5196
▁Faccio	-5197
▁Frisio	-5198
▁Frìsio	-5199
▁Invece	-5200
▁Lùceno	-5201
▁Maggio	-5202
▁Malizi	-5203
▁Marenà	-5204
▁Musica	-5205
▁Mussiù	-5206
▁Nemica	-5207
▁Quanti	-5208
▁Sciore	-5209
▁Spagna	-5210
▁Stelle	-5211
▁Strign	-5212
▁Tirità	-5213
▁Vurría	-5214
▁addenu	-5215
▁allère	-5216
▁almeno	-5217
▁aperta	-5218
▁avisse	-5219
▁bbello	-5220
▁bbuono	-5221
▁branda	-5222
▁brucia	-5223
▁bruttu	-5224
▁buscìe	-5225
▁capaci	-5226
▁carità	-5227
▁catene	-5228
▁ccarte	-5229
▁ccorde	-5230
▁cecato	-5231
▁cheste	-5232
▁chiedo	-5233
▁chiesa	-5234
▁cinche	-5235
▁cinema	-5236
▁cirche	-5237
▁contra	-5238
▁coppie	-5239
▁cuntra	-5240
▁datemi	-5241
▁dicevo	-5242
▁domani	-5243
▁errore	-5244
▁esiste	-5245
▁fatemi	-5246
▁ferita	-5247
▁ffacce	-5248
▁filone	-5249
▁frutte	-5250
▁frónna	-5251
▁ggiuro	-5252
▁giallo	-5253
▁grotta	-5254
▁janche	-5255
▁lascia	-5256
▁lascià	-5257
▁llogge	-5258
▁maesta	-5259
▁manche	-5260
▁manera	-5261
▁marcia	-5262
▁marená	-5263
▁miétte	-5264
▁monaco	-5265
▁museca	-5266
▁onesto	-5267
▁pazzeà	-5268
▁pazziá	-5269
▁piezzo	-5270
▁pirciò	-5271
▁ppezza	-5272
▁pprete	-5273
▁primme	-5274
▁pronte	-5275
▁puosto	-5276
▁putevo	-5277
▁questo	-5278
▁sanghe	-5279
▁sbarca	-5280
▁sbrenn	-5281
▁schiar	-5282
▁scrivo	-5283
▁sgarrà	-5284
▁sicuro	-5285
▁sirena	-5286
▁soffro	-5287
▁spanne	-5288
▁ssempe	-5289
▁strate	-5290
▁subito	-5291
▁tesore	-5292
▁tirití	-5293
▁tratta	-5294
▁tremmo	-5295
▁trezza	-5296
▁troppa	-5297
▁vasate	-5298
▁vedono	-5299
▁veglia	-5300
▁viente	-5301
▁volano	-5302
▁vuosto	-5303
Calamita	-5304
acchiere	-5305
astregno	-5306
avvelena	-5307
mmagginà	-5308
mpizzalo	-5309
ntennerì	-5310
ntignano	-5311
stamente	-5312
ttenessa	-5313
uncielle	-5314
▁Abbrile	-5315
▁Accussì	-5316
▁Femmene	-5317
▁Fenesta	-5318
▁Mettite	-5319
▁Munaste	-5320
▁Nannina	-5321
▁Nanninè	-5322
▁Nemmeno	-5323
▁Riviera	-5324
▁Rusella	-5325
▁Rusélla	-5326
▁Signora	-5327
▁Signore	-5328
▁Ssirene	-5329
▁abballe	-5330
▁abballá	-5331
▁albanno	-5332
▁annanze	-5333
▁annasco	-5334
▁arapite	-5335
▁arrassà	-5336
▁asciute	-5337
▁attocca	-5338
▁balcune	-5339
▁bambola	-5340
▁camello	-5341
▁campane	-5342
▁cannela	-5343
▁capanna	-5344
▁carella	-5345
▁ccerase	-5346
▁cercava	-5347
▁chiorma	-5348
▁ciarame	-5349
▁ciarden	-5350
▁correre	-5351
▁corrono	-5352
▁cretina	-5353
▁crudele	-5354
▁cullana	-5355
▁cumbina	-5356
▁cuntate	-5357
▁curallo	-5358
▁dicesse	-5359
▁dignità	-5360
▁dottore	-5361
▁duttore	-5362
▁facisse	-5363
▁fattura	-5364
▁fermate	-5365
▁gguarda	-5366
▁giacche	-5367
▁lariulì	-5368
▁lassala	-5369
▁lassata	-5370
▁mammeta	-5371
▁maniera	-5372
▁mattina	-5373
▁mmaretà	-5374
▁mmarine	-5375
▁padrona	-5376
▁palpite	-5377
▁partuta	-5378
▁peccate	-5379
▁perzona	-5380
▁piccerí	-5381
▁portano	-5382
▁purtone	-5383
▁pènzace	-5384
▁reggina	-5385
▁rimasta	-5386
▁ritorna	-5387
▁rummane	-5388
▁rusella	-5389
▁sapisse	-5390
▁scarola	-5391
▁scicche	-5392
▁sciusci	-5393
▁senteva	-5394
▁sospiro	-5395
▁spumone	-5396
▁spusaje	-5397
▁sserate	-5398
▁strazio	-5399
▁sulagna	-5400
▁surriso	-5401
▁trasuta	-5402
▁truvaje	-5403
▁vongola	-5404
▁vulenno	-5405
▁vvocche	-5406
▁váttono	-5407
▁zappato	-5408
aracianno	-5409
mpruvvisa	-5410
nParaviso	-5411
ncuntrata	-5412
▁Chitarra	-5413
▁Cuncetta	-5414
▁Facíteme	-5415
▁Felicitá	-5416
▁Giuvanne	-5417
▁Pìgliate	-5418
▁Serenata	-5419
▁Turretta	-5420
▁addiruso	-5421
▁addurose	-5422
▁affacciá	-5423
▁affianco	-5424
▁appicciá	-5425
▁arrepusá	-5426
▁ascevolì	-5427
▁birbante	-5428
▁calamita	-5429
▁cantammo	-5430
▁cantante	-5431
▁carrozze	-5432
▁ccampane	-5433
▁crescere	-5434
▁cuntente	-5435
▁currenno	-5436
▁cusetore	-5437
▁dicevano	-5438
▁elegante	-5439
▁fantasie	-5440
▁fernesce	-5441
▁fernesco	-5442
▁friscura	-5443
▁grattato	-5444
▁lampione	-5445
▁lassammo	-5446
▁llampare	-5447
▁maledico	-5448
▁medaglia	-5449
▁mettimmo	-5450
▁militare	-5451
▁mmanelle	-5452
▁nascosto	-5453
▁partette	-5454
▁passasse	-5455
▁penzammo	-5456
▁perdimmo	-5457
▁pìgliate	-5458
▁quínnece	-5459
▁rragazze	-5460
▁russetto	-5461
▁scarpino	-5462
▁scànnalo	-5463
▁servette	-5464
▁spartere	-5465
▁spartuto	-5466
▁spaventa	-5467
▁speciale	-5468
▁sperduta	-5469
▁sperduto	-5470
▁spingule	-5471
▁stracqua	-5472
▁studente	-5473
▁tramonta	-5474
▁trèmmano	-5475
▁vularrìa	-5476
▁zuóccole	-5477
Nnammurate	-5478
accumpagno	-5479
▁Mariarosa	-5480
▁Zoccolaro	-5481
▁accarezza	-5482
▁addeventá	-5483
▁arrubbato	-5484
▁aspèttame	-5485
▁avvelluta	-5486
▁busciardo	-5487
▁cappielle	-5488
▁chiagnite	-5489
▁chiammato	-5490
▁chiágnere	-5491
▁chiágnono	-5492
▁cianciosa	-5493
▁cunziglio	-5494
▁destinato	-5495
▁frennesia	-5496
▁frunnella	-5497
▁mmuntagne	-5498
▁musicante	-5499
▁passaggio	-5500
▁passiggiá	-5501
▁pazziella	-5502
▁pecundrìa	-5503
▁pretienne	-5504
▁prufumate	-5505
▁ricchezze	-5506
▁ringrazio	-5507
▁sbagliata	-5508
▁sbagliato	-5509
▁scennette	-5510
▁signurino	-5511
▁straniera	-5512
▁suricillo	-5513
▁suspirato	-5514
▁vasámmoce	-5515
▁zoccolaro	-5516
nsentimento	-5517
▁Lassammoce	-5518
▁Malavicina	-5519
▁Munasterio	-5520
▁Papiluccio	-5521
▁Santanotte	-5522
▁Ttripuline	-5523
▁Ttràcchete	-5524
▁accumincia	-5525
▁affacciata	-5526
▁aggraziate	-5527
▁appicciato	-5528
▁arricietto	-5529
▁bancarelle	-5530
▁buongiorno	-5531
▁calannario	-5532
▁campagnola	-5533
▁campusanto	-5534
▁canteniere	-5535
▁cunfessore	-5536
▁fenestelle	-5537
▁giesummine	-5538
▁luggetella	-5539
▁malandrino	-5540
▁malavicina	-5541
▁pettenessa	-5542
▁pianoforte	-5543
▁piccerelle	-5544
▁semplicità	-5545
▁succedette	-5546
▁suttanella	-5547
appuntamento	-5548
▁Malinconico	-5549
▁Pulicenella	-5550
▁Sfurtunatiè	-5551
▁Tiritàppete	-5552
▁affurtunato	-5553
▁cazunciello	-5554
▁malinconico	-5555
▁palazziello	-5556
▁quacchecosa	-5557
▁quaccheduno	-5558
▁serenatella	-5559
▁tiritùppete	-5560
▁tuttequante	-5561
arrassumiglia	-5562
nnammuratella	-5563
▁Paparacianno	-5564
▁Strignímmoce	-5565
▁balcunciello	-5566
▁ciardeniello	-5567
▁malepenziero	-5568
mpruvvisamente	-5569
▁sfurtunatella	-5570
▁distrattamente	-5571
▁guagliunciello	-5572
'!	-5573
':	-5574
Be	-5575
Da	-5576
La	-5577
Mi	-5578
Pa	-5579
Ro	-5580
Sc	-5581
dò	-5582
eb	-5583
fì	-5584
gà	-5585
jì	-5586
jí	-5587
lè	-5588
rg	-5589
rl	-5590
tù	-5591
vé	-5592
ît	-5593
▁-	-5594
▁q	-5595
!!!	-5596
'?"	-5597
Glo	-5598
Glu	-5599
Cu	-5600
bé	-5601
it	-5602
zù	-5603
▁ò	-5604
Ita	-5605
Mpi	-5606
Nap	-5607
Nce	-5608
Nèh	-5609
Spa	-5610
Tre	-5611
ago	-5612
aja	-5613
ale	-5614
apé	-5615
ard	-5616
arr	-5617
ase	-5618
ddi	-5619
der	-5620
dié	-5621
enn	-5622
fal	-5623
ffe	-5624
fia	-5625
gná	-5626
gìa	-5627
ill	-5628
iss	-5629
lce	-5630
mmà	-5631
mor	-5632
ntá	-5633
nzo	-5634
nzó	-5635
oco	-5636
oda	-5637
ost	-5638
rié	-5639
rse	-5640
stí	-5641
ucà	-5642
ucá	-5643
utá	-5644
uzz	-5645
èto	-5646
ésa	-5647
íno	-5648
îte	-5649
▁Je	-5650
▁Le	-5651
▁Là	-5652
▁Nn	-5653
▁Pè	-5654
▁Un	-5655
▁ad	-5656
▁cí	-5657
▁en	-5658
▁gè	-5659
▁hà	-5660
▁jo	-5661
▁jí	-5662
▁mù	-5663
Cara	-5664
Ntre	-5665
abbe	-5666
abbá	-5667
annì	-5668
appa	-5669
appe	-5670
ardi	-5671
asse	-5672
assi	-5673
atte	-5674
bbra	-5675
cale	-5676
ccar	-5677
ccie	-5678
ceda	-5679
cetá	-5680
cile	-5681
cure	-5682
daje	-5683
dari	-5684
dece	-5685
deva	-5686
doro	-5687
dute	-5688
erva	-5689
fifì	-5690
gari	-5691
gesa	-5692
giun	-5693
iale	-5694
iamo	-5695
iece	-5696
ieri	-5697
iosa	-5698
istá	-5699
Vita	-5700
leca	-5701
lená	-5702
lita	-5703
lláh	-5704
loca	-5705
mbru	-5706
mila	-5707
moni	-5708
mpap	-5709
nciu	-5710
ncià	-5711
neva	-5712
nfia	-5713
nfre	-5714
ngal	-5715
nnam	-5716
orto	-5717
ossi	-5718
pete	-5719
peto	-5720
pina	-5721
poca	-5722
pono	-5723
ppie	-5724
rone	-5725
rova	-5726
rria	-5727
rucc	-5728
rume	-5729
ruse	-5730
sata	-5731
scal	-5732
sedá	-5733
sere	-5734
sita	-5735
spre	-5736
talo	-5737
tela	-5738
tele	-5739
tica	-5740
tiro	-5741
tiva	-5742
tora	-5743
tuta	-5744
tóre	-5745
ugno	-5746
unci	-5747
unge	-5748
uola	-5749
uove	-5750
urci	-5751
urdà	-5752
urrà	-5753
utto	-5754
vaje	-5755
vedé	-5756
veno	-5757
vuta	-5758
ácio	-5759
èsco	-5760
íppa	-5761
ùnne	-5762
▁Aaa	-5763
▁Bal	-5764
▁Bri	-5765
▁Brí	-5766
▁Buo	-5767
▁Com	-5768
▁Cun	-5769
▁Cur	-5770
▁Ger	-5771
▁Mai	-5772
▁Mer	-5773
▁Méh	-5774
▁Ora	-5775
▁Poi	-5776
▁Pre	-5777
▁Raz	-5778
▁Rre	-5779
▁Spa	-5780
▁Spi	-5781
▁Suo	-5782
▁Tac	-5783
▁Trá	-5784
▁Vic	-5785
▁aca	-5786
▁auc	-5787
▁ben	-5788
▁buó	-5789
▁cci	-5790
▁ccu	-5791
▁cec	-5792
▁ché	-5793
▁cic	-5794
▁com	-5795
▁cor	-5796
▁cos	-5797
▁cuó	-5798
▁dal	-5799
Addó	-5800
▁Ins	-5801
▁ddu	-5802
▁due	-5803
▁dui	-5804
▁esa	-5805
▁fau	-5806
▁fis	-5807
▁gal	-5808
▁gen	-5809
▁gne	-5810
▁guà	-5811
▁len	-5812
▁luo	-5813
▁mae	-5814
▁mmé	-5815
▁mus	-5816
▁nci	-5817
▁nna	-5818
▁nné	-5819
▁ora	-5820
▁ore	-5821
▁pes	-5822
▁pla	-5823
▁ppu	-5824
▁prò	-5825
▁pus	-5826
▁pèr	-5827
▁rus	-5828
▁scá	-5829
▁ssá	-5830
▁svi	-5831
▁thè	-5832
▁ttè	-5833
▁ttù	-5834
▁tèh	-5835
▁tòr	-5836
▁unu	-5837
▁var	-5838
▁vir	-5839
▁vvì	-5840
Angio	-5841
Maria	-5842
Nenné	-5843
Zitto	-5844
abuse	-5845
aglie	-5846
altro	-5847
arate	-5848
arria	-5849
aviss	-5850
bbeco	-5851
busci	-5852
canta	-5853
ccano	-5854
ccere	-5855
cchià	-5856
cchiá	-5857
ccáte	-5858
cento	-5859
chele	-5860
ciste	-5861
ciuse	-5862
cozze	-5863
desso	-5864
dutto	-5865
dèlla	-5866
farra	-5867
ggeta	-5868
giona	-5869
giunà	-5870
glite	-5871
gnute	-5872
gnóra	-5873
hiera	-5874
ierzo	-5875
intra	-5876
jenno	-5877
mania	-5878
mbruo	-5879
miche	-5880
mmasa	-5881
mmira	-5882
mmolo	-5883
mmunc	-5884
mpace	-5885
mpiso	-5886
mpont	-5887
ncamm	-5888
nfurm	-5889
ngere	-5890
nnesi	-5891
nzate	-5892
nzurà	-5893
orero	-5894
passà	-5895
pimmo	-5896
pizze	-5897
plano	-5898
ppone	-5899
Angi	-5900
idea	-5901
oscu	-5902
▁smò	-5903
bella	-5904
opera	-5905
rello	-5906
riche	-5907
riuse	-5908
rlame	-5909
ronto	-5910
ríano	-5911
sammo	-5912
sceni	-5913
schia	-5914
ssame	-5915
ssate	-5916
ssemo	-5917
ssera	-5918
sseve	-5919
ssuta	-5920
stera	-5921
stura	-5922
tille	-5923
télle	-5924
unale	-5925
uneta	-5926
unghe	-5927
unica	-5928
uorco	-5929
uordo	-5930
utaro	-5931
ventà	-5932
zetta	-5933
zette	-5934
ziose	-5935
zzare	-5936
zzeca	-5937
zzeco	-5938
zzino	-5939
zzune	-5940
àsame	-5941
érolo	-5942
òcche	-5943
▁Asci	-5944
▁Camá	-5945
▁Capo	-5946
▁Cchi	-5947
▁Conc	-5948
▁Dico	-5949
▁Fuje	-5950
▁Gira	-5951
▁Meza	-5952
▁Ména	-5953
▁Pepp	-5954
▁Pusì	-5955
▁Redé	-5956
▁Regi	-5957
▁Rito	-5958
▁Sacc	-5959
▁Saje	-5960
▁Schi	-5961
▁Sciu	-5962
▁Scre	-5963
▁Site	-5964
▁Sono	-5965
▁Sòna	-5966
▁Tamm	-5967
▁Tede	-5968
▁Titì	-5969
▁Vico	-5970
▁Voce	-5971
▁acce	-5972
▁aiza	-5973
▁amor	-5974
▁anno	-5975
▁avit	-5976
▁bari	-5977
▁bugi	-5978
▁butt	-5979
▁caff	-5980
▁casc	-5981
▁cche	-5982
▁ccun	-5983
▁cent	-5984
▁coda	-5985
▁cusc	-5986
▁dent	-5987
▁dese	-5988
▁dite	-5989
▁dopp	-5990
▁dubi	-5991
▁enjo	-5992
▁fenu	-5993
▁file	-5994
▁fior	-5995
▁inta	-5996
▁jeva	-5997
▁lami	-5998
▁lato	-5999
ebano	-6000
▁levà	-6001
▁love	-6002
▁lupo	-6003
▁mass	-6004
▁matu	-6005
▁mená	-6006
▁moda	-6007
▁move	-6008
▁muna	-6009
▁mura	-6010
▁muri	-6011
▁másc	-6012
▁nido	-6013
▁pavá	-6014
▁pece	-6015
▁pile	-6016
▁pire	-6017
▁prij	-6018
▁pède	-6019
▁quad	-6020
▁sacc	-6021
▁scan	-6022
▁sciá	-6023
▁sfró	-6024
▁spor	-6025
▁spur	-6026
▁strí	-6027
▁sòna	-6028
▁tamm	-6029
▁tela	-6030
▁tele	-6031
▁usci	-6032
▁vedi	-6033
▁vedo	-6034
▁vele	-6035
▁vici	-6036
▁vile	-6037
▁viva	-6038
▁vivo	-6039
▁vras	-6040
▁vucà	-6041
▁vulá	-6042
▁vuoi	-6043
▁zete	-6044
Gloria	-6045
Maistá	-6046
Ncielo	-6047
Ntreté	-6048
Rififì	-6049
Siente	-6050
Voglio	-6051
accido	-6052
accosa	-6053
annèra	-6054
antità	-6055
attimo	-6056
automo	-6057
busciò	-6058
cceche	-6059
colore	-6060
coppie	-6061
cquato	-6062
cquava	-6063
dolino	-6064
ennere	-6065
ennévo	-6066
eterna	-6067
garita	-6068
ggione	-6069
gliaje	-6070
iatate	-6071
istere	-6072
llallá	-6073
llaste	-6074
lletti	-6075
llucce	-6076
maggio	-6077
mbarza	-6078
mmetta	-6079
mmette	-6080
mmiezo	-6081
mmucca	-6082
mmésca	-6083
mmócca	-6084
mpazzì	-6085
ncante	-6086
ncenne	-6087
nfatte	-6088
nfatto	-6089
nganná	-6090
nuccia	-6091
ostric	-6092
riémme	-6093
sciuta	-6094
ssillo	-6095
strale	-6096
ucellu	-6097
ugnona	-6098
ultima	-6099
untanà	-6100
uoglio	-6101
urrite	-6102
zzette	-6103
áciono	-6104
èttero	-6105
énneme	-6106
òrtale	-6107
ósseco	-6108
ùrdema	-6109
▁Agata	-6110
▁Aggiu	-6111
▁Alláh	-6112
▁Arape	-6113
▁Belli	-6114
▁Cappe	-6115
▁Chill	-6116
▁Cient	-6117
▁Curre	-6118
▁Dammè	-6119
▁Dduje	-6120
▁Dillo	-6121
▁Fiore	-6122
▁Fosse	-6123
▁Frida	-6124
▁Fronn	-6125
▁Gioia	-6126
▁Mentr	-6127
▁Mille	-6128
▁Nannì	-6129
▁Nenna	-6130
▁Nennè	-6131
▁Pietà	-6132
▁Romeo	-6133
▁Scetá	-6134
▁Segre	-6135
▁Signó	-6136
▁Simmo	-6137
▁Somma	-6138
▁State	-6139
▁Sunná	-6140
▁Tante	-6141
▁Trase	-6142
▁Tuppe	-6143
▁Vatté	-6144
▁Vonno	-6145
▁abbra	-6146
▁abitu	-6147
▁addor	-6148
▁affer	-6149
▁ahimé	-6150
▁arapì	-6151
▁arapí	-6152
▁astre	-6153
▁aveva	-6154
▁balle	-6155
▁ballà	-6156
▁banda	-6157
▁bande	-6158
▁barba	-6159
▁batte	-6160
▁batti	-6161
▁bosco	-6162
▁buchè	-6163
▁bugía	-6164
▁buntà	-6165
▁buntá	-6166
▁buonu	-6167
▁cappe	-6168
▁ccere	-6169
▁certi	-6170
▁chisá	-6171
▁confe	-6172
▁corte	-6173
▁crava	-6174
▁crisc	-6175
▁cuccà	-6176
▁culor	-6177
▁cuntá	-6178
▁cócca	-6179
▁dammè	-6180
▁disse	-6181
▁dissi	-6182
▁dottó	-6183
▁elett	-6184
▁falla	-6185
▁farma	-6186
▁farve	-6187
▁fermá	-6188
▁ffaci	-6189
▁ffate	-6190
▁fiato	-6191
▁fiche	-6192
▁forma	-6193
▁funno	-6194
▁galle	-6195
▁gamme	-6196
▁gelus	-6197
▁ggelo	-6198
▁gioje	-6199
▁gover	-6200
▁grado	-6201
▁guada	-6202
▁guajo	-6203
▁guapp	-6204
▁jènno	-6205
▁lacre	-6206
▁lampa	-6207
▁lampi	-6208
▁leggo	-6209
▁legno	-6210
▁lloco	-6211
▁malia	-6212
▁mamme	-6213
▁mancà	-6214
▁manná	-6215
▁marrò	-6216
▁matre	-6217
▁miett	-6218
▁miezu	-6219
▁mmure	-6220
▁mmèle	-6221
▁molto	-6222
▁musta	-6223
▁nasci	-6224
▁nella	-6225
▁nizze	-6226
▁nniro	-6227
▁nénne	-6228
▁parru	-6229
▁pasce	-6230
▁paure	-6231
▁penne	-6232
▁pento	-6233
▁perla	-6234
▁pezze	-6235
▁piezz	-6236
▁pigno	-6237
▁poche	-6238
▁prima	-6239
▁profu	-6240
▁prome	-6241
▁prore	-6242
▁punto	-6243
▁purpo	-6244
▁radio	-6245
▁rialo	-6246
▁russo	-6247
▁saglí	-6248
▁samba	-6249
▁sasso	-6250
▁scala	-6251
▁scena	-6252
▁scher	-6253
▁scipp	-6254
▁sciup	-6255
▁scopp	-6256
▁senta	-6257
▁sfuje	-6258
▁sopra	-6259
▁spará	-6260
▁spase	-6261
▁splen	-6262
▁squar	-6263
▁stare	-6264
▁stess	-6265
▁strad	-6266
▁suggi	-6267
▁sulla	-6268
▁sveni	-6269
▁sécce	-6270
▁tazze	-6271
▁tentà	-6272
▁tenéa	-6273
▁terzo	-6274
▁tiena	-6275
▁traso	-6276
▁trasì	-6277
▁trovà	-6278
▁trová	-6279
▁tuone	-6280
▁vence	-6281
▁venti	-6282
▁vermi	-6283
▁verso	-6284
▁viato	-6285
▁vieni	-6286
▁viste	-6287
▁vorre	-6288
▁votta	-6289
▁vuzze	-6290
▁vvede	-6291
▁vvuli	-6292
▁vótte	-6293
Angiule	-6294
Mbracci	-6295
Signurí	-6296
acchere	-6297
allésse	-6298
andiere	-6299
anèpeta	-6300
appicce	-6301
ariggia	-6302
armunia	-6303
arrobba	-6304
autunno	-6305
cchezze	-6306
cchiato	-6307
eniéllo	-6308
entette	-6309
fessure	-6310
glietta	-6311
iacente	-6312
llaggio	-6313
mbriaca	-6314
mbriacà	-6315
mmencia	-6316
mmincià	-6317
mparata	-6318
mpressi	-6319
mpresta	-6320
mprimma	-6321
nanotte	-6322
ncatenà	-6323
nconica	-6324
ncontro	-6325
ncuntrà	-6326
nfrisco	-6327
ngalèra	-6328
paruole	-6329
priccia	-6330
rancese	-6331
sciorte	-6332
stiello	-6333
ttimana	-6334
tturato	-6335
uocchio	-6336
uormete	-6337
ventaje	-6338
verella	-6339
▁Appena	-6340
▁Catene	-6341
▁Chelli	-6342
▁Ciccio	-6343
▁Cristo	-6344
▁Deside	-6345
▁Diceva	-6346
▁Dicite	-6347
▁Estate	-6348
▁Filumè	-6349
▁Franci	-6350
▁Fredda	-6351
▁Frónna	-6352
▁Ischia	-6353
▁Marina	-6354
▁Maruzz	-6355
▁Miette	-6356
▁Parole	-6357
▁Popolo	-6358
▁Puorto	-6359
▁Quatto	-6360
▁Rosina	-6361
▁Rumane	-6362
▁Sanitá	-6363
▁Sbatte	-6364
▁Serena	-6365
▁Stanno	-6366
▁Stongo	-6367
▁Suonno	-6368
▁Torero	-6369
▁Trálla	-6370
▁Vurria	-6371
▁addore	-6372
▁amammo	-6373
▁appiso	-6374
▁appurá	-6375
▁appése	-6376
▁arance	-6377
▁arrass	-6378
▁arravu	-6379
▁arrivo	-6380
▁arrivà	-6381
▁arrivá	-6382
▁assapé	-6383
▁avanti	-6384
▁avette	-6385
▁banana	-6386
▁bbella	-6387
▁bbelli	-6388
▁bbotta	-6389
▁buordo	-6390
▁capite	-6391
▁chessà	-6392
▁cianci	-6393
▁ciente	-6394
▁cierro	-6395
▁colore	-6396
▁concer	-6397
▁cumpli	-6398
▁dispre	-6399
▁distur	-6400
▁duvere	-6401
▁eterna	-6402
▁eterno	-6403
▁facevo	-6404
▁fascio	-6405
▁fatico	-6406
▁ffatto	-6407
▁ffigli	-6408
▁figlió	-6409
▁foglio	-6410
▁frisco	-6411
▁gelati	-6412
▁ggamme	-6413
▁ggrare	-6414
▁ghiute	-6415
▁giacca	-6416
▁gialla	-6417
▁girano	-6418
▁girato	-6419
▁gnernò	-6420
▁grazie	-6421
▁guappa	-6422
▁guappe	-6423
▁guarra	-6424
▁latina	-6425
▁libbre	-6426
▁maccar	-6427
▁maltra	-6428
▁mangia	-6429
▁marite	-6430
▁menato	-6431
▁mesata	-6432
▁minute	-6433
▁mmiezo	-6434
▁muneta	-6435
▁mutive	-6436
▁máneca	-6437
▁mòrono	-6438
▁nemica	-6439
▁nemice	-6440
▁nepote	-6441
▁nnénne	-6442
▁nutaro	-6443
▁nuvità	-6444
▁ognuna	-6445
▁paglia	-6446
▁parite	-6447
▁pastur	-6448
▁patria	-6449
▁pazzea	-6450
▁pazzia	-6451
▁piatto	-6452
▁potite	-6453
▁poveru	-6454
▁pparlá	-6455
▁ppenzo	-6456
▁ppizze	-6457
▁pprume	-6458
▁ppónte	-6459
▁princi	-6460
▁pruove	-6461
▁pulito	-6462
▁putipù	-6463
▁quarte	-6464
▁quella	-6465
▁rasulo	-6466
▁redite	-6467
▁regalo	-6468
▁regina	-6469
▁regola	-6470
▁resedá	-6471
▁riesce	-6472
▁salutà	-6473
▁sangue	-6474
▁sapeva	-6475
▁sapite	-6476
▁scanza	-6477
▁scasso	-6478
▁scende	-6479
▁sciara	-6480
▁scippo	-6481
▁scénno	-6482
▁secule	-6483
▁spacca	-6484
▁spacco	-6485
▁spezzá	-6486
▁spiegá	-6487
▁spustà	-6488
▁spónta	-6489
▁stamme	-6490
▁starrà	-6491
▁stenno	-6492
▁studio	-6493
▁sònano	-6494
▁tenuto	-6495
▁tiritò	-6496
▁trammo	-6497
▁tratte	-6498
▁traíno	-6499
▁tuorno	-6500
▁tuorto	-6501
▁vaglia	-6502
▁valore	-6503
▁vasaje	-6504
▁vavosa	-6505
▁veglio	-6506
▁venire	-6507
▁venive	-6508
▁vicine	-6509
▁vierze	-6510
▁vintun	-6511
▁visita	-6512
▁vocche	-6513
▁voluto	-6514
▁vòlano	-6515
Angioine	-6516
arraccum	-6517
arrevota	-6518
arteneva	-6519
asciuttà	-6520
astregne	-6521
astrigne	-6522
astrégno	-6523
avvicina	-6524
cchescia	-6525
cchiotto	-6526
cioffolá	-6527
enócchie	-6528
eternitá	-6529
immagino	-6530
mbroglia	-6531
mbroglio	-6532
ntenneru	-6533
ntènnere	-6534
oscurità	-6535
rincipio	-6536
scinante	-6537
ssámmoce	-6538
sturnato	-6539
▁America	-6540
▁Cammina	-6541
▁Cantano	-6542
▁Chiagno	-6543
▁Credere	-6544
▁Currite	-6545
▁Cántano	-6546
▁Diciste	-6547
▁Feneste	-6548
▁Francia	-6549
▁Insieme	-6550
▁Jurnate	-6551
▁Margarí	-6552
▁Mercato	-6553
▁Mánname	-6554
▁Nanassa	-6555
▁Pasture	-6556
▁Piccere	-6557
▁Pròceda	-6558
▁Pòrtale	-6559
▁Ricorde	-6560
▁Scalina	-6561
▁Scusate	-6562
▁Suspire	-6563
▁Tenente	-6564
▁Viéneme	-6565
▁Zingaré	-6566
▁abballo	-6567
▁allucco	-6568
▁apierto	-6569
▁arrubbà	-6570
▁asciuta	-6571
▁aspetto	-6572
▁assieme	-6573
▁aumenta	-6574
▁azzurro	-6575
▁campava	-6576
▁canaria	-6577
▁canesta	-6578
▁canisto	-6579
▁cannune	-6580
▁cantare	-6581
▁cantave	-6582
▁cantenè	-6583
▁caprese	-6584
▁carizze	-6585
▁carogna	-6586
▁carrera	-6587
▁ccatene	-6588
▁ccoppie	-6589
▁cercate	-6590
▁cercavo	-6591
▁chiorme	-6592
▁ciuccio	-6593
▁compare	-6594
▁consuma	-6595
▁credete	-6596
▁cummara	-6597
▁cunzulà	-6598
▁curvine	-6599
▁cágnano	-6600
▁ddiceva	-6601
▁deritto	-6602
▁dormire	-6603
▁durmeva	-6604
▁felillo	-6605
▁fermata	-6606
▁festino	-6607
▁ffaccio	-6608
▁fissato	-6609
▁fravula	-6610
▁frennes	-6611
▁fresche	-6612
▁garzone	-6613
▁gemelle	-6614
▁giurato	-6615
▁gruosse	-6616
▁intanto	-6617
▁jettero	-6618
▁lariulà	-6619
▁lariulí	-6620
▁libertá	-6621
▁lieggio	-6622
▁lucanna	-6623
▁lácreme	-6624
▁lássala	-6625
▁machina	-6626
▁mancano	-6627
▁manélla	-6628
▁marenna	-6629
▁mellune	-6630
▁menasse	-6631
▁metteva	-6632
▁mmaretá	-6633
▁momento	-6634
▁murette	-6635
▁màmmeta	-6636
▁mágnano	-6637
▁ndunghe	-6638
▁nucelle	-6639
▁nutizia	-6640
▁nònneta	-6641
▁palummo	-6642
▁parlare	-6643
▁pasture	-6644
▁patrona	-6645
▁pedille	-6646
▁pentita	-6647
▁penzata	-6648
▁penzate	-6649
▁pesante	-6650
▁piccerè	-6651
▁picceré	-6652
▁pisello	-6653
▁pittato	-6654
▁ppiante	-6655
▁ppiglia	-6656
▁pregato	-6657
▁pétteno	-6658
▁pòrtale	-6659
▁qquatto	-6660
▁quaglia	-6661
▁qualità	-6662
▁quattro	-6663
▁ragiona	-6664
▁recchia	-6665
▁resisto	-6666
▁restata	-6667
▁restato	-6668
▁resélla	-6669
▁rifiuta	-6670
▁rommore	-6671
▁rummasa	-6672
▁rusélla	-6673
▁sapesse	-6674
▁sbaglio	-6675
▁sbaglià	-6676
▁scetame	-6677
▁scetate	-6678
▁scetava	-6679
▁schitto	-6680
▁sciacqu	-6681
▁scialle	-6682
▁scienza	-6683
▁sciorte	-6684
▁sciulia	-6685
▁scusate	-6686
▁sfrunnà	-6687
▁sicario	-6688
▁sicondo	-6689
▁sonanno	-6690
▁sospirà	-6691
▁spierzo	-6692
▁spusare	-6693
▁spusate	-6694
▁stanche	-6695
▁strille	-6696
▁stritto	-6697
▁stunato	-6698
▁surtant	-6699
▁tarantè	-6700
▁triemme	-6701
▁turnese	-6702
▁tòrnano	-6703
▁vasille	-6704
▁venduto	-6705
▁venesse	-6706
▁venètte	-6707
▁vestite	-6708
▁vestuta	-6709
▁vucammo	-6710
▁vulette	-6711
▁vveleno	-6712
▁zetella	-6713
▁zetèlla	-6714
Antignano	-6715
Mparaviso	-6716
alluntana	-6717
azzettaje	-6718
emigrante	-6719
ggenateve	-6720
mmasciate	-6721
ncatenato	-6722
nnammurrà	-6723
ntretélla	-6724
ostricaro	-6725
▁Angeleca	-6726
▁Arapimmo	-6727
▁Cumpagne	-6728
▁Dammillo	-6729
▁Furcella	-6730
▁Germania	-6731
▁Marìtemo	-6732
▁Nennella	-6733
▁Nennillo	-6734
▁Penzanno	-6735
▁Raziella	-6736
▁Redévano	-6737
▁Tedesche	-6738
▁Terzigno	-6739
▁Uttajano	-6740
▁Vattenne	-6741
▁abbrucia	-6742
▁accumpar	-6743
▁addurosa	-6744
▁affatato	-6745
▁aggiustá	-6746
▁amaranto	-6747
▁appiccia	-6748
▁appriess	-6749
▁argiento	-6750
▁arrivano	-6751
▁astritto	-6752
▁attienta	-6753
▁aucielle	-6754
▁bellillo	-6755
▁bonanema	-6756
▁brunetta	-6757
▁cacciate	-6758
▁cagnarme	-6759
▁campanno	-6760
▁carrozza	-6761
▁cchiamma	-6762
▁cercammo	-6763
▁comprato	-6764
▁criatura	-6765
▁criaturo	-6766
▁cugliuto	-6767
▁cummanna	-6768
▁cummannà	-6769
▁cundanna	-6770
▁dammella	-6771
▁diebbete	-6772
▁dimméllo	-6773
▁distante	-6774
▁diébbete	-6775
▁facitela	-6776
▁fanfarra	-6777
▁fermasse	-6778
▁fernisce	-6779
▁figliulo	-6780
▁funiculá	-6781
▁giuranno	-6782
▁guardano	-6783
▁guardava	-6784
▁gunnella	-6785
▁lallallá	-6786
▁libbertá	-6787
▁llenzole	-6788
▁llettere	-6789
▁malavita	-6790
▁malupina	-6791
▁martella	-6792
▁matutino	-6793
▁miracolo	-6794
▁miracule	-6795
▁murmuliá	-6796
▁mussillo	-6797
▁nascette	-6798
▁nisciunu	-6799
▁ogneduno	-6800
▁passammo	-6801
▁passiona	-6802
▁perdarrá	-6803
▁pericolo	-6804
▁pezzente	-6805
▁piaciuta	-6806
▁piazzato	-6807
▁pigliate	-6808
▁piáciono	-6809
▁pperdona	-6810
▁presenza	-6811
▁preziose	-6812
▁prumessa	-6813
▁pubblico	-6814
▁pullaste	-6815
▁purtanno	-6816
▁purtaste	-6817
▁putarrìa	-6818
▁quaccosa	-6819
▁riflette	-6820
▁rispetta	-6821
▁rispettà	-6822
▁rispongo	-6823
▁risposta	-6824
▁risposto	-6825
▁rrecchie	-6826
▁sagliuto	-6827
▁sardèlla	-6828
▁sbatteva	-6829
▁sbattuta	-6830
▁scapizze	-6831
▁scenneno	-6832
▁scenneva	-6833
▁scennite	-6834
▁schiaffe	-6835
▁schianta	-6836
▁screvite	-6837
▁scullata	-6838
▁sergente	-6839
▁sfriggià	-6840
▁simpatia	-6841
▁sittanta	-6842
▁soltanto	-6843
▁spantecá	-6844
▁spassato	-6845
▁spennévo	-6846
▁spiaggia	-6847
▁spontano	-6848
▁sposammo	-6849
▁spriémme	-6850
▁stellato	-6851
▁tammórre	-6852
▁trasesse	-6853
▁trattore	-6854
▁trecento	-6855
▁turbante	-6856
▁tuzzuliá	-6857
▁tuósseco	-6858
▁velocitá	-6859
▁vicinato	-6860
▁zompanno	-6861
allicuorde	-6862
allisciano	-6863
appresenta	-6864
automobile	-6865
intrasatto	-6866
mbarzamata	-6867
nchiantato	-6868
ntussecuso	-6869
spressione	-6870
vertimento	-6871
▁Camáldule	-6872
▁Carugnona	-6873
▁Frunnélle	-6874
▁Gennarino	-6875
▁Maistrale	-6876
▁Margarita	-6877
▁Mettitece	-6878
▁Sarracine	-6879
▁Spagnuole	-6880
▁addeventà	-6881
▁addurmute	-6882
▁alluntanà	-6883
▁americana	-6884
▁arricurdà	-6885
▁aspettano	-6886
▁azzeccuse	-6887
▁benedetta	-6888
▁chiagneva	-6889
▁chiagnive	-6890
▁chiammaje	-6891
▁chiammava	-6892
▁chiàgnere	-6893
▁cianciuse	-6894
▁cumbinano	-6895
▁cumpagnía	-6896
▁cunfiette	-6897
▁cunziglia	-6898
▁disperato	-6899
▁duiciento	-6900
▁governate	-6901
▁maleziosa	-6902
▁mandolino	-6903
▁mantesino	-6904
▁martiello	-6905
▁nnacchere	-6906
▁nustalgìa	-6907
▁paglietta	-6908
▁parulella	-6909
▁peccatore	-6910
▁penniello	-6911
▁perdoname	-6912
▁pergulato	-6913
▁pupatelle	-6914
▁sassofono	-6915
▁sbarianno	-6916
▁schiocche	-6917
▁sciantose	-6918
▁scrittura	-6919
▁sfrennesi	-6920
▁signurina	-6921
▁smaledico	-6922
▁spergiuro	-6923
▁staggione	-6924
▁strigneme	-6925
▁strumento	-6926
▁sturnello	-6927
▁suspiraje	-6928
▁traditore	-6929
▁tricolore	-6930
▁tristezza	-6931
▁trovajeno	-6932
▁zappatore	-6933
ndifferente	-6934
▁Marucchine	-6935
▁Maruzzella	-6936
▁Sissignore	-6937
▁Tirabusciò	-6938
▁affacciare	-6939
▁annascosta	-6940
▁astrignuta	-6941
▁banderella	-6942
▁cammenanno	-6943
▁cammesella	-6944
▁canusciuta	-6945
▁chiacchere	-6946
▁ciaramella	-6947
▁ciardenèra	-6948
▁cóntatélle	-6949
▁diciarraje	-6950
▁giacchetta	-6951
▁grillaggio	-6952
▁lentamente	-6953
▁malincunìa	-6954
▁malincunía	-6955
▁maretiello	-6956
▁mazzarello	-6957
▁palummelle	-6958
▁pizzajuolo	-6959
▁pprincipio	-6960
▁prufessure	-6961
▁rricchezze	-6962
▁rundinelle	-6963
▁scellarato	-6964
▁scellerata	-6965
▁schiuppata	-6966
▁sciampagna	-6967
▁sciogliere	-6968
▁sentimente	-6969
▁sfurtunata	-6970
▁spaventate	-6971
▁stracquato	-6972
▁vienetenne	-6973
mmasciatella	-6974
mpressiunato	-6975
▁Bammeniello	-6976
▁Bammeniéllo	-6977
▁Cappelletti	-6978
▁Carcioffolá	-6979
▁Cuncettella	-6980
▁Serenatella	-6981
▁Trállalallá	-6982
▁Tuttuquante	-6983
▁addeventaje	-6984
▁addiventaje	-6985
▁affatturato	-6986
▁appiccecate	-6987
▁avvellutate	-6988
▁capricciosa	-6989
▁cumpagnelle	-6990
▁cumpassione	-6991
▁cumpiacente	-6992
▁eternamente	-6993
▁figliulelle	-6994
▁fracchescia	-6995
▁frasturnato	-6996
▁inutilmente	-6997
▁malasciorte	-6998
▁malinconica	-6999
▁pasturielle	-7000
▁pigliatillo	-7001
▁purpetielle	-7002
▁ricciulillo	-7003
▁rispunnette	-7004
▁surdatiello	-7005
▁tristamente	-7006
▁Dicitencello	-7007
▁Maliziusella	-7008
▁Scalinatèlla	-7009
▁Segretamente	-7010
▁allegramente	-7011
▁appassiunato	-7012
▁appresentamm	-7013
▁appuntamento	-7014
▁cchiacchiere	-7015
▁ffigliulelle	-7016
▁perdutamente	-7017
▁spassatiempo	-7018
▁addenucchiata	-7019
'-	-7020
?!	-7021
Bo	-7022
Do	-7023
Gi	-7024
Ni	-7025
aì	-7026
aí	-7027
bà	-7028
cq	-7029
cé	-7030
dr	-7031
fà	-7032
hì	-7033
jó	-7034
mu	-7035
mè	-7036
np	-7037
nó	-7038
od	-7039
rm	-7040
sf	-7041
up	-7042
vv	-7043
zá	-7044
àr	-7045
ér	-7046
ìo	-7047
òn	-7048
Ass	-7049
Mma	-7050
Nti	-7051
Nzo	-7052
San	-7053
Sca	-7054
Sei	-7055
Una	-7056
aco	-7057
ada	-7058
agg	-7059
anà	-7060
ape	-7061
arì	-7062
aun	-7063
bbu	-7064
ber	-7065
bre	-7066
ciá	-7067
dar	-7068
ddò	-7069
ddó	-7070
die	-7071
dra	-7072
erv	-7073
erà	-7074
est	-7075
età	-7076
fre	-7077
fuo	-7078
ght	-7079
his	-7080
ila	-7081
imp	-7082
ing	-7083
ire	-7084
ito	-7085
iuo	-7086
lai	-7087
lio	-7088
llò	-7089
mbe	-7090
mbu	-7091
ncà	-7092
nda	-7093
ndi	-7094
nfu	-7095
nnì	-7096
ntr	-7097
néa	-7098
ome	-7099
Je	-7100
dó	-7101
zì	-7102
bbo	-7103
feo	-7104
mos	-7105
nch	-7106
ono	-7107
orf	-7108
ote	-7109
ppu	-7110
ppó	-7111
pre	-7112
pul	-7113
rdo	-7114
rin	-7115
rir	-7116
riá	-7117
rle	-7118
rma	-7119
rne	-7120
rve	-7121
réa	-7122
tal	-7123
uoi	-7124
usu	-7125
usí	-7126
ved	-7127
vis	-7128
àsa	-7129
éfo	-7130
éjo	-7131
íza	-7132
òse	-7133
òte	-7134
óne	-7135
óso	-7136
ùse	-7137
▁Aj	-7138
▁Ar	-7139
▁Dá	-7140
▁Nc	-7141
▁Nf	-7142
▁Nà	-7143
▁St	-7144
▁Só	-7145
▁dó	-7146
▁hi	-7147
▁lí	-7148
▁lù	-7149
▁on	-7150
▁pì	-7151
▁rè	-7152
▁sá	-7153
▁tí	-7154
▁ur	-7155
Mamm	-7156
Nzie	-7157
Site	-7158
Tira	-7159
aghe	-7160
alzo	-7161
ambe	-7162
ammu	-7163
ammà	-7164
anté	-7165
antì	-7166
auni	-7167
bria	-7168
care	-7169
casa	-7170
cava	-7171
cero	-7172
cete	-7173
cido	-7174
culo	-7175
cura	-7176
dine	-7177
dive	-7178
enuo	-7179
feri	-7180
ffer	-7181
ffré	-7182
fico	-7183
filo	-7184
fita	-7185
fone	-7186
fosf	-7187
glió	-7188
iata	-7189
ieta	-7190
ille	-7191
isse	-7192
jeva	-7193
lema	-7194
lese	-7195
lori	-7196
luna	-7197
làte	-7198
mare	-7199
ffa	-7200
mbé	-7201
mbì	-7202
npe	-7203
óff	-7204
▁ju	-7205
Vuje	-7206
dici	-7207
dina	-7208
dito	-7209
dità	-7210
entá	-7211
iuol	-7212
litá	-7213
mmar	-7214
mono	-7215
ncap	-7216
ncar	-7217
nenn	-7218
neta	-7219
nfio	-7220
ngri	-7221
nora	-7222
nosa	-7223
ntié	-7224
onta	-7225
orgo	-7226
orna	-7227
orse	-7228
oste	-7229
otel	-7230
pido	-7231
pita	-7232
pito	-7233
pole	-7234
poli	-7235
pone	-7236
ppio	-7237
pute	-7238
quie	-7239
rale	-7240
reto	-7241
rico	-7242
rine	-7243
ritá	-7244
rivo	-7245
roco	-7246
sema	-7247
sità	-7248
sive	-7249
sser	-7250
stia	-7251
sura	-7252
tece	-7253
telo	-7254
teva	-7255
tiri	-7256
tivo	-7257
toje	-7258
tolo	-7259
tono	-7260
ulde	-7261
uote	-7262
uoto	-7263
urlo	-7264
vina	-7265
vinà	-7266
zano	-7267
zino	-7268
òcca	-7269
ónna	-7270
▁Acc	-7271
▁All	-7272
▁Ame	-7273
▁Ass	-7274
▁Ave	-7275
▁Cag	-7276
▁Cha	-7277
▁Don	-7278
▁Ero	-7279
▁Fer	-7280
▁Gel	-7281
▁Meh	-7282
▁Nel	-7283
▁Pri	-7284
▁Scà	-7285
▁Sia	-7286
▁Sié	-7287
▁Sur	-7288
▁Sus	-7289
▁Tri	-7290
▁Tul	-7291
▁Via	-7292
▁Vie	-7293
▁Vis	-7294
▁Vul	-7295
▁ada	-7296
▁brí	-7297
▁cen	-7298
▁cie	-7299
Uni	-7300
niu	-7301
nso	-7302
ogà	-7303
scá	-7304
▁já	-7305
auta	-7306
aìza	-7307
gliu	-7308
jata	-7309
nino	-7310
paro	-7311
ravi	-7312
sone	-7313
tula	-7314
ubbi	-7315
vitá	-7316
▁cio	-7317
▁cla	-7318
▁cra	-7319
▁crì	-7320
▁dan	-7321
▁dic	-7322
▁dif	-7323
▁dis	-7324
▁ecc	-7325
▁fac	-7326
▁fas	-7327
▁fir	-7328
▁frà	-7329
▁fuc	-7330
▁gió	-7331
▁jen	-7332
▁lim	-7333
▁mil	-7334
▁min	-7335
▁off	-7336
▁pag	-7337
▁pir	-7338
▁reg	-7339
▁rep	-7340
▁sac	-7341
▁scì	-7342
▁sip	-7343
▁smá	-7344
▁spà	-7345
▁sso	-7346
▁stù	-7347
▁sui	-7348
▁sus	-7349
▁tab	-7350
▁tal	-7351
▁tea	-7352
▁vai	-7353
▁vvó	-7354
▁zza	-7355
Bella	-7356
Cagna	-7357
Canta	-7358
Quant	-7359
Trase	-7360
accur	-7361
aglió	-7362
alleg	-7363
apare	-7364
appar	-7365
arore	-7366
atate	-7367
atore	-7368
avría	-7369
casse	-7370
ccate	-7371
cceca	-7372
cchiù	-7373
ccola	-7374
ccuto	-7375
cessi	-7376
cetta	-7377
cetto	-7378
cezza	-7379
chino	-7380
cista	-7381
cizia	-7382
dammo	-7383
desse	-7384
dette	-7385
diano	-7386
dista	-7387
ditto	-7388
gette	-7389
ggere	-7390
ggine	-7391
gilia	-7392
glino	-7393
gnese	-7394
gnete	-7395
gnite	-7396
gnose	-7397
gnurì	-7398
goste	-7399
Val	-7400
avv	-7401
nsi	-7402
nzi	-7403
tum	-7404
▁Bù	-7405
Olli	-7406
altá	-7407
ariu	-7408
arié	-7409
gine	-7410
luse	-7411
nzur	-7412
orze	-7413
peno	-7414
site	-7415
tute	-7416
unnà	-7417
volu	-7418
▁Col	-7419
▁Giu	-7420
▁Sté	-7421
▁Ttu	-7422
▁ddò	-7423
▁lev	-7424
▁sua	-7425
▁sud	-7426
arina	-7427
arran	-7428
caddo	-7429
gozio	-7430
hhhhh	-7431
ielli	-7432
ierro	-7433
isten	-7434
lante	-7435
lella	-7436
lemme	-7437
letto	-7438
licco	-7439
llare	-7440
llaro	-7441
lline	-7442
lluna	-7443
lomme	-7444
luzze	-7445
lvere	-7446
mammo	-7447
manna	-7448
manno	-7449
mante	-7450
manzo	-7451
mentá	-7452
messa	-7453
miere	-7454
milla	-7455
mmaje	-7456
mmera	-7457
mpapu	-7458
mparà	-7459
mpera	-7460
munta	-7461
ncuor	-7462
nente	-7463
nesse	-7464
nfilo	-7465
nfoco	-7466
ngame	-7467
ngara	-7468
ngole	-7469
night	-7470
nnamo	-7471
nnate	-7472
nneso	-7473
nnoce	-7474
nnule	-7475
ntame	-7476
ntece	-7477
ntete	-7478
pasto	-7479
pente	-7480
posta	-7481
ppate	-7482
ppeta	-7483
quatt	-7484
quore	-7485
rance	-7486
renno	-7487
rinia	-7488
risse	-7489
riulì	-7490
robba	-7491
rreco	-7492
scano	-7493
scevo	-7494
serva	-7495
spina	-7496
ssaco	-7497
ssima	-7498
stagn	-7499
?",	-7500
Ché	-7501
Atti	-7502
bate	-7503
engo	-7504
gedo	-7505
gole	-7506
píte	-7507
▁ins	-7508
corne	-7509
gella	-7510
giura	-7511
ierve	-7512
llumi	-7513
mmana	-7514
mmiso	-7515
moria	-7516
orche	-7517
resce	-7518
speri	-7519
staje	-7520
stune	-7521
stuto	-7522
tiche	-7523
timmo	-7524
togne	-7525
trosa	-7526
ttava	-7527
ttemo	-7528
ttone	-7529
ttuto	-7530
ulata	-7531
uleva	-7532
ulign	-7533
ulura	-7534
unaje	-7535
unavo	-7536
uollo	-7537
uorge	-7538
urava	-7539
uritá	-7540
usano	-7541
uscia	-7542
usign	-7543
usino	-7544
vagia	-7545
varrà	-7546
velle	-7547
venne	-7548
vente	-7549
vento	-7550
viene	-7551
vinto	-7552
vvuje	-7553
zeano	-7554
zzame	-7555
zzari	-7556
zzule	-7557
zzuta	-7558
ácene	-7559
éfola	-7560
òtano	-7561
▁Acca	-7562
▁Aíza	-7563
▁Bebé	-7564
▁Bell	-7565
▁Cama	-7566
▁Cara	-7567
▁Casa	-7568
▁Cumm	-7569
▁Daje	-7570
▁Dich	-7571
▁Durm	-7572
▁Ecco	-7573
▁Fall	-7574
▁Jamm	-7575
▁Mana	-7576
▁Mand	-7577
▁Noce	-7578
▁Oggi	-7579
▁Posi	-7580
▁Pupa	-7581
▁Roma	-7582
▁Sagl	-7583
▁Save	-7584
▁Seje	-7585
▁Senz	-7586
▁Tant	-7587
▁Tata	-7588
▁Vivo	-7589
▁alli	-7590
▁allo	-7591
▁amal	-7592
▁arde	-7593
▁aria	-7594
▁assu	-7595
▁atte	-7596
▁auni	-7597
▁auto	-7598
▁avev	-7599
Agge	-7600
appí	-7601
avvi	-7602
jate	-7603
jole	-7604
lune	-7605
pale	-7606
pier	-7607
tune	-7608
▁Pad	-7609
▁Una	-7610
adduó	-7611
arruo	-7612
ccolo	-7613
cuoco	-7614
gazza	-7615
iscia	-7616
lizio	-7617
nnant	-7618
nosco	-7619
riuso	-7620
ulone	-7621
ziosi	-7622
▁Gior	-7623
▁Scia	-7624
▁affe	-7625
▁affá	-7626
▁avva	-7627
▁bevi	-7628
▁biso	-7629
▁cadè	-7630
▁café	-7631
▁cagn	-7632
▁camb	-7633
▁camm	-7634
▁caru	-7635
▁cato	-7636
▁cena	-7637
▁chin	-7638
▁chio	-7639
▁civi	-7640
▁così	-7641
▁cucc	-7642
▁cumi	-7643
▁cupa	-7644
▁dall	-7645
▁dare	-7646
▁data	-7647
▁dece	-7648
▁devi	-7649
▁devo	-7650
▁dipi	-7651
▁dive	-7652
▁dopo	-7653
▁dose	-7654
▁dura	-7655
▁esce	-7656
▁esco	-7657
▁famm	-7658
▁ffra	-7659
▁ffur	-7660
▁fida	-7661
▁fisi	-7662
▁fort	-7663
▁féde	-7664
▁gall	-7665
▁gara	-7666
▁garo	-7667
▁gior	-7668
▁guer	-7669
▁inco	-7670
▁inde	-7671
▁into	-7672
▁lana	-7673
▁levo	-7674
▁maga	-7675
▁manc	-7676
▁marí	-7677
▁mata	-7678
▁mate	-7679
▁mazz	-7680
▁menà	-7681
▁mmur	-7682
▁mode	-7683
▁mori	-7684
▁muta	-7685
▁mute	-7686
▁mèle	-7687
▁ména	-7688
▁nana	-7689
▁nate	-7690
▁nell	-7691
▁nfrì	-7692
▁nott	-7693
▁osse	-7694
▁over	-7695
▁padr	-7696
▁pato	-7697
▁pede	-7698
▁peli	-7699
ziá	-7700
▁Já	-7701
▁hâ	-7702
verb	-7703
verò	-7704
▁Cic	-7705
amica	-7706
gnive	-7707
mannà	-7708
ziana	-7709
òvere	-7710
▁poca	-7711
▁pove	-7712
▁ppul	-7713
▁prià	-7714
▁prié	-7715
▁prum	-7716
▁pusà	-7717
▁putè	-7718
▁racc	-7719
▁ramo	-7720
▁rapp	-7721
▁rara	-7722
▁rare	-7723
▁reci	-7724
▁reto	-7725
▁rigo	-7726
▁rimp	-7727
▁riti	-7728
▁saci	-7729
▁sart	-7730
▁sará	-7731
▁scul	-7732
▁seco	-7733
▁sent	-7734
▁sisc	-7735
▁sonà	-7736
▁sprù	-7737
▁stai	-7738
▁stat	-7739
▁strì	-7740
▁stup	-7741
▁sven	-7742
▁sòno	-7743
▁tato	-7744
▁tena	-7745
▁tire	-7746
▁tito	-7747
▁toje	-7748
▁tomo	-7749
▁tore	-7750
▁trad	-7751
▁tram	-7752
▁ttur	-7753
▁tuje	-7754
▁utto	-7755
▁vasc	-7756
▁vutá	-7757
▁véne	-7758
▁vére	-7759
▁vótt	-7760
▁èsse	-7761
Mmesca	-7762
Statte	-7763
accisa	-7764
acciso	-7765
affare	-7766
ammano	-7767
anelle	-7768
annera	-7769
annoce	-7770
armaje	-7771
arrite	-7772
astipà	-7773
avanto	-7774
avesse	-7775
cciaje	-7776
ccillo	-7777
cciolo	-7778
cciuso	-7779
chesca	-7780
chiaro	-7781
chiata	-7782
cielle	-7783
ddigli	-7784
dereto	-7785
entato	-7786
entaté	-7787
entita	-7788
esiste	-7789
fronte	-7790
gliaro	-7791
glielo	-7792
gliune	-7793
gnammo	-7794
gnella	-7795
gnelle	-7796
gnorsì	-7797
grazia	-7798
ionato	-7799
avea	-7800
avev	-7801
avéa	-7802
effe	-7803
▁sbi	-7804
▁sgu	-7805
▁trò	-7806
Anema	-7807
avess	-7808
aveva	-7809
ffete	-7810
mmurà	-7811
nènno	-7812
perte	-7813
trora	-7814
usias	-7815
▁Dove	-7816
▁Ride	-7817
▁Zero	-7818
▁figu	-7819
▁filà	-7820
▁sòle	-7821
Questa	-7822
anduvi	-7823
dateve	-7824
decina	-7825
foglio	-7826
gnenno	-7827
juorno	-7828
latore	-7829
llanno	-7830
llenza	-7831
lliate	-7832
mateme	-7833
mmanco	-7834
mmedio	-7835
mmillo	-7836
monica	-7837
mpastà	-7838
mpastá	-7839
mpeste	-7840
mpogne	-7841
ncarru	-7842
ncigno	-7843
ncunia	-7844
nfanta	-7845
nfigli	-7846
ngarro	-7847
nsomma	-7848
ntente	-7849
nturci	-7850
nzerro	-7851
nzione	-7852
nziste	-7853
nzèrra	-7854
parato	-7855
pecché	-7856
posano	-7857
ppotto	-7858
pìrame	-7859
raggio	-7860
ricano	-7861
rranno	-7862
rrella	-7863
rrizze	-7864
siente	-7865
ssanno	-7866
stella	-7867
suonno	-7868
tiravo	-7869
ttanno	-7870
ttanto	-7871
ttiere	-7872
ulanza	-7873
ultimo	-7874
unasse	-7875
unnato	-7876
unnece	-7877
uscite	-7878
uscitá	-7879
uviano	-7880
uóvete	-7881
varosa	-7882
ziglio	-7883
zzeche	-7884
íppala	-7885
òrmono	-7886
ónnono	-7887
ùnnete	-7888
ùseche	-7889
▁Astri	-7890
▁Cerca	-7891
▁Chell	-7892
▁Conte	-7893
▁Currì	-7894
▁Freva	-7895
▁Funta	-7896
▁Fuoco	-7897
▁Giura	-7898
▁Giuvi	-7899
chè	-7900
ith	-7901
usìa	-7902
▁cré	-7903
▁gab	-7904
mparé	-7905
ombre	-7906
trine	-7907
▁Scur	-7908
▁gode	-7909
▁sbru	-7910
▁zucc	-7911
▁zucà	-7912
Stóngo	-7913
arriva	-7914
mbrero	-7915
nsanta	-7916
▁Genná	-7917
▁Guard	-7918
▁Lasso	-7919
▁Mammà	-7920
▁Marsi	-7921
▁Monti	-7922
▁Padro	-7923
▁Paris	-7924
▁Passe	-7925
▁Paura	-7926
▁Pòzzo	-7927
▁Quand	-7928
▁Sotto	-7929
▁Spusà	-7930
▁Tocca	-7931
▁Torre	-7932
▁Vieni	-7933
▁abuso	-7934
▁acala	-7935
▁accun	-7936
▁ajutà	-7937
▁amica	-7938
▁anche	-7939
▁appre	-7940
▁assai	-7941
▁astip	-7942
▁avana	-7943
▁avevo	-7944
▁avota	-7945
▁avuta	-7946
▁babbá	-7947
▁balla	-7948
▁banco	-7949
▁barca	-7950
▁bbase	-7951
▁birre	-7952
▁blusa	-7953
▁bontà	-7954
▁botte	-7955
▁bromo	-7956
▁busso	-7957
▁butte	-7958
▁cacio	-7959
▁cagno	-7960
▁calmo	-7961
▁calmá	-7962
▁camma	-7963
▁cance	-7964
▁canna	-7965
▁carru	-7966
▁cassa	-7967
▁casti	-7968
▁ccert	-7969
▁ccria	-7970
▁ccére	-7971
▁cercá	-7972
▁chian	-7973
▁chien	-7974
▁cimma	-7975
▁cocco	-7976
▁cocio	-7977
▁colpe	-7978
▁coniu	-7979
▁cumba	-7980
▁cunzí	-7981
▁custá	-7982
▁ddame	-7983
▁ddich	-7984
▁ddici	-7985
▁denti	-7986
▁dillo	-7987
▁disso	-7988
▁falli	-7989
▁fallo	-7990
▁famma	-7991
▁farrà	-7992
▁fisar	-7993
▁fisso	-7994
▁fiuri	-7995
▁forze	-7996
▁fossa	-7997
▁gallo	-7998
▁garba	-7999
Mon	-8000
Paqu	-8001
ngua	-8002
▁prè	-8003
ajere	-8004
alice	-8005
gnóre	-8006
▁Papa	-8007
▁ascì	-8008
▁durá	-8009
▁fumá	-8010
▁gudé	-8011
▁pipì	-8012
▁zezz	-8013
Nfacci	-8014
annina	-8015
arèlla	-8016
errore	-8017
essere	-8018
fitana	-8019
grotta	-8020
guardo	-8021
mménce	-8022
nchere	-8023
tifica	-8024
▁Facce	-8025
▁Ricur	-8026
▁Sufia	-8027
▁Teres	-8028
▁Zitta	-8029
▁Zitto	-8030
▁gatte	-8031
▁gioia	-8032
▁grano	-8033
▁guder	-8034
▁justo	-8035
▁jésce	-8036
▁lallá	-8037
▁lariu	-8038
▁lazze	-8039
▁lesta	-8040
▁làssa	-8041
▁mancá	-8042
▁mannà	-8043
▁masto	-8044
▁mazzo	-8045
▁messa	-8046
▁metta	-8047
▁miste	-8048
▁mmate	-8049
▁morze	-8050
▁mucca	-8051
▁nenne	-8052
▁ninna	-8053
▁ninne	-8054
▁nnata	-8055
▁nnuje	-8056
▁nonno	-8057
▁noste	-8058
▁nozze	-8059
▁nunna	-8060
▁occhi	-8061
▁palle	-8062
▁parro	-8063
▁parta	-8064
▁passí	-8065
▁pasto	-8066
▁peccà	-8067
▁perfe	-8068
▁perso	-8069
▁pesce	-8070
▁picco	-8071
▁piett	-8072
▁pietá	-8073
▁pigna	-8074
▁pisse	-8075
▁pisto	-8076
▁pitta	-8077
▁ponta	-8078
▁portá	-8079
▁possi	-8080
▁poste	-8081
▁posti	-8082
▁potra	-8083
▁ppepe	-8084
▁ppetr	-8085
▁preli	-8086
▁preso	-8087
▁prote	-8088
▁provo	-8089
▁pruce	-8090
▁pruvá	-8091
▁pugne	-8092
▁punti	-8093
▁purtó	-8094
▁puzza	-8095
▁quala	-8096
▁quore	-8097
▁ragge	-8098
▁reall	-8099
Ind	-8100
abe	-8101
vud	-8102
Bona	-8103
arbo	-8104
ascì	-8105
garì	-8106
vutá	-8107
!!!",	-8108
Fatte	-8109
India	-8110
mmócc	-8111
mmóne	-8112
▁Così	-8113
▁Rusé	-8114
autore	-8115
denzia	-8116
upardo	-8117
urreno	-8118
▁Surre	-8119
▁ajére	-8120
▁ccafé	-8121
▁dolce	-8122
▁ffèle	-8123
▁grido	-8124
▁grill	-8125
▁palco	-8126
▁resti	-8127
▁riale	-8128
▁rimba	-8129
▁risto	-8130
▁rived	-8131
▁ronna	-8132
▁rotta	-8133
▁rutto	-8134
▁sacco	-8135
▁sacre	-8136
▁santi	-8137
▁sarda	-8138
▁sarto	-8139
▁sazia	-8140
▁scamp	-8141
▁scema	-8142
▁sciar	-8143
▁scite	-8144
▁sciué	-8145
▁screv	-8146
▁scunz	-8147
▁serva	-8148
▁servì	-8149
▁smani	-8150
▁sogna	-8151
▁sogno	-8152
▁spata	-8153
▁sperà	-8154
▁sperì	-8155
▁sperí	-8156
▁spesa	-8157
▁spira	-8158
▁spont	-8159
▁sposi	-8160
▁stanz	-8161
▁stiso	-8162
▁stona	-8163
▁stong	-8164
▁suona	-8165
▁svení	-8166
▁sòrde	-8167
▁tardà	-8168
▁tasse	-8169
▁terri	-8170
▁titte	-8171
▁tondo	-8172
▁tornà	-8173
▁trade	-8174
▁trasc	-8175
▁trica	-8176
▁tunne	-8177
▁tunno	-8178
▁tuort	-8179
▁tuppe	-8180
▁tècco	-8181
▁tènna	-8182
▁vacca	-8183
▁vantà	-8184
▁vasci	-8185
▁vente	-8186
▁vestí	-8187
▁vezzo	-8188
▁vigne	-8189
▁ville	-8190
▁vizie	-8191
▁viéne	-8192
▁votab	-8193
▁vrucc	-8194
▁vuttà	-8195
▁vvaco	-8196
▁vvène	-8197
▁vèngo	-8198
▁zamba	-8199
abu	-8200
tóra	-8201
ajuta	-8202
ccáta	-8203
prete	-8204
schio	-8205
urita	-8206
▁Lilí	-8207
▁audi	-8208
▁gars	-8209
▁uomo	-8210
▁ògne	-8211
Figlia	-8212
Frónna	-8213
affinà	-8214
arance	-8215
mmonio	-8216
òrdate	-8217
▁Cuntà	-8218
▁Rispo	-8219
▁Stive	-8220
▁confi	-8221
▁farfa	-8222
▁giudi	-8223
▁pónte	-8224
▁spagn	-8225
▁zappa	-8226
▁zenna	-8227
▁zenni	-8228
Ntiempo	-8229
Paquita	-8230
Uriente	-8231
accatte	-8232
acciaro	-8233
acciate	-8234
adduone	-8235
addurme	-8236
addurmi	-8237
addurmì	-8238
agrille	-8239
ammélla	-8240
ancappo	-8241
ancello	-8242
anianno	-8243
appizze	-8244
arranno	-8245
arríano	-8246
artengo	-8247
assetta	-8248
avarrìa	-8249
avotano	-8250
avévamo	-8251
cciolla	-8252
cciotta	-8253
ceriere	-8254
cessita	-8255
chetezù	-8256
entiamo	-8257
enziale	-8258
fficile	-8259
gliacca	-8260
gliammo	-8261
gliasse	-8262
gnataro	-8263
iniello	-8264
machine	-8265
manette	-8266
mbrello	-8267
mentale	-8268
mentare	-8269
micetta	-8270
mparano	-8271
mparave	-8272
mpazzía	-8273
muntano	-8274
nchiude	-8275
ncumpag	-8276
ncòccio	-8277
nfiamma	-8278
nfresca	-8279
nfucata	-8280
nnamura	-8281
nquente	-8282
nzierre	-8283
resento	-8284
rinella	-8285
rullèro	-8286
rígneme	-8287
ssianno	-8288
strillo	-8289
televis	-8290
tirasse	-8291
ttacasa	-8292
ttáteve	-8293
tàmmoce	-8294
uncelle	-8295
uncenne	-8296
uoccole	-8297
usciuto	-8298
vannara	-8299
vedè	-8300
angui	-8301
grafo	-8302
guida	-8303
isito	-8304
mpunt	-8305
ranee	-8306
tieri	-8307
trulo	-8308
▁Pruv	-8309
▁cosí	-8310
▁pucu	-8311
▁rraù	-8312
avantà	-8313
mmidia	-8314
nzógna	-8315
onestá	-8316
scaldá	-8317
ssulia	-8318
tiellu	-8319
▁Punto	-8320
▁Steva	-8321
▁Viate	-8322
▁aaaaa	-8323
▁aiutà	-8324
▁bambù	-8325
▁cànta	-8326
▁darme	-8327
▁recri	-8328
▁sacri	-8329
▁ànema	-8330
incanto	-8331
ritomba	-8332
scenico	-8333
tografo	-8334
versità	-8335
▁Caccia	-8336
▁Cheste	-8337
▁Chianu	-8338
▁Chissà	-8339
▁Diceno	-8340
▁Diente	-8341
▁Ffunta	-8342
▁Furast	-8343
▁Geluso	-8344
▁Giacca	-8345
▁Guappe	-8346
▁Guappo	-8347
▁Loggia	-8348
▁Làlala	-8349
▁Marená	-8350
▁Mietta	-8351
▁Milano	-8352
▁Papèle	-8353
▁Pruove	-8354
▁Puózze	-8355
▁Páteto	-8356
▁Saluta	-8357
▁Scinne	-8358
▁Scrive	-8359
▁Scrivo	-8360
▁Sicché	-8361
▁Spisso	-8362
▁Sponta	-8363
▁Stamme	-8364
▁Stammo	-8365
▁Sònano	-8366
▁Teneva	-8367
▁Tiempo	-8368
▁Truove	-8369
▁Varche	-8370
▁abbedè	-8371
▁abbóff	-8372
▁accisa	-8373
▁accise	-8374
▁addurà	-8375
▁addóra	-8376
▁aggarb	-8377
▁anella	-8378
▁appare	-8379
▁appise	-8380
▁arrica	-8381
▁asceva	-8382
▁attore	-8383
▁avimmo	-8384
▁bacche	-8385
▁bevuto	-8386
▁bianca	-8387
▁bianco	-8388
▁bionde	-8389
▁boglio	-8390
▁cacciá	-8391
▁cafone	-8392
▁cajola	-8393
▁cajole	-8394
▁campan	-8395
▁capèra	-8396
▁casino	-8397
▁cazune	-8398
▁cconta	-8399
Marí	-8400
Nterr	-8401
ncòre	-8402
▁fère	-8403
levame	-8404
mmèria	-8405
▁Amaro	-8406
▁Amico	-8407
▁Prufu	-8408
▁Vicin	-8409
▁Vócca	-8410
▁facéa	-8411
▁itali	-8412
▁madre	-8413
▁purzí	-8414
▁serví	-8415
▁ttoje	-8416
▁vengh	-8417
Ntuonno	-8418
abbusca	-8419
llanova	-8420
mmitato	-8421
ncuntrá	-8422
ntiémpo	-8423
▁Venite	-8424
▁avvici	-8425
▁ccorne	-8426
▁ccrede	-8427
▁cecate	-8428
▁chamma	-8429
▁chellu	-8430
▁chestu	-8431
▁chiagn	-8432
▁chiave	-8433
▁chiuso	-8434
▁chélla	-8435
▁ciance	-8436
▁coglie	-8437
▁compro	-8438
▁conqui	-8439
▁criato	-8440
▁cucche	-8441
▁cucina	-8442
▁cuorno	-8443
▁cusuto	-8444
▁càdeme	-8445
▁dedicà	-8446
▁diente	-8447
▁donare	-8448
▁dovere	-8449
▁dulure	-8450
▁dícere	-8451
▁esisto	-8452
▁fanciu	-8453
▁farena	-8454
▁fascia	-8455
▁fenite	-8456
▁ferito	-8457
▁ffasce	-8458
▁ffeste	-8459
▁ffieno	-8460
▁fiasco	-8461
▁filava	-8462
▁filoso	-8463
▁finire	-8464
▁foglie	-8465
▁forgia	-8466
▁fragne	-8467
▁franco	-8468
▁fricci	-8469
▁frutta	-8470
▁frónne	-8471
▁fujeno	-8472
▁gelata	-8473
▁gelato	-8474
▁giardi	-8475
▁giorna	-8476
▁giorni	-8477
▁grammi	-8478
▁guante	-8479
▁ingenu	-8480
▁intera	-8481
▁jenche	-8482
▁jévamo	-8483
▁lavare	-8484
▁lavoro	-8485
▁lengua	-8486
▁levano	-8487
▁libbro	-8488
▁liegge	-8489
▁llutto	-8490
▁luceva	-8491
▁lustre	-8492
▁maeste	-8493
▁maritò	-8494
▁meravi	-8495
▁miglie	-8496
▁mmamme	-8497
▁mmazze	-8498
▁movere	-8499
Rosa	-8500
falù	-8501
Bellu	-8502
Treno	-8503
epoca	-8504
mpésa	-8505
▁girl	-8506
▁joca	-8507
Italia	-8508
Napule	-8509
Otello	-8510
appezz	-8511
ccieso	-8512
darino	-8513
nciuce	-8514
▁Diece	-8515
▁fauzo	-8516
▁funge	-8517
▁genio	-8518
▁svilu	-8519
Oriente	-8520
arrènno	-8521
arápono	-8522
ossignu	-8523
putente	-8524
▁Cefalù	-8525
▁Chiaja	-8526
▁Suonne	-8527
▁adesso	-8528
▁ccumma	-8529
▁cinque	-8530
▁cujeto	-8531
▁ghiucà	-8532
▁labbra	-8533
▁muorte	-8534
▁màneca	-8535
▁ménate	-8536
▁mùseca	-8537
▁nebbia	-8538
▁nierve	-8539
▁nipote	-8540
▁nostra	-8541
▁nostro	-8542
▁nuvola	-8543
▁offrir	-8544
▁onesta	-8545
▁oppure	-8546
▁parono	-8547
▁pascià	-8548
▁pavune	-8549
▁pazzéa	-8550
▁peggia	-8551
▁petali	-8552
▁picchè	-8553
▁picciu	-8554
▁piezze	-8555
▁ppaure	-8556
▁ppenne	-8557
▁pperle	-8558
▁ppetro	-8559
▁prezzo	-8560
▁puntia	-8561
▁puorco	-8562
▁puorto	-8563
▁pupata	-8564
▁rarità	-8565
▁redeva	-8566
▁resata	-8567
▁resate	-8568
▁retiro	-8569
▁ridono	-8570
▁riscia	-8571
▁ristur	-8572
▁rrezze	-8573
▁réfola	-8574
▁sabato	-8575
▁salutá	-8576
▁sarría	-8577
▁sballa	-8578
▁scanno	-8579
▁scappo	-8580
▁scappá	-8581
▁scarde	-8582
▁scarfa	-8583
▁scarfe	-8584
▁scelto	-8585
▁sceppa	-8586
▁sceriá	-8587
▁sciabb	-8588
▁scialà	-8589
▁sciatà	-8590
▁scieme	-8591
▁scippa	-8592
▁scippà	-8593
▁screve	-8594
▁scumma	-8595
▁scumme	-8596
▁scunfi	-8597
▁scurnu	-8598
▁scénne	-8599
cquo	-8600
Mammá	-8601
▁Lusí	-8602
▁Nanà	-8603
▁cajó	-8604
▁drin	-8605
▁larì	-8606
▁nerv	-8607
▁ròse	-8608
addono	-8609
▁Ajére	-8610
▁Concé	-8611
▁contr	-8612
▁gulìo	-8613
▁pallò	-8614
▁scóso	-8615
▁smorf	-8616
aghette	-8617
aunimmo	-8618
infatte	-8619
zettara	-8620
▁Sciure	-8621
▁Vàsame	-8622
▁dentro	-8623
▁ditemi	-8624
▁hippie	-8625
▁lùcere	-8626
▁murive	-8627
▁pennéa	-8628
▁seculo	-8629
▁seggia	-8630
▁sferza	-8631
▁sfrine	-8632
▁sicure	-8633
▁signor	-8634
▁smánia	-8635
▁solita	-8636
▁sparto	-8637
▁spesso	-8638
▁spetta	-8639
▁spiava	-8640
▁spiegà	-8641
▁spillo	-8642
▁sponti	-8643
▁sporca	-8644
▁sporta	-8645
▁spurcá	-8646
▁spènno	-8647
▁squase	-8648
▁squaso	-8649
▁ssente	-8650
▁ssette	-8651
▁ssicco	-8652
▁stancà	-8653
▁stando	-8654
▁starrá	-8655
▁stuone	-8656
▁stènne	-8657
▁sudore	-8658
▁suonni	-8659
▁sídece	-8660
▁sósere	-8661
▁tacche	-8662
▁timore	-8663
▁tièlla	-8664
▁tramme	-8665
▁tratto	-8666
▁trattà	-8667
▁triate	-8668
▁triato	-8669
▁tristo	-8670
▁ttuppi	-8671
▁tòcche	-8672
▁vasame	-8673
▁vasata	-8674
▁vascia	-8675
▁vedere	-8676
▁vedeva	-8677
▁vedova	-8678
▁veduta	-8679
▁veneno	-8680
▁veneva	-8681
▁venite	-8682
▁vicolo	-8683
▁vipera	-8684
▁volete	-8685
▁voleva	-8686
▁vorrei	-8687
▁vorrìa	-8688
▁vorría	-8689
▁vostro	-8690
▁vranca	-8691
▁vulevo	-8692
▁vuoste	-8693
▁vvigne	-8694
▁vásame	-8695
▁vócche	-8696
Mpizzalo	-8697
Signorsì	-8698
Spatélla	-8699
▁Embé	-8700
avuote	-8701
tiritè	-8702
▁crapa	-8703
▁ruoto	-8704
▁sfogà	-8705
Guaglió	-8706
ferisce	-8707
fosfato	-8708
ncuorpo	-8709
uldezza	-8710
▁Accaré	-8711
▁Amelia	-8712
▁Bùvero	-8713
▁Eccomi	-8714
▁Listen	-8715
▁Patate	-8716
▁Pupatè	-8717
▁Siénte	-8718
▁Ttuppi	-8719
▁Tulèto	-8720
▁adatta	-8721
▁colori	-8722
▁eccent	-8723
▁fierro	-8724
▁illumi	-8725
▁perchè	-8726
▁pineta	-8727
▁realtá	-8728
▁tabarè	-8729
Turnarrà	-8730
Valenzia	-8731
abbrucia	-8732
accalora	-8733
acchiapp	-8734
acconcia	-8735
accuorge	-8736
amicizia	-8737
andivina	-8738
andiviná	-8739
aparelle	-8740
apprezza	-8741
arraggia	-8742
arrienne	-8743
arruobbe	-8744
arruvina	-8745
assicuro	-8746
attuorno	-8747
avvicine	-8748
caddossa	-8749
carielle	-8750
cchiarié	-8751
chelemmá	-8752
cundruse	-8753
enissimo	-8754
enturato	-8755
eroplano	-8756
fanielle	-8757
giuniera	-8758
gnurante	-8759
incontra	-8760
mmarèlle	-8761
mméscale	-8762
mpazzute	-8763
mpuntato	-8764
ncammino	-8765
ncantaje	-8766
ncantano	-8767
ncantáte	-8768
nchiante	-8769
ncignato	-8770
nfestino	-8771
nfiorano	-8772
ngannava	-8773
nguajato	-8774
nnammurá	-8775
ntennere	-8776
nteresse	-8777
ntreccia	-8778
ntussecà	-8779
orgoglio	-8780
oscuritá	-8781
pierchio	-8782
rácchete	-8783
ttajuola	-8784
ttulélla	-8785
turiello	-8786
ulignane	-8787
ulitario	-8788
unciélle	-8789
usciello	-8790
zzuletto	-8791
▁Arapíte	-8792
▁Asciste	-8793
▁Aspetto	-8794
▁Balcone	-8795
▁Cagnano	-8796
▁Capille	-8797
▁Cchiesa	-8798
▁Cummare	-8799
Margarì	-8800
Ollivud	-8801
effetto	-8802
Bonasera	-8803
▁Cuncett	-8804
▁Facenno	-8805
▁Giacché	-8806
▁Giorgio	-8807
▁Giusepe	-8808
▁Jámmola	-8809
▁Madonne	-8810
▁Mandulì	-8811
▁Marigli	-8812
▁Marisci	-8813
▁Maruzzè	-8814
▁Mistero	-8815
▁Miérolo	-8816
▁Nuttata	-8817
▁Parigge	-8818
▁Parroco	-8819
▁Pascale	-8820
▁Pentita	-8821
▁Piccola	-8822
▁Portame	-8823
▁Priesto	-8824
▁Pènzace	-8825
▁Píttace	-8826
▁Sapenno	-8827
▁Sapisse	-8828
▁Saverio	-8829
▁Sposano	-8830
▁Stavota	-8831
▁Suspiro	-8832
▁Sònnate	-8833
▁Tarantì	-8834
▁Tenimmo	-8835
▁Vatténn	-8836
▁Vedenno	-8837
▁Vedimmo	-8838
▁Vicaría	-8839
▁Vulanno	-8840
▁Vulesse	-8841
▁accattà	-8842
▁accorta	-8843
▁accosto	-8844
▁afferrá	-8845
▁alluccà	-8846
▁antiche	-8847
▁apierte	-8848
▁appunta	-8849
▁arracqu	-8850
▁arranca	-8851
▁ascette	-8852
▁ascètte	-8853
▁aspettá	-8854
▁attacca	-8855
▁avvizze	-8856
▁bacetto	-8857
▁bancone	-8858
▁bannera	-8859
▁bannèra	-8860
▁barcune	-8861
▁bastava	-8862
▁bisogno	-8863
▁buttune	-8864
▁cadette	-8865
▁cammera	-8866
▁campata	-8867
▁canario	-8868
▁canillo	-8869
▁cantata	-8870
▁cantavo	-8871
▁capimmo	-8872
▁capiste	-8873
▁carezze	-8874
▁cazette	-8875
▁celebre	-8876
▁cercano	-8877
▁cercàte	-8878
▁chiafeo	-8879
▁chiappa	-8880
▁chiappo	-8881
▁chiuove	-8882
▁ciéfare	-8883
▁ciévere	-8884
▁comiche	-8885
▁contano	-8886
▁continu	-8887
▁corredo	-8888
▁creduto	-8889
▁crideme	-8890
▁crìdeme	-8891
▁cuccáta	-8892
▁cucozze	-8893
▁cumannà	-8894
▁cumbinà	-8895
▁cumbiná	-8896
▁cumparé	-8897
▁cungedo	-8898
▁cuntato	-8899
▁cuntinu	-8900
▁cunusci	-8901
▁cunzumá	-8902
▁curarme	-8903
▁currevo	-8904
▁currite	-8905
▁cuttone	-8906
▁cuófano	-8907
▁cámmera	-8908
▁cámpano	-8909
▁cántano	-8910
▁dannato	-8911
▁ddicevo	-8912
▁decette	-8913
▁deserta	-8914
▁difetto	-8915
▁diritto	-8916
▁diventa	-8917
▁divertí	-8918
▁dormono	-8919
▁ducezza	-8920
▁dámmole	-8921
▁fermano	-8922
▁fernute	-8923
▁ffrisco	-8924
▁finanza	-8925
▁fingere	-8926
▁frische	-8927
▁fémmena	-8928
▁galante	-8929
▁gallina	-8930
▁gelosia	-8931
▁gelusía	-8932
▁gguardà	-8933
▁gguardá	-8934
▁ghiaste	-8935
▁ghiette	-8936
▁ghiènno	-8937
▁ghièsco	-8938
▁giuraje	-8939
▁giuvinu	-8940
▁giuvinò	-8941
▁glicero	-8942
▁guagliù	-8943
▁guderce	-8944
▁guverno	-8945
▁ingenuo	-8946
▁insieme	-8947
▁jèttero	-8948
▁lampara	-8949
▁lassavo	-8950
▁lazzari	-8951
▁leggere	-8952
▁licenza	-8953
▁lontano	-8954
▁làcreme	-8955
▁làssala	-8956
▁machine	-8957
▁mafiuso	-8958
▁magnato	-8959
▁manelle	-8960
▁mannata	-8961
▁mastera	-8962
▁memoria	-8963
▁mettita	-8964
▁mettuto	-8965
▁miniera	-8966
▁mmaglie	-8967
▁muzzecà	-8968
▁másculo	-8969
▁mózzeca	-8970
▁nanasse	-8971
▁nchiusa	-8972
▁negozio	-8973
▁nervuso	-8974
▁nummere	-8975
▁ottanta	-8976
▁paisana	-8977
▁palline	-8978
▁palomme	-8979
▁palpita	-8980
▁palummé	-8981
▁paranza	-8982
▁parlale	-8983
▁partite	-8984
▁passaje	-8985
▁passave	-8986
▁pavanno	-8987
▁pennata	-8988
▁pensate	-8989
▁penzato	-8990
▁penzavo	-8991
▁piaceva	-8992
▁piscatò	-8993
▁pistune	-8994
▁pittata	-8995
▁pittura	-8996
▁pizzeca	-8997
▁portaje	-8998
▁ppecore	-8999
▁ppuorte	-9000
▁pripara	-9001
▁prufume	-9002
▁pròvate	-9003
▁purtóse	-9004
▁párlame	-9005
▁pèrdono	-9006
▁píttace	-9007
▁pógnere	-9008
▁ragazza	-9009
▁ragiunà	-9010
▁redimmo	-9011
▁remessa	-9012
▁repassa	-9013
▁repassà	-9014
▁respire	-9015
▁restate	-9016
▁ricetta	-9017
▁ricorda	-9018
▁ricordi	-9019
▁ridotto	-9020
▁rifiutà	-9021
▁riserva	-9022
▁ritorno	-9023
▁riturná	-9024
▁rummanè	-9025
▁sacrile	-9026
▁salotto	-9027
▁sbaglie	-9028
▁sbagliá	-9029
▁scarpes	-9030
▁scavate	-9031
▁sceglie	-9032
▁sceglio	-9033
▁scetáta	-9034
▁scetáto	-9035
▁schiove	-9036
▁sciassa	-9037
▁scuorde	-9038
▁seccata	-9039
▁semmana	-9040
▁sentire	-9041
▁sentive	-9042
▁sentuto	-9043
▁servono	-9044
▁sfilano	-9045
▁sipario	-9046
▁smovere	-9047
▁sospirá	-9048
▁spitale	-9049
▁spusava	-9050
▁spáseme	-9051
▁spíreto	-9052
▁ssapite	-9053
▁ssapone	-9054
▁ssolito	-9055
▁starría	-9056
▁stienne	-9057
▁stiento	-9058
▁stimato	-9059
▁strette	-9060
▁stuorto	-9061
▁stupido	-9062
▁stévamo	-9063
▁stùtalo	-9064
▁suggitá	-9065
▁sulagno	-9066
▁suldate	-9067
▁sunammo	-9068
▁suonare	-9069
▁sònname	-9070
▁tarantà	-9071
▁tiénelo	-9072
▁tiéneme	-9073
▁tonight	-9074
▁tornata	-9075
▁tragico	-9076
▁treglia	-9077
▁treglie	-9078
▁trovano	-9079
▁turnave	-9080
▁uttanta	-9081
▁vasasse	-9082
▁vasaste	-9083
▁vecchio	-9084
▁vedisse	-9085
▁venarrà	-9086
▁vencere	-9087
▁venenno	-9088
▁vennenn	-9089
▁vennere	-9090
▁ventina	-9091
▁venturo	-9092
▁vernata	-9093
▁vestere	-9094
▁vintici	-9095
▁vintuno	-9096
▁viéneme	-9097
▁vongole	-9098
▁vucelle	-9099
▁vulanno	-9100
▁vulimme	-9101
▁vuliste	-9102
▁vvulite	-9103
▁vvócche	-9104
▁zingaré	-9105
▁zùccaro	-9106
Mannaggia	-9107
Ntiénneme	-9108
abbandune	-9109
accattaje	-9110
accedesse	-9111
acchiappá	-9112
adacquava	-9113
addeventa	-9114
addeventà	-9115
affattura	-9116
allicordo	-9117
alluntano	-9118
ambulanza	-9119
aspettato	-9120
aspettavo	-9121
attaccaje	-9122
ccummanna	-9123
cialmente	-9124
ddigliuso	-9125
entatéllo	-9126
incontrai	-9127
mbruoglie	-9128
mmuncénne	-9129
mpenziero	-9130
mperatore	-9131
ncampagna	-9132
ncatenavo	-9133
ncuntrate	-9134
nfantasia	-9135
nquantità	-9136
ntrasatto	-9137
orchestra	-9138
sperienza	-9139
ssacocchi	-9140
stagnèlle	-9141
ttuciento	-9142
ucelluzzo	-9143
untulella	-9144
usignuolo	-9145
voluzione	-9146
▁Apprimma	-9147
▁Astrigne	-9148
▁Attuorno	-9149
▁Bríggeta	-9150
▁Cantanno	-9151
▁Chitarre	-9152
▁Ciccillo	-9153
▁Dimméllo	-9154
▁Duchesca	-9155
▁Facitela	-9156
▁Frangesa	-9157
▁Frunnéll	-9158
▁Giuseppe	-9159
▁Napulitá	-9160
▁Ninuccia	-9161
▁Passione	-9162
▁Positano	-9163
▁Pízzeche	-9164
▁Quinnece	-9165
▁Rispunne	-9166
▁Sagliste	-9167
▁Scioscia	-9168
▁Screveva	-9169
▁Scànnalo	-9170
▁Spagnola	-9171
▁Sperduto	-9172
▁Tammorre	-9173
▁Tremmaje	-9174
▁Trèmmano	-9175
▁Turnammo	-9176
▁abbagliá	-9177
▁acchiapp	-9178
▁accompag	-9179
▁addereto	-9180
▁addorano	-9181
▁addunato	-9182
▁adduorme	-9183
▁addurava	-9184
▁affaccià	-9185
▁allegria	-9186
▁ammatura	-9187
▁andivina	-9188
▁andivinà	-9189
▁annascun	-9190
▁arracque	-9191
▁arrepusà	-9192
▁arrevuta	-9193
▁arrivata	-9194
▁arrivate	-9195
▁arruvinà	-9196
▁assicuro	-9197
▁astritte	-9198
▁avvelená	-9199
▁bbasette	-9200
▁benedice	-9201
▁brigadié	-9202
▁bugiarda	-9203
▁cagnanno	-9204
▁campagne	-9205
▁campasse	-9206
▁cannella	-9207
▁cantiere	-9208
▁capacità	-9209
▁capacitá	-9210
▁capitato	-9211
▁cappotto	-9212
▁caprette	-9213
▁capricce	-9214
▁cartella	-9215
▁cascante	-9216
▁ccredono	-9217
▁cervella	-9218
▁chiarore	-9219
▁chiovere	-9220
▁cogliere	-9221
▁comunale	-9222
▁contrabb	-9223
▁cravatta	-9224
▁criscevo	-9225
▁cummanná	-9226
▁cuntante	-9227
▁cuntrora	-9228
▁cunzerva	-9229
▁curresse	-9230
▁delicata	-9231
▁desidera	-9232
▁desiderá	-9233
▁diciarrà	-9234
▁diciteme	-9235
▁disturbá	-9236
▁estranee	-9237
▁facciamo	-9238
▁fantasma	-9239
▁fantasía	-9240
▁farranno	-9241
▁fatalità	-9242
▁faticave	-9243
▁fernenno	-9244
▁ffacimmo	-9245
▁ffrasche	-9246
▁figliata	-9247
▁funiculà	-9248
▁funiculí	-9249
▁garofano	-9250
▁ggranone	-9251
▁giuraste	-9252
▁graziosi	-9253
▁guadagna	-9254
▁guardaje	-9255
▁guàrdame	-9256
▁jastemma	-9257
▁lamiente	-9258
▁langella	-9259
▁languida	-9260
▁lasciare	-9261
▁liggette	-9262
▁liggiera	-9263
▁limunata	-9264
▁liupardo	-9265
▁lliquore	-9266
▁maccaròn	-9267
▁malvagia	-9268
▁mantengo	-9269
▁marisciá	-9270
▁massaria	-9271
▁mazziata	-9272
▁mericano	-9273
▁merletto	-9274
▁mettesse	-9275
▁minaccia	-9276
▁miéttete	-9277
▁mmùseche	-9278
▁mugliere	-9279
▁ndandera	-9280
▁nisciune	-9281
▁parrucca	-9282
▁partenno	-9283
▁partenza	-9284
▁partiste	-9285
▁passarrá	-9286
▁pazzaría	-9287
▁pensiero	-9288
▁penzarrá	-9289
▁percuoco	-9290
▁perdesse	-9291
▁permette	-9292
▁piattino	-9293
▁pigliano	-9294
▁pigliata	-9295
▁pigliava	-9296
▁piénnule	-9297
▁pputimmo	-9298
▁prejezza	-9299
▁premmóne	-9300
▁presentá	-9301
▁presepio	-9302
▁prestata	-9303
▁prigione	-9304
▁prijezza	-9305
▁prommiso	-9306
▁proteggo	-9307
▁prugette	-9308
▁prutegge	-9309
▁purtasse	-9310
▁purtiere	-9311
▁pustegge	-9312
▁quartino	-9313
▁quinnece	-9314
▁quistura	-9315
▁raggione	-9316
▁raggiunà	-9317
▁rassignà	-9318
▁remmedio	-9319
▁restammo	-9320
▁rimbambì	-9321
▁riscaldá	-9322
▁rispetto	-9323
▁risponno	-9324
▁saciccia	-9325
▁sapevano	-9326
▁scaletta	-9327
▁scarfare	-9328
▁scarparo	-9329
▁scennere	-9330
▁sceppato	-9331
▁schiattá	-9332
▁schiuppà	-9333
▁sciacque	-9334
▁sciagura	-9335
▁sciuscià	-9336
▁scrupolo	-9337
▁scuperta	-9338
▁scurdate	-9339
▁scánzate	-9340
▁scíppala	-9341
▁serpente	-9342
▁servesse	-9343
▁sfreggio	-9344
▁sfrenato	-9345
▁sienteme	-9346
▁sombrero	-9347
▁spagnola	-9348
▁spanteca	-9349
▁spantecà	-9350
▁spassano	-9351
▁spatella	-9352
▁spiegate	-9353
▁sprùceta	-9354
▁spuntaje	-9355
▁spuntata	-9356
▁spènnono	-9357
▁squisito	-9358
▁stampata	-9359
▁stazione	-9360
▁stracque	-9361
▁stracquo	-9362
▁stramana	-9363
▁stramano	-9364
▁stravedè	-9365
▁stènnono	-9366
▁succieso	-9367
▁suppurtá	-9368
▁tammurro	-9369
▁tardammo	-9370
▁tornarrà	-9371
▁trattene	-9372
▁tremmaje	-9373
▁tremmate	-9374
▁tremmava	-9375
▁truccata	-9376
▁truvaste	-9377
▁tturreno	-9378
▁turmento	-9379
▁turmentà	-9380
▁turmentá	-9381
▁turnammo	-9382
▁turnasse	-9383
▁tuzzuléa	-9384
▁tácchete	-9385
▁tícchete	-9386
▁uttombre	-9387
▁vattenne	-9388
▁vennenno	-9389
▁ventitré	-9390
▁verrizze	-9391
▁vrasiere	-9392
▁vvetrine	-9393
▁vvulesse	-9394
▁zampogne	-9395
▁zompafuo	-9396
Scapriccia	-9397
Università	-9398
addimmanno	-9399
addurmette	-9400
adduóbbeco	-9401
affacciano	-9402
affacciate	-9403
appartiene	-9404
appicciano	-9405
arrevotaje	-9406
arrubbaste	-9407
mpressione	-9408
nfrattanto	-9409
nnammorata	-9410
nnammorato	-9411
ntenneruta	-9412
ntussecato	-9413
ntussecosa	-9414
▁Beneditto	-9415
▁Bongiorno	-9416
▁Camaldule	-9417
▁Chiagneva	-9418
▁Desiderio	-9419
▁Ffrancese	-9420
▁Francisco	-9421
▁Furtunato	-9422
▁Guaglione	-9423
▁Guardanno	-9424
▁Lusíngame	-9425
▁Monticchi	-9426
▁Pataterno	-9427
▁Pignataro	-9428
▁Pusìlleco	-9429
▁Quartiere	-9430
▁Quartieri	-9431
▁Reginella	-9432
▁Sarracino	-9433
▁Scetáteve	-9434
▁Suspìrame	-9435
▁Tiritomba	-9436
▁Villanova	-9437
▁abballate	-9438
▁abbracciá	-9439
▁abbóffano	-9440
▁accumparé	-9441
▁acquajola	-9442
▁alluccava	-9443
▁allummata	-9444
▁allummato	-9445
▁amariggia	-9446
▁americane	-9447
▁annammurà	-9448
▁apparentá	-9449
▁appennere	-9450
▁appiccecá	-9451
▁arredutto	-9452
▁arrubbate	-9453
▁aspettato	-9454
▁assettata	-9455
▁azzeccuso	-9456
▁bacchetta	-9457
▁beneditto	-9458
▁bonanotte	-9459
▁bongiorno	-9460
▁butteglia	-9461
▁cameriere	-9462
▁camicetta	-9463
▁cammenata	-9464
▁cammenava	-9465
▁camminano	-9466
▁canciello	-9467
▁cantajeno	-9468
▁cantatóra	-9469
▁cantavano	-9470
▁carattere	-9471
▁carissimo	-9472
▁ccacciate	-9473
▁ccriature	-9474
▁centrella	-9475
▁chiammate	-9476
▁chiàmmano	-9477
▁chiámmano	-9478
▁cianciuso	-9479
▁coniugale	-9480
▁criscenno	-9481
▁crisciuta	-9482
▁cummòvere	-9483
▁cuppulone	-9484
▁curallino	-9485
▁cuscritto	-9486
▁dicessero	-9487
▁dicettero	-9488
▁direttore	-9489
▁dispiette	-9490
▁disprezzo	-9491
▁elettrica	-9492
▁faciarrìa	-9493
▁fenucchio	-9494
▁festeggià	-9495
▁figurella	-9496
▁frennesía	-9497
▁gguardate	-9498
▁gguardavo	-9499
▁gialliate	-9500
▁guapparie	-9501
▁guardarte	-9502
▁guardaste	-9503
▁lavannara	-9504
▁magazzino	-9505
▁malaspina	-9506
▁malvarosa	-9507
▁martielle	-9508
▁mastrillo	-9509
▁mmatenate	-9510
▁muccaturo	-9511
▁munacella	-9512
▁murtifica	-9513
▁muzzecato	-9514
▁nustalgia	-9515
▁nustalgía	-9516
▁pazzianno	-9517
▁peccature	-9518
▁perdunate	-9519
▁picciotta	-9520
▁pigliammo	-9521
▁piglianno	-9522
▁pigliasse	-9523
▁pigliaste	-9524
▁piscature	-9525
▁pizzajola	-9526
▁ppetrolio	-9527
▁pprumetto	-9528
▁ppultrone	-9529
▁preghiera	-9530
▁prumiette	-9531
▁pucurillo	-9532
▁puparuole	-9533
▁puverella	-9534
▁quartetto	-9535
▁resistere	-9536
▁resuscitá	-9537
▁revolvere	-9538
▁ricurdato	-9539
▁rifiutaje	-9540
▁rimanette	-9541
▁ritirasse	-9542
▁sagliesse	-9543
▁sagliette	-9544
▁sagliètte	-9545
▁sanguegno	-9546
▁sbattenno	-9547
▁sbrennóre	-9548
▁scarzeano	-9549
▁scennènno	-9550
▁scetajeno	-9551
▁schiavone	-9552
▁sciantosa	-9553
▁sciarappo	-9554
▁scrivarrà	-9555
▁scugliera	-9556
▁scugnizzo	-9557
▁scuntenta	-9558
▁scuntrosa	-9559
▁scurdanno	-9560
▁secozzune	-9561
▁settimana	-9562
▁sfrunnate	-9563
▁sfrunnato	-9564
▁sfrónnano	-9565
▁simpatica	-9566
▁sincerità	-9567
▁solamente	-9568
▁sottovoce	-9569
▁spaghette	-9570
▁spagnuolo	-9571
▁sperdimmo	-9572
▁spergiura	-9573
▁splendore	-9574
▁stregnere	-9575
▁strignute	-9576
▁strillare	-9577
▁strujenno	-9578
▁strìgnete	-9579
▁stríngano	-9580
▁suffrenno	-9581
▁suspirava	-9582
▁suspirosa	-9583
▁tagliasse	-9584
▁tentatore	-9585
▁trascurzo	-9586
▁trummetta	-9587
▁ttempeste	-9588
▁tuttecosa	-9589
▁vasciello	-9590
▁vasánnome	-9591
▁vedèttero	-9592
▁veramente	-9593
▁vigliacca	-9594
▁vucchelle	-9595
▁vulessero	-9596
▁zzampogne	-9597
▁zùchetezù	-9598
abbandunaje	-9599
accarezzava	-9600
annammuravo	-9601
cchiariello	-9602
ssuliatella	-9603
▁Adduormete	-9604
▁Bammenella	-9605
▁Caracciolo	-9606
▁Chitarella	-9607
▁Funtanella	-9608
▁Furastiero	-9609
▁Lassámmoce	-9610
▁Lucianella	-9611
▁Malincunia	-9612
▁Mariannina	-9613
▁Michelemmá	-9614
▁Nanninella	-9615
▁Napulitane	-9616
▁Ppaparelle	-9617
▁Spusàmmoce	-9618
▁Stammatina	-9619
▁Surrentina	-9620
▁Tramuntano	-9621
▁abbagliato	-9622
▁abballammo	-9623
▁abballanno	-9624
▁abbruciano	-9625
▁accumpagnà	-9626
▁accumpagná	-9627
▁addimmanna	-9628
▁affacciate	-9629
▁affácciate	-9630
▁ajeressera	-9631
▁amalfitana	-9632
▁arrassusìa	-9633
▁assumiglia	-9634
▁astrigneme	-9635
▁avvelenato	-9636
▁bbraccelle	-9637
▁brigatiere	-9638
▁cacciatore	-9639
▁campanella	-9640
▁cannelotto	-9641
▁canuscette	-9642
▁carceriere	-9643
▁catenaccio	-9644
▁ceceniello	-9645
▁concertino	-9646
▁cummarelle	-9647
▁cuntignose	-9648
▁cuppulella	-9649
▁curzettara	-9650
▁ddenócchie	-9651
▁dispiacere	-9652
▁elementare	-9653
▁fazzuletto	-9654
▁finalmente	-9655
▁ghiénchere	-9656
▁giuramento	-9657
▁giuvinotte	-9658
▁guarracino	-9659
▁luntananza	-9660
▁madunnella	-9661
▁mettimmoce	-9662
▁misteriuse	-9663
▁muzzarella	-9664
▁ndrànghete	-9665
▁nfrìnghete	-9666
▁nfrùnghete	-9667
▁nunnarella	-9668
▁pazzarella	-9669
▁pentimento	-9670
▁	-9671
a	-9672
e	-9673
o	-9674
n	-9675
t	-9676
c	-9677
'	-9678
i	-9679
s	-9680
m	-9681
r	-9682
u	-9683
l	-9684
,	-9685
p	-9686
d	-9687
v	-9688
h	-9689
g	-9690
f	-9691
z	-9692
b	-9693
è	-9694
à	-9695
j	-9696
á	-9697
"	-9698
C	-9699
M	-9700
S	-9701
E	-9702
?	-9703
é	-9704
N	-9705
ù	-9706
q	-9707
T	-9708
P	-9709
ì	-9710
A	-9711
ó	-9712
í	-9713
:	-9714
ò	-9715
V	-9716
ê	-9717
î	-9718
ô	-9719
â	-9720
O	-9721
D	-9722
I	-9723
L	-9724
F	-9725
!	-9726
Q	-9727
.	-9728
G	-9729
R	-9730
B	-9731
1	-9732
–	-9733
U	-9734
-	-9735
2	-9736
‘	-9737
Z	-9738
’	-9739
J	-9740
