<0x00>	0
<s>	0
</s>	0
<unk>	0
<0x01>	0
<0x02>	0
<0x03>	0
<0x04>	0
<0x05>	0
<0x06>	0
<0x07>	0
<0x08>	0
<0x09>	0
<0x0A>	0
<0x0B>	0
<0x0C>	0
<0x0D>	0
<0x0E>	0
<0x0F>	0
<0x10>	0
<0x11>	0
<0x12>	0
<0x13>	0
<0x14>	0
<0x15>	0
<0x16>	0
<0x17>	0
<0x18>	0
<0x19>	0
<0x1A>	0
<0x1B>	0
<0x1C>	0
<0x1D>	0
<0x1E>	0
<0x1F>	0
<0x20>	0
<0x21>	0
<0x22>	0
<0x23>	0
<0x24>	0
<0x25>	0
<0x26>	0
<0x27>	0
<0x28>	0
<0x29>	0
<0x2A>	0
<0x2B>	0
<0x2C>	0
<0x2D>	0
<0x2E>	0
<0x2F>	0
<0x30>	0
<0x31>	0
<0x32>	0
<0x33>	0
<0x34>	0
<0x35>	0
<0x36>	0
<0x37>	0
<0x38>	0
<0x39>	0
<0x3A>	0
<0x3B>	0
<0x3C>	0
<0x3D>	0
<0x3E>	0
<0x3F>	0
<0x40>	0
<0x41>	0
<0x42>	0
<0x43>	0
<0x44>	0
<0x45>	0
<0x46>	0
<0x47>	0
<0x48>	0
<0x49>	0
<0x4A>	0
<0x4B>	0
<0x4C>	0
<0x4D>	0
<0x4E>	0
<0x4F>	0
<0x50>	0
<0x51>	0
<0x52>	0
<0x53>	0
<0x54>	0
<0x55>	0
<0x56>	0
<0x57>	0
<0x58>	0
<0x59>	0
<0x5A>	0
<0x5B>	0
<0x5C>	0
<0x5D>	0
<0x5E>	0
<0x5F>	0
<0x60>	0
<0x61>	0
<0x62>	0
<0x63>	0
<0x64>	0
<0x65>	0
<0x66>	0
<0x67>	0
<0x68>	0
<0x69>	0
<0x6A>	0
<0x6B>	0
<0x6C>	0
<0x6D>	0
<0x6E>	0
<0x6F>	0
<0x70>	0
<0x71>	0
<0x72>	0
<0x73>	0
<0x74>	0
<0x75>	0
<0x76>	0
<0x77>	0
<0x78>	0
<0x79>	0
<0x7A>	0
<0x7B>	0
<0x7C>	0
<0x7D>	0
<0x7E>	0
<0x7F>	0
<0x80>	0
<0x81>	0
<0x82>	0
<0x83>	0
<0x84>	0
<0x85>	0
<0x86>	0
<0x87>	0
<0x88>	0
<0x89>	0
<0x8A>	0
<0x8B>	0
<0x8C>	0
<0x8D>	0
<0x8E>	0
<0x8F>	0
<0x90>	0
<0x91>	0
<0x92>	0
<0x93>	0
<0x94>	0
<0x95>	0
<0x96>	0
<0x97>	0
<0x98>	0
<0x99>	0
<0x9A>	0
<0x9B>	0
<0x9C>	0
<0x9D>	0
<0x9E>	0
<0x9F>	0
<0xA0>	0
<0xA1>	0
<0xA2>	0
<0xA3>	0
<0xA4>	0
<0xA5>	0
<0xA6>	0
<0xA7>	0
<0xA8>	0
<0xA9>	0
<0xAA>	0
<0xAB>	0
<0xAC>	0
<0xAD>	0
<0xAE>	0
<0xAF>	0
<0xB0>	0
<0xB1>	0
<0xB2>	0
<0xB3>	0
<0xB4>	0
<0xB5>	0
<0xB6>	0
<0xB7>	0
<0xB8>	0
<0xB9>	0
<0xBA>	0
<0xBB>	0
<0xBC>	0
<0xBD>	0
<0xBE>	0
<0xBF>	0
<0xC0>	0
<0xC1>	0
<0xC2>	0
<0xC3>	0
<0xC4>	0
<0xC5>	0
<0xC6>	0
<0xC7>	0
<0xC8>	0
<0xC9>	0
<0xCA>	0
<0xCB>	0
<0xCC>	0
<0xCD>	0
<0xCE>	0
<0xCF>	0
<0xD0>	0
<0xD1>	0
<0xD2>	0
<0xD3>	0
<0xD4>	0
<0xD5>	0
<0xD6>	0
<0xD7>	0
<0xD8>	0
<0xD9>	0
<0xDA>	0
<0xDB>	0
<0xDC>	0
<0xDD>	0
<0xDE>	0
<0xDF>	0
<0xE0>	0
<0xE1>	0
<0xE2>	0
<0xE3>	0
<0xE4>	0
<0xE5>	0
<0xE6>	0
<0xE7>	0
<0xE8>	0
<0xE9>	0
<0xEA>	0
<0xEB>	0
<0xEC>	0
<0xED>	0
<0xEE>	0
<0xEF>	0
<0xF0>	0
<0xF1>	0
<0xF2>	0
<0xF3>	0
<0xF4>	0
<0xF5>	0
<0xF6>	0
<0xF7>	0
<0xF8>	0
<0xF9>	0
<0xFA>	0
<0xFB>	0
<0xFC>	0
<0xFD>	0
<0xFE>	0
<0xFF>	0
▁c	-0
▁s	-1
re	-2
▁p	-3
▁d	-4
on	-5
▁m	-6
an	-7
▁l	-8
to	-9
ta	-10
te	-11
▁a	-12
er	-13
▁i	-14
en	-15
▁v	-16
ti	-17
▁n	-18
ia	-19
na	-20
ll	-21
ra	-22
es	-23
▁f	-24
▁ch	-25
▁di	-26
qu	-27
▁e	-28
ol	-29
▁qu	-30
▁u	-31
▁b	-32
ri	-33
▁che	-34
▁t	-35
▁la	-36
io	-37
ar	-38
cc	-39
os	-40
▁ques	-41
▁per	-42
ell	-43
▁non	-44
no	-45
▁mi	-46
are	-47
▁se	-48
ore	-49
▁g	-50
▁il	-51
or	-52
▁in	-53
▁tu	-54
do	-55
▁pi	-56
▁un	-57
am	-58
om	-59
▁è	-60
gl	-61
el	-62
▁C	-63
▁S	-64
▁E	-65
ro	-66
▁M	-67
ono	-68
▁te	-69
▁una	-70
al	-71
tto	-72
▁fa	-73
▁con	-74
ci	-75
▁ti	-76
▁le	-77
▁si	-78
ch	-79
ce	-80
▁me	-81
as	-82
▁o	-83
▁h	-84
▁vi	-85
ella	-86
ap	-87
▁ma	-88
ma	-89
ve	-90
ano	-91
mi	-92
▁N	-93
zz	-94
▁"	-95
▁più	-96
de	-97
oi	-98
di	-99
▁P	-100
▁ci	-101
▁questo	-102
ando	-103
▁cu	-104
ole	-105
▁T	-106
▁sono	-107
▁com	-108
co	-109
si	-110
▁da	-111
mo	-112
ente	-113
▁ri	-114
▁can	-115
ni	-116
▁an	-117
▁sp	-118
va	-119
tta	-120
ogl	-121
▁questa	-122
oli	-123
▁cuore	-124
tte	-125
era	-126
Qu	-127
ene	-128
▁chi	-129
lla	-130
mp	-131
da	-132
▁io	-133
tti	-134
enti	-135
▁lo	-136
▁Qu	-137
▁ha	-138
cch	-139
▁A	-140
▁de	-141
▁I	-142
▁vu	-143
so	-144
▁Ma	-145
▁so	-146
sa	-147
ca	-148
▁cos	-149
▁L	-150
cia	-151
li	-152
▁sei	-153
▁come	-154
▁su	-155
vo	-156
▁sta	-157
one	-158
tor	-159
▁ba	-160
ere	-161
▁vogl	-162
vi	-163
▁ve	-164
ento	-165
▁sol	-166
▁ne	-167
tra	-168
lle	-169
▁al	-170
za	-171
▁D	-172
▁fi	-173
more	-174
▁bene	-175
▁mia	-176
▁sc	-177
▁pu	-178
▁mare	-179
▁pa	-180
▁lu	-181
▁V	-182
▁ra	-183
ero	-184
che	-185
cchi	-186
▁par	-187
▁Nap	-188
anto	-189
ccia	-190
chè	-191
▁Ch	-192
▁no	-193
ne	-194
pp	-195
▁voglio	-196
▁Se	-197
▁fare	-198
▁do	-199
gg	-200
▁gu	-201
ello	-202
se	-203
amore	-204
▁bella	-205
▁pas	-206
▁tor	-207
ga	-208
bb	-209
▁pen	-210
▁ho	-211
▁tra	-212
ai	-213
▁Tu	-214
▁quando	-215
▁r	-216
tà	-217
▁O	-218
▁Napoli	-219
▁man	-220
▁pre	-221
gna	-222
tare	-223
ff	-224
eri	-225
elo	-226
iamo	-227
▁far	-228
gno	-229
▁mio	-230
▁U	-231
tro	-232
▁ca	-233
▁gio	-234
▁Per	-235
le	-236
elle	-237
▁st	-238
▁ora	-239
cca	-240
zza	-241
▁amore	-242
pi	-243
▁Io	-244
gli	-245
▁re	-246
anno	-247
▁Ques	-248
▁vol	-249
▁po	-250
enza	-251
▁perchè	-252
ang	-253
ante	-254
▁Non	-255
▁vuole	-256
glia	-257
▁semp	-258
▁F	-259
uo	-260
osa	-261
▁gli	-262
me	-263
▁las	-264
sp	-265
dere	-266
anti	-267
amma	-268
▁por	-269
▁gi	-270
▁sempre	-271
aria	-272
▁vuoi	-273
▁occhi	-274
▁cap	-275
▁cosa	-276
▁ar	-277
▁hai	-278
in	-279
▁cam	-280
▁queste	-281
ona	-282
▁senti	-283
la	-284
▁va	-285
ola	-286
orre	-287
po	-288
▁G	-289
▁ste	-290
▁luna	-291
▁questi	-292
mb	-293
▁guar	-294
ont	-295
▁pro	-296
gi	-297
tu	-298
▁senza	-299
ale	-300
▁bo	-301
ani	-302
olo	-303
anta	-304
ccio	-305
▁ad	-306
▁raga	-307
▁solo	-308
llo	-309
▁tro	-310
▁canz	-311
▁mamma	-312
▁dice	-313
▁li	-314
▁può	-315
eni	-316
oni	-317
▁qua	-318
▁anche	-319
▁lascia	-320
▁nel	-321
▁Che	-322
gni	-323
zzo	-324
elli	-325
ue	-326
▁pe	-327
▁bu	-328
▁Mi	-329
▁tre	-330
▁piang	-331
▁del	-332
menti	-333
▁dove	-334
▁B	-335
▁dol	-336
▁sole	-337
ie	-338
iente	-339
pa	-340
tar	-341
▁cielo	-342
bi	-343
▁dire	-344
▁R	-345
▁poi	-346
▁chia	-347
▁vo	-348
▁pri	-349
▁devo	-350
▁ros	-351
▁niente	-352
▁cas	-353
▁fatto	-354
▁vita	-355
ru	-356
ent	-357
onna	-358
▁della	-359
ese	-360
▁pos	-361
▁La	-362
▁torna	-363
▁così	-364
ela	-365
lli	-366
▁Ti	-367
etta	-368
oro	-369
▁tutte	-370
ome	-371
ba	-372
rire	-373
▁Car	-374
▁bra	-375
eli	-376
▁mo	-377
▁due	-378
▁mai	-379
▁tutti	-380
ess	-381
glio	-382
ospi	-383
▁sal	-384
rina	-385
▁Di	-386
▁Ora	-387
▁tutto	-388
lo	-389
uto	-390
▁sera	-391
zzi	-392
▁bocca	-393
ana	-394
▁col	-395
der	-396
▁alla	-397
▁canta	-398
▁sospi	-399
▁gior	-400
▁lont	-401
▁tanto	-402
un	-403
▁stra	-404
▁Maria	-405
▁z	-406
▁Il	-407
esti	-408
rare	-409
▁sap	-410
enta	-411
▁fai	-412
▁dolce	-413
vere	-414
▁sotto	-415
▁mu	-416
▁cre	-417
▁tutta	-418
▁Quando	-419
▁car	-420
▁sa	-421
go	-422
sta	-423
▁div	-424
▁dimenti	-425
ondo	-426
cino	-427
▁Chi	-428
▁sve	-429
▁porta	-430
▁quella	-431
▁am	-432
▁arri	-433
▁bacia	-434
▁app	-435
▁gente	-436
▁notte	-437
cci	-438
▁for	-439
▁canzone	-440
▁Con	-441
endo	-442
▁abb	-443
▁mal	-444
▁capi	-445
sti	-446
ggio	-447
ena	-448
ten	-449
uno	-450
▁av	-451
▁Una	-452
▁dor	-453
▁feli	-454
▁pren	-455
▁volta	-456
▁acc	-457
▁inna	-458
gn	-459
gia	-460
dare	-461
▁cer	-462
▁passa	-463
▁H	-464
▁Si	-465
▁già	-466
▁casa	-467
▁cantare	-468
▁Un	-469
▁alle	-470
esta	-471
mbra	-472
▁ven	-473
▁temp	-474
▁voce	-475
mente	-476
▁Questo	-477
pri	-478
▁bi	-479
cora	-480
▁parl	-481
cio	-482
▁innamo	-483
▁Vi	-484
▁fre	-485
▁Ah	-486
mela	-487
▁Come	-488
▁pensi	-489
▁Le	-490
▁fuo	-491
▁prof	-492
▁–	-493
cri	-494
osi	-495
care	-496
▁puoi	-497
▁ancora	-498
ete	-499
▁Ci	-500
esso	-501
▁sto	-502
mento	-503
esi	-504
▁baci	-505
▁dico	-506
tri	-507
zze	-508
▁donna	-509
?"	-510
▁co	-511
▁add	-512
▁bello	-513
▁Questa	-514
con	-515
sci	-516
▁prima	-517
ran	-518
sto	-519
▁sai	-520
▁rose	-521
▁stelle	-522
▁An	-523
tano	-524
▁Amore	-525
▁sveglia	-526
chi	-527
▁Sono	-528
▁quello	-529
▁sembra	-530
▁sere	-531
▁spos	-532
▁faccio	-533
▁lontano	-534
ste	-535
▁all	-536
▁imp	-537
▁braccia	-538
ul	-539
sie	-540
anza	-541
▁fio	-542
▁detto	-543
▁giorno	-544
eno	-545
altra	-546
▁belle	-547
ss	-548
ron	-549
ura	-550
▁to	-551
orrei	-552
▁deve	-553
▁ness	-554
▁innamora	-555
▁mani	-556
▁mano	-557
▁tempo	-558
▁faccia	-559
▁morire	-560
▁In	-561
anna	-562
▁asp	-563
▁ter	-564
▁altro	-565
▁quest	-566
cor	-567
▁passi	-568
▁profu	-569
▁sapere	-570
fi	-571
▁aff	-572
▁lacri	-573
▁signo	-574
ché	-575
doli	-576
▁voi	-577
▁mezzo	-578
▁strada	-579
mm	-580
mmi	-581
oglie	-582
▁vedere	-583
▁Carmela	-584
dre	-585
▁là	-586
▁ta	-587
vano	-588
▁bar	-589
sieme	-590
▁male	-591
▁ogni	-592
▁fanno	-593
uta	-594
▁scu	-595
▁tri	-596
ttina	-597
▁na	-598
ammi	-599
▁dal	-600
▁dav	-601
▁mor	-602
▁via	-603
▁risp	-604
▁delle	-605
▁piano	-606
alc	-607
onde	-608
▁uno	-609
▁ragazza	-610
sc	-611
▁cal	-612
▁inf	-613
▁vedo	-614
▁insieme	-615
ane	-616
tre	-617
▁fin	-618
▁muo	-619
▁marina	-620
▁tuo	-621
▁nella	-622
▁stare	-623
▁Perchè	-624
▁nas	-625
diamo	-626
▁dormi	-627
▁mondo	-628
▁sogno	-629
▁vicino	-630
tore	-631
▁tua	-632
entre	-633
▁soff	-634
▁paese	-635
▁petto	-636
▁arriva	-637
cqu	-638
▁dare	-639
▁sento	-640
▁chitar	-641
▁guarda	-642
▁dom	-643
▁gia	-644
tanto	-645
▁lacrime	-646
nto	-647
vare	-648
▁sposa	-649
len	-650
ssi	-651
etto	-652
tuna	-653
▁ave	-654
▁spe	-655
▁ricor	-656
ng	-657
zi	-658
▁ce	-659
▁ami	-660
▁sar	-661
▁ver	-662
▁scri	-663
▁posso	-664
▁terra	-665
▁viene	-666
▁vivere	-667
and	-668
zio	-669
sera	-670
▁inc	-671
▁vai	-672
▁nessuno	-673
▁Lu	-674
▁ah	-675
ggia	-676
vera	-677
▁mie	-678
▁picc	-679
▁vento	-680
▁vorrei	-681
sse	-682
▁sì	-683
colo	-684
▁anda	-685
▁devi	-686
▁pace	-687
▁alleg	-688
▁chiama	-689
chia	-690
▁rim	-691
▁allo	-692
▁comp	-693
▁pass	-694
▁pensa	-695
▁canzoni	-696
▁piangere	-697
omo	-698
ria	-699
▁Ca	-700
▁Ho	-701
olina	-702
▁sogna	-703
▁mandoli	-704
▁passione	-705
▁Pi	-706
▁bru	-707
▁noi	-708
▁sul	-709
nella	-710
▁parlare	-711
ora	-712
orta	-713
cchia	-714
▁addor	-715
▁sentire	-716
ggi	-717
▁rosa	-718
▁sola	-719
▁mentre	-720
▁soltanto	-721
ttà	-722
▁No	-723
▁fini	-724
▁Sta	-725
▁son	-726
▁città	-727
ami	-728
amo	-729
aro	-730
rti	-731
▁fu	-732
cqua	-733
▁pia	-734
▁sba	-735
▁spa	-736
▁Posi	-737
▁felice	-738
arg	-739
bbe	-740
omb	-741
▁fe	-742
cità	-743
erti	-744
nata	-745
▁dimenticare	-746
sce	-747
uar	-748
llipo	-749
▁stai	-750
▁vuol	-751
▁abbra	-752
▁soldi	-753
▁domani	-754
▁perché	-755
▁lasciare	-756
ssà	-757
▁sf	-758
ambi	-759
temi	-760
vero	-761
▁fer	-762
tando	-763
▁disp	-764
▁qual	-765
▁vero	-766
▁tornare	-767
▁Posillipo	-768
bia	-769
cco	-770
arti	-771
▁ser	-772
▁ten	-773
▁balc	-774
rà	-775
sca	-776
▁dei	-777
▁desi	-778
▁perd	-779
▁fines	-780
▁muore	-781
▁nelle	-782
nc	-783
▁Mad	-784
▁cor	-785
▁dici	-786
▁dopo	-787
▁bacio	-788
▁vieni	-789
▁davanti	-790
▁mattina	-791
ho	-792
nare	-793
olto	-794
▁Sei	-795
▁die	-796
menta	-797
▁pens	-798
▁vedi	-799
estate	-800
▁fuori	-801
▁muoio	-802
▁suona	-803
▁vicolo	-804
▁profuma	-805
ppo	-806
rdi	-807
▁Su	-808
unta	-809
▁pes	-810
danza	-811
▁vede	-812
▁barca	-813
▁fuoco	-814
▁penso	-815
▁sulla	-816
▁allora	-817
▁piange	-818
zia	-819
ende	-820
▁bas	-821
ronte	-822
▁cose	-823
▁belli	-824
▁trova	-825
▁conten	-826
▁giardi	-827
▁propri	-828
cce	-829
mon	-830
cche	-831
gare	-832
▁Poi	-833
▁ama	-834
▁era	-835
pagna	-836
tella	-837
torno	-838
▁chiu	-839
▁stri	-840
▁suon	-841
anotte	-842
▁cammi	-843
▁canti	-844
▁conos	-845
▁fiori	-846
▁guard	-847
▁volte	-848
▁aspetta	-849
▁proprio	-850
ver	-851
▁Me	-852
▁ai	-853
▁don	-854
▁dalla	-855
▁madre	-856
▁quanto	-857
▁stasera	-858
▁lasciato	-859
▁.	-860
ata	-861
▁dà	-862
iono	-863
mare	-864
radi	-865
▁Mer	-866
▁bri	-867
▁gel	-868
▁spi	-869
oglio	-870
▁anni	-871
▁Sorre	-872
▁farmi	-873
▁parla	-874
▁sonno	-875
▁vesti	-876
▁cambia	-877
▁foglie	-878
▁fronte	-879
▁quante	-880
▁balcone	-881
▁abbraccia	-882
anco	-883
bbia	-884
▁Pas	-885
accia	-886
▁gran	-887
▁poss	-888
▁racc	-889
▁sarà	-890
▁sinc	-891
▁vole	-892
▁dimmi	-893
▁mille	-894
▁parole	-895
▁fidanza	-896
▁chitarra	-897
lu	-898
dio	-899
▁ru	-900
olta	-901
▁ing	-902
▁pie	-903
erità	-904
▁sper	-905
▁stes	-906
estino	-907
▁sente	-908
▁diventa	-909
▁Sorrento	-910
▁Da	-911
▁fra	-912
▁Cate	-913
▁musi	-914
▁onde	-915
▁Bella	-916
▁hanno	-917
▁maggio	-918
▁triste	-919
ha	-920
uv	-921
omi	-922
anni	-923
▁Lei	-924
▁cons	-925
ellina	-926
▁bugia	-927
▁molto	-928
▁primo	-929
▁ritor	-930
▁dietro	-931
▁dormire	-932
▁intorno	-933
▁felicità	-934
ur	-935
ame	-936
per	-937
▁Do	-938
▁Pa	-939
▁es	-940
cina	-941
▁ban	-942
▁lei	-943
▁tar	-944
cchio	-945
dente	-946
▁giov	-947
▁mese	-948
▁letto	-949
argento	-950
▁desider	-951
hi	-952
pe	-953
▁Z	-954
▁So	-955
armi	-956
dono	-957
este	-958
▁gra	-959
▁mom	-960
entro	-961
▁chie	-962
radiso	-963
▁malin	-964
▁parti	-965
antella	-966
gellina	-967
▁verità	-968
▁ragazze	-969
▁ragazzi	-970
",	-971
gge	-972
▁be	-973
▁ed	-974
▁fos	-975
acqua	-976
uarda	-977
▁amare	-978
▁rossa	-979
▁testa	-980
▁Napole	-981
▁capire	-982
▁Madonna	-983
▁vogliono	-984
▁Mergellina	-985
fa	-986
ren	-987
rno	-988
▁Lo	-989
vono	-990
▁bel	-991
tello	-992
▁dell	-993
▁nell	-994
▁tiri	-995
entare	-996
ortuna	-997
▁donne	-998
▁mette	-999
▁andare	-1000
▁sognare	-1001
▁trovare	-1002
▁stanotte	-1003
▁mandolino	-1004
▁primavera	-1005
ala	-1006
asi	-1007
anca	-1008
rano	-1009
anima	-1010
▁apri	-1011
▁impa	-1012
▁stre	-1013
amente	-1014
▁Mamma	-1015
▁splen	-1016
▁tradi	-1017
▁meglio	-1018
▁troppo	-1019
▁destino	-1020
..	-1021
dr	-1022
gio	-1023
uti	-1024
cere	-1025
▁Com	-1026
▁gua	-1027
▁nos	-1028
▁anno	-1029
▁pare	-1030
▁sali	-1031
▁torn	-1032
▁vino	-1033
▁catti	-1034
▁forte	-1035
▁perso	-1036
▁stato	-1037
▁chissà	-1038
▁braccio	-1039
▁qualche	-1040
▁Carolina	-1041
cu	-1042
ele	-1043
▁Fa	-1044
▁Ri	-1045
▁ro	-1046
essa	-1047
esse	-1048
ondi	-1049
onta	-1050
▁Sal	-1051
▁dai	-1052
▁Mare	-1053
▁camp	-1054
▁pene	-1055
▁vado	-1056
▁canto	-1057
▁Voglio	-1058
▁quanti	-1059
▁ragazzo	-1060
▁pensiero	-1061
!..	-1062
imp	-1063
rai	-1064
▁en	-1065
tena	-1066
▁Can	-1067
olino	-1068
ombra	-1069
▁pote	-1070
▁cento	-1071
▁messo	-1072
▁quale	-1073
▁tante	-1074
▁musica	-1075
▁voglia	-1076
▁scritto	-1077
▁signora	-1078
amb	-1079
esa	-1080
gne	-1081
mma	-1082
sco	-1083
assi	-1084
dato	-1085
gina	-1086
▁Dio	-1087
▁rip	-1088
conia	-1089
▁amico	-1090
▁crede	-1091
▁fiore	-1092
▁gelos	-1093
▁piena	-1094
▁sogni	-1095
▁veder	-1096
▁Guarda	-1097
▁parola	-1098
▁momento	-1099
▁possono	-1100
tt	-1101
lie	-1102
▁Gi	-1103
▁Ne	-1104
▁Te	-1105
▁zi	-1106
▁qui	-1107
▁sco	-1108
▁fred	-1109
▁loro	-1110
▁nero	-1111
▁ride	-1112
scolta	-1113
▁bambi	-1114
▁metti	-1115
cchiere	-1116
▁Quella	-1117
▁scende	-1118
▁diverti	-1119
▁passare	-1120
▁sospiri	-1121
▁soffrire	-1122
llu	-1123
ori	-1124
rmi	-1125
tori	-1126
▁sor	-1127
mmeno	-1128
▁cara	-1129
▁face	-1130
▁mari	-1131
▁poco	-1132
▁ragi	-1133
▁voci	-1134
▁brill	-1135
▁torno	-1136
▁moglie	-1137
▁incanta	-1138
▁lontana	-1139
▁malinconia	-1140
ffè	-1141
occ	-1142
▁nd	-1143
bria	-1144
essi	-1145
▁lib	-1146
cente	-1147
▁luce	-1148
▁Vieni	-1149
▁corre	-1150
▁entra	-1151
▁dentro	-1152
▁spunta	-1153
▁baciare	-1154
▁sospira	-1155
▁marinaio	-1156
▁desiderio	-1157
▁addormenta	-1158
il	-1159
mpi	-1160
una	-1161
▁Oh	-1162
▁Po	-1163
cano	-1164
etti	-1165
rono	-1166
▁cad	-1167
▁dis	-1168
anche	-1169
▁lavo	-1170
▁nato	-1171
▁nome	-1172
▁rema	-1173
▁veni	-1174
▁basta	-1175
▁porto	-1176
▁tanti	-1177
▁fortuna	-1178
▁importa	-1179
▁affaccia	-1180
▁finestra	-1181
▁guardare	-1182
▁dimentica	-1183
▁sospirare	-1184
ute	-1185
▁fo	-1186
erra	-1187
osta	-1188
osto	-1189
roce	-1190
▁Tor	-1191
▁sci	-1192
ccato	-1193
ttore	-1194
▁Rosa	-1195
▁dato	-1196
▁fino	-1197
▁neri	-1198
▁usci	-1199
▁vene	-1200
▁croce	-1201
▁fammi	-1202
▁figli	-1203
▁ubria	-1204
tamente	-1205
tì	-1206
pagn	-1207
rani	-1208
▁Cap	-1209
▁dic	-1210
▁dov	-1211
▁Tutto	-1212
▁bagna	-1213
▁caffè	-1214
▁dolci	-1215
▁metto	-1216
▁rimas	-1217
▁siete	-1218
▁Questi	-1219
▁fresca	-1220
▁allegra	-1221
▁passato	-1222
▁Caterina	-1223
▁giardini	-1224
▁paradiso	-1225
▁innamorati	-1226
oso	-1227
pra	-1228
▁Cu	-1229
▁ga	-1230
anda	-1231
mano	-1232
ttro	-1233
▁blu	-1234
▁ore	-1235
apole	-1236
oglia	-1237
▁quel	-1238
glielo	-1239
lenzio	-1240
▁cuori	-1241
▁ferma	-1242
▁pesca	-1243
▁sposo	-1244
▁figlia	-1245
▁guardi	-1246
▁prende	-1247
▁stella	-1248
▁impazzi	-1249
▁ricordo	-1250
▁vestito	-1251
▁prendere	-1252
▁silenzio	-1253
ciò	-1254
▁Re	-1255
arla	-1256
nato	-1257
onda	-1258
riul	-1259
▁alb	-1260
▁ess	-1261
omini	-1262
▁Cosa	-1263
chiaro	-1264
▁avere	-1265
▁aveva	-1266
▁buona	-1267
▁cerca	-1268
▁festa	-1269
▁padre	-1270
▁quasi	-1271
▁torni	-1272
▁infame	-1273
▁napole	-1274
▁andiamo	-1275
▁nemmeno	-1276
▁signore	-1277
▁contento	-1278
▁fidanzata	-1279
▁innamorato	-1280
',	-1281
ze	-1282
▁'	-1283
Non	-1284
esù	-1285
ppe	-1286
ttu	-1287
▁pr	-1288
bito	-1289
rato	-1290
▁Più	-1291
▁Tra	-1292
▁lui	-1293
verno	-1294
▁Dove	-1295
▁Gesù	-1296
▁cora	-1297
▁guap	-1298
▁inte	-1299
▁mala	-1300
▁nasc	-1301
▁uomo	-1302
▁Canta	-1303
▁Tutti	-1304
▁farti	-1305
▁vergo	-1306
cinella	-1307
▁devono	-1308
▁diceva	-1309
▁mangia	-1310
▁stanno	-1311
▁allegro	-1312
▁appassi	-1313
▁gelosia	-1314
▁inganna	-1315
▁profumo	-1316
▁ricordi	-1317
▁campagna	-1318
".	-1319
Oh	-1320
dia	-1321
hai	-1322
ndo	-1323
ppa	-1324
entù	-1325
nate	-1326
tina	-1327
ulti	-1328
uomo	-1329
▁Gio	-1330
▁Pul	-1331
▁San	-1332
uccia	-1333
zzare	-1334
▁ball	-1335
▁caro	-1336
▁miei	-1337
▁padr	-1338
▁pron	-1339
▁scap	-1340
▁ucci	-1341
▁Senti	-1342
▁altri	-1343
▁amici	-1344
▁fatta	-1345
▁notta	-1346
▁scusa	-1347
▁abband	-1348
▁essere	-1349
▁guardo	-1350
▁stesso	-1351
▁ardente	-1352
▁cantano	-1353
▁davvero	-1354
▁chitarre	-1355
▁Marechiaro	-1356
▁Pulcinella	-1357
zo	-1358
ali	-1359
ffi	-1360
arsi	-1361
ddio	-1362
dore	-1363
mone	-1364
tevi	-1365
▁cui	-1366
▁ogn	-1367
▁pap	-1368
▁res	-1369
▁tue	-1370
▁ucc	-1371
ttene	-1372
uvole	-1373
▁vola	-1374
iamoci	-1375
oresti	-1376
▁Anche	-1377
▁Cuore	-1378
▁Dimmi	-1379
▁Signo	-1380
▁capri	-1381
▁fosse	-1382
▁messa	-1383
▁monta	-1384
▁paura	-1385
▁sopra	-1386
▁vanno	-1387
▁calore	-1388
▁miglio	-1389
▁pianto	-1390
▁capelli	-1391
▁suonare	-1392
▁dispetto	-1393
▁gioventù	-1394
▁risponde	-1395
▁vergogna	-1396
gh	-1397
llè	-1398
▁sm	-1399
assa	-1400
iove	-1401
vece	-1402
▁Voi	-1403
▁avv	-1404
▁vos	-1405
llèro	-1406
onore	-1407
zione	-1408
▁bocc	-1409
▁capp	-1410
▁soli	-1411
▁stor	-1412
▁tira	-1413
▁Conce	-1414
▁Santa	-1415
▁Torna	-1416
▁giura	-1417
▁morte	-1418
▁notti	-1419
▁Quante	-1420
▁aprile	-1421
▁bianca	-1422
▁catena	-1423
▁strani	-1424
▁voluto	-1425
▁portare	-1426
▁cantando	-1427
▁finestre	-1428
▁sfortuna	-1429
Ah	-1430
Ma	-1431
Ti	-1432
aa	-1433
gu	-1434
tò	-1435
ngi	-1436
nte	-1437
rla	-1438
rov	-1439
uro	-1440
▁Ha	-1441
▁Ra	-1442
▁uè	-1443
bile	-1444
tana	-1445
vamo	-1446
▁Lui	-1447
▁Tar	-1448
▁mar	-1449
▁nei	-1450
▁nun	-1451
▁nuo	-1452
▁sia	-1453
altro	-1454
ciamo	-1455
▁Chia	-1456
▁atta	-1457
▁atte	-1458
▁buon	-1459
▁fate	-1460
▁fece	-1461
▁ries	-1462
▁sale	-1463
▁sang	-1464
vatore	-1465
▁Gente	-1466
▁Senza	-1467
▁Tutte	-1468
▁avete	-1469
▁credi	-1470
▁forse	-1471
▁lasci	-1472
▁siamo	-1473
▁togli	-1474
▁trovo	-1475
▁Vorrei	-1476
▁accare	-1477
▁adesso	-1478
▁figlio	-1479
▁prendi	-1480
▁subito	-1481
▁volete	-1482
▁foresti	-1483
▁sbaglia	-1484
▁Salvatore	-1485
que	-1486
qui	-1487
rio	-1488
sia	-1489
ssa	-1490
cato	-1491
erba	-1492
ertà	-1493
gola	-1494
melo	-1495
rità	-1496
▁Dor	-1497
▁Hai	-1498
▁Nel	-1499
▁zam	-1500
cendo	-1501
nello	-1502
tante	-1503
ttere	-1504
▁agli	-1505
▁avvi	-1506
▁inse	-1507
▁rete	-1508
bbiamo	-1509
orella	-1510
▁balla	-1511
▁butta	-1512
▁Perché	-1513
▁nascon	-1514
▁ognuno	-1515
▁piangi	-1516
▁raccon	-1517
▁uomini	-1518
▁campana	-1519
▁perdere	-1520
▁quattro	-1521
▁vecchia	-1522
▁pensando	-1523
▁serenata	-1524
▁tarantella	-1525
Se	-1526
rac	-1527
tru	-1528
▁Ve	-1529
inna	-1530
polo	-1531
▁Giu	-1532
▁Ros	-1533
▁Vai	-1534
▁and	-1535
▁ero	-1536
▁stu	-1537
dendo	-1538
erita	-1539
onato	-1540
▁conf	-1541
▁fine	-1542
▁font	-1543
▁inca	-1544
▁nata	-1545
▁pres	-1546
▁scar	-1547
▁velo	-1548
contra	-1549
▁Passa	-1550
▁cilie	-1551
▁disse	-1552
▁riman	-1553
▁scuro	-1554
▁stata	-1555
▁trema	-1556
▁vende	-1557
▁venti	-1558
▁visto	-1559
▁vorre	-1560
▁zampo	-1561
mentare	-1562
▁Quanti	-1563
▁appena	-1564
▁capito	-1565
▁giorni	-1566
▁grande	-1567
▁guappo	-1568
▁stessa	-1569
▁libertà	-1570
▁neanche	-1571
▁ragione	-1572
▁sposare	-1573
▁vederti	-1574
▁speranza	-1575
▁tormento	-1576
▁Tarantella	-1577
erà	-1578
erò	-1579
mmo	-1580
uoi	-1581
ure	-1582
vol	-1583
chio	-1584
mmia	-1585
▁fia	-1586
cando	-1587
mando	-1588
ppete	-1589
rovvi	-1590
▁Rema	-1591
▁anti	-1592
▁arra	-1593
▁atto	-1594
▁gira	-1595
▁guai	-1596
▁spia	-1597
▁stru	-1598
▁addio	-1599
▁amaro	-1600
▁bandi	-1601
▁degli	-1602
▁fanta	-1603
▁inuti	-1604
▁nanna	-1605
▁resto	-1606
▁Quello	-1607
▁allont	-1608
▁barche	-1609
▁finire	-1610
▁invece	-1611
▁lascio	-1612
▁spille	-1613
▁vecchi	-1614
scoltami	-1615
▁Andiamo	-1616
▁Stasera	-1617
▁cammina	-1618
▁peccato	-1619
▁portami	-1620
▁sincera	-1621
▁sincero	-1622
▁tornano	-1623
▁tornata	-1624
▁contenta	-1625
▁facciamo	-1626
▁montagna	-1627
▁pensieri	-1628
▁capriccio	-1629
▁mandolini	-1630
▁profumata	-1631
▁svegliare	-1632
▁sentimento	-1633
Io	-1634
Si	-1635
ant	-1636
rei	-1637
rri	-1638
▁Ed	-1639
▁Va	-1640
▁go	-1641
▁né	-1642
▁oh	-1643
▁tt	-1644
dida	-1645
dina	-1646
enna	-1647
ogli	-1648
osso	-1649
ranc	-1650
scia	-1651
telo	-1652
▁For	-1653
▁Tre	-1654
▁ani	-1655
▁cha	-1656
▁imb	-1657
▁lav	-1658
▁que	-1659
▁sua	-1660
perta	-1661
rilli	-1662
▁Ogni	-1663
▁anch	-1664
▁dall	-1665
▁dipi	-1666
▁illu	-1667
▁indo	-1668
▁lamp	-1669
▁nera	-1670
▁pane	-1671
▁scia	-1672
▁scon	-1673
▁tuoi	-1674
anella	-1675
ellino	-1676
▁Lucia	-1677
▁genti	-1678
▁porti	-1679
▁prega	-1680
▁sanno	-1681
▁santa	-1682
▁sorri	-1683
ericano	-1684
rinella	-1685
▁guerra	-1686
▁nuvole	-1687
▁sabbia	-1688
▁saluto	-1689
▁scuola	-1690
▁strade	-1691
▁string	-1692
▁Candida	-1693
▁bambino	-1694
▁casetta	-1695
▁compare	-1696
▁credere	-1697
▁trovato	-1698
▁boccuccia	-1699
Sì	-1700
Vi	-1701
az	-1702
rò	-1703
arà	-1704
inf	-1705
▁Pe	-1706
▁Uè	-1707
▁ap	-1708
▁or	-1709
▁sb	-1710
dera	-1711
▁Cos	-1712
▁Mia	-1713
▁Pri	-1714
▁Ves	-1715
▁Zaz	-1716
▁neh	-1717
▁sti	-1718
Amore	-1719
onata	-1720
rotta	-1721
▁Cici	-1722
▁Dice	-1723
▁fata	-1724
▁ieri	-1725
▁legg	-1726
▁liti	-1727
▁mesi	-1728
▁oggi	-1729
▁sten	-1730
▁trov	-1731
▁vivo	-1732
▁Genna	-1733
▁Piang	-1734
▁accom	-1735
▁anima	-1736
▁avuto	-1737
▁buono	-1738
▁cerco	-1739
▁credo	-1740
▁dammi	-1741
▁fatti	-1742
▁parte	-1743
▁perdo	-1744
▁potre	-1745
▁qualc	-1746
▁resta	-1747
▁segno	-1748
▁serve	-1749
▁succe	-1750
▁suono	-1751
▁vista	-1752
▁Chissà	-1753
▁Queste	-1754
▁chiamo	-1755
▁chiedo	-1756
▁indovi	-1757
▁malata	-1758
▁povero	-1759
▁sangue	-1760
▁stanco	-1761
▁ballare	-1762
▁facendo	-1763
▁sospiro	-1764
▁ubriaco	-1765
▁baciarti	-1766
▁giardino	-1767
▁lavorare	-1768
▁rimanere	-1769
▁vogliamo	-1770
▁brillanti	-1771
▁pescatore	-1772
▁Cicirinella	-1773
nti	-1774
rlo	-1775
▁Am	-1776
▁Bu	-1777
▁Sf	-1778
asti	-1779
dici	-1780
esto	-1781
rino	-1782
ture	-1783
vine	-1784
▁Fio	-1785
▁Las	-1786
▁Sto	-1787
▁mis	-1788
▁zia	-1789
atale	-1790
ccare	-1791
incia	-1792
ttino	-1793
▁Arri	-1794
▁Luna	-1795
▁Zazá	-1796
▁cami	-1797
▁care	-1798
▁dite	-1799
▁papà	-1800
▁pena	-1801
▁prom	-1802
▁scen	-1803
▁schi	-1804
▁vent	-1805
▁Addio	-1806
▁Tutta	-1807
▁accor	-1808
▁avevo	-1809
▁farlo	-1810
▁forza	-1811
▁gioia	-1812
▁mezza	-1813
▁morto	-1814
▁parli	-1815
▁piove	-1816
▁prese	-1817
▁schia	-1818
vinezza	-1819
▁Natale	-1820
▁Quanto	-1821
▁andata	-1822
▁andato	-1823
▁dovete	-1824
▁estate	-1825
▁faceva	-1826
▁finito	-1827
▁marito	-1828
▁miglia	-1829
▁tramon	-1830
▁attorno	-1831
▁cantava	-1832
▁marinai	-1833
▁nessuna	-1834
▁piccolo	-1835
▁sorella	-1836
▁uccelli	-1837
▁dobbiamo	-1838
▁accarezza	-1839
▁bicchiere	-1840
▁dimentico	-1841
▁diventare	-1842
▁solamente	-1843
▁dolcemente	-1844
▁giovinezza	-1845
▁innamorata	-1846
et	-1847
he	-1848
Per	-1849
ppi	-1850
rci	-1851
sso	-1852
▁Sì	-1853
▁zu	-1854
alia	-1855
arci	-1856
bbre	-1857
dico	-1858
occa	-1859
pare	-1860
uvio	-1861
zzur	-1862
▁Par	-1863
▁giu	-1864
olori	-1865
omani	-1866
osina	-1867
▁Capo	-1868
▁Solo	-1869
▁affi	-1870
▁cava	-1871
▁copp	-1872
▁indi	-1873
▁lire	-1874
▁ndan	-1875
▁ruba	-1876
▁semb	-1877
▁seta	-1878
▁spie	-1879
▁succ	-1880
tratto	-1881
▁Bambi	-1882
▁Prima	-1883
▁cambi	-1884
▁carro	-1885
▁costa	-1886
▁dissi	-1887
▁farfa	-1888
▁farla	-1889
▁fondo	-1890
▁manca	-1891
▁manda	-1892
▁passo	-1893
▁piace	-1894
▁respi	-1895
▁ricci	-1896
▁tieni	-1897
▁verde	-1898
rovviso	-1899
▁alberi	-1900
▁bacino	-1901
▁brucia	-1902
▁bugiar	-1903
▁cadere	-1904
▁colore	-1905
▁dolore	-1906
▁fredda	-1907
▁freddo	-1908
▁prendo	-1909
▁quarti	-1910
▁sempli	-1911
▁tralla	-1912
▁trecce	-1913
▁Vesuvio	-1914
▁giovane	-1915
▁giovano	-1916
▁inutile	-1917
▁pensare	-1918
▁piacere	-1919
▁portato	-1920
▁tricche	-1921
▁vecchio	-1922
▁bandiera	-1923
▁cambiare	-1924
▁incontra	-1925
improvviso	-1926
▁fidanzato	-1927
▁innamorare	-1928
▁trallarilli	-1929
ou	-1930
ngo	-1931
▁Fi	-1932
ches	-1933
cini	-1934
cono	-1935
fica	-1936
mato	-1937
nale	-1938
sciu	-1939
usci	-1940
▁Due	-1941
▁Fil	-1942
▁dam	-1943
▁pal	-1944
▁pan	-1945
▁ris	-1946
denti	-1947
ffere	-1948
hanno	-1949
llina	-1950
mette	-1951
netta	-1952
▁Però	-1953
▁Raga	-1954
▁divi	-1955
▁vela	-1956
▁viso	-1957
ùppete	-1958
▁acqua	-1959
▁amata	-1960
▁asciu	-1961
▁avvel	-1962
▁consi	-1963
▁conta	-1964
▁dorme	-1965
▁guada	-1966
▁nasce	-1967
▁ninna	-1968
▁passe	-1969
▁pazzo	-1970
▁penti	-1971
▁pieno	-1972
▁sette	-1973
▁lariul	-1974
▁popolo	-1975
▁presto	-1976
▁svegli	-1977
▁vicina	-1978
▁Gennaro	-1979
▁cantate	-1980
▁conosco	-1981
▁insegna	-1982
▁ndander	-1983
▁nottata	-1984
▁padrone	-1985
▁soldato	-1986
▁tornato	-1987
▁tremare	-1988
▁Sfortuna	-1989
▁chiamare	-1990
▁coraggio	-1991
▁fratello	-1992
▁migliore	-1993
▁nascosto	-1994
▁zampogna	-1995
▁diventato	-1996
▁addormentare	-1997
!"	-1998
rì	-1999
us	-2000
Chi	-2001
alo	-2002
gie	-2003
gre	-2004
inc	-2005
mba	-2006
▁Sc	-2007
▁Sp	-2008
arfa	-2009
cher	-2010
dati	-2011
glie	-2012
gono	-2013
nina	-2014
rata	-2015
tene	-2016
▁Gli	-2017
▁Man	-2018
▁Pen	-2019
▁Vom	-2020
▁cin	-2021
▁ele	-2022
▁sfi	-2023
erato	-2024
erica	-2025
gnore	-2026
odore	-2027
oline	-2028
rendi	-2029
resti	-2030
ttine	-2031
▁Stai	-2032
▁Vuoi	-2033
▁giro	-2034
▁leva	-2035
▁pala	-2036
▁sogn	-2037
▁tale	-2038
▁zocc	-2039
giorno	-2040
pagnia	-2041
ultima	-2042
▁Farfa	-2043
▁Sotto	-2044
▁aspet	-2045
▁dalle	-2046
▁fossi	-2047
▁infam	-2048
▁morta	-2049
▁perde	-2050
▁piedi	-2051
▁rosse	-2052
▁suoni	-2053
▁treno	-2054
▁zitto	-2055
dellino	-2056
▁Rosina	-2057
▁Sembra	-2058
▁Vicino	-2059
▁bocche	-2060
▁chiesa	-2061
▁febbre	-2062
▁foglia	-2063
▁raggio	-2064
▁ridere	-2065
▁salute	-2066
▁stanca	-2067
▁tirito	-2068
▁ullèro	-2069
▁venire	-2070
▁venuta	-2071
▁Bambino	-2072
▁Mandoli	-2073
▁cattiva	-2074
▁giocare	-2075
▁piccola	-2076
▁rimasto	-2077
▁ritorna	-2078
▁sposata	-2079
▁sveglio	-2080
▁arrivare	-2081
▁cappello	-2082
▁rispondi	-2083
▁vorrebbe	-2084
▁compagnia	-2085
▁guardando	-2086
▁indiffere	-2087
▁piangendo	-2088
▁ragazzino	-2089
▁vendemmia	-2090
▁forestiero	-2091
▁ndanderand	-2092
tr	-2093
ui	-2094
Che	-2095
eso	-2096
ngh	-2097
nta	-2098
rni	-2099
rsi	-2100
▁Al	-2101
▁er	-2102
▁os	-2103
▁sg	-2104
▁sv	-2105
argh	-2106
gato	-2107
tela	-2108
tria	-2109
▁Era	-2110
▁Mar	-2111
▁Qua	-2112
▁mel	-2113
▁pol	-2114
▁ren	-2115
▁sui	-2116
▁tur	-2117
▁vas	-2118
▁vel	-2119
▁zin	-2120
dimon	-2121
olare	-2122
omena	-2123
rando	-2124
rebbe	-2125
rendo	-2126
tente	-2127
ttera	-2128
▁Dopo	-2129
▁Sarà	-2130
▁affa	-2131
▁cade	-2132
▁date	-2133
▁deli	-2134
▁ferm	-2135
▁gela	-2136
▁inno	-2137
▁moti	-2138
▁pure	-2139
▁rido	-2140
▁risa	-2141
▁rovi	-2142
▁sent	-2143
▁star	-2144
ggiare	-2145
inello	-2146
oletto	-2147
raceno	-2148
riello	-2149
▁Disse	-2150
▁Pasqu	-2151
▁Suona	-2152
▁amara	-2153
▁carre	-2154
▁conti	-2155
▁corte	-2156
▁danna	-2157
▁folla	-2158
▁gioca	-2159
▁grano	-2160
▁incan	-2161
▁inten	-2162
▁legge	-2163
▁negli	-2164
▁palli	-2165
▁pietà	-2166
▁pizza	-2167
▁possa	-2168
▁scher	-2169
▁segna	-2170
▁spine	-2171
▁sulle	-2172
▁tocca	-2173
▁viole	-2174
dimonte	-2175
gnifica	-2176
importa	-2177
sciallo	-2178
▁Mentre	-2179
▁Perciò	-2180
▁Povero	-2181
▁Vomero	-2182
▁amante	-2183
▁bionda	-2184
▁brutta	-2185
▁chiami	-2186
▁chiare	-2187
▁chiusa	-2188
▁colori	-2189
▁felici	-2190
▁malato	-2191
▁piango	-2192
▁pronta	-2193
▁regina	-2194
▁riesco	-2195
▁veleno	-2196
▁abbiamo	-2197
▁apposta	-2198
▁bagnata	-2199
▁camicia	-2200
▁capisce	-2201
▁conosce	-2202
▁conosci	-2203
▁lacrima	-2204
▁lucente	-2205
▁partire	-2206
▁prender	-2207
▁splende	-2208
▁vattene	-2209
argherita	-2210
▁Filomena	-2211
▁Paradiso	-2212
▁arrabbia	-2213
▁dolcezza	-2214
▁fantasia	-2215
▁incatena	-2216
▁migliaia	-2217
▁racconta	-2218
▁racconto	-2219
▁ritratto	-2220
▁specchio	-2221
▁tormenta	-2222
▁piccolina	-2223
▁piccolino	-2224
▁quartiere	-2225
▁cardellino	-2226
▁Capodimonte	-2227
bù	-2228
fo	-2229
ge	-2230
ato	-2231
eco	-2232
llá	-2233
pre	-2234
tal	-2235
usa	-2236
usi	-2237
▁Ba	-2238
▁Sa	-2239
arca	-2240
coli	-2241
moni	-2242
osci	-2243
rene	-2244
tali	-2245
▁Ave	-2246
▁Cer	-2247
▁Fai	-2248
▁Neh	-2249
▁Noi	-2250
▁Pie	-2251
▁Pro	-2252
▁asc	-2253
▁ben	-2254
▁mas	-2255
▁reg	-2256
▁rie	-2257
▁sca	-2258
▁sce	-2259
centi	-2260
cento	-2261
gione	-2262
monio	-2263
oledo	-2264
razia	-2265
rucca	-2266
ssimo	-2267
▁Apri	-2268
▁Così	-2269
▁Picc	-2270
▁bamb	-2271
▁buio	-2272
▁chio	-2273
▁dorm	-2274
▁glie	-2275
▁imma	-2276
▁luci	-2277
▁mezz	-2278
▁mili	-2279
▁nave	-2280
▁però	-2281
▁scor	-2282
▁sfre	-2283
▁spun	-2284
▁tran	-2285
cchete	-2286
nghete	-2287
oncina	-2288
ontano	-2289
ultimo	-2290
▁Bocca	-2291
▁Cielo	-2292
▁Cilie	-2293
▁Fammi	-2294
▁Forse	-2295
▁carta	-2296
▁compa	-2297
▁consu	-2298
▁conto	-2299
▁gusto	-2300
▁mente	-2301
▁nuova	-2302
▁posto	-2303
▁preso	-2304
▁tanta	-2305
▁vengo	-2306
▁vetri	-2307
▁zucch	-2308
inverno	-2309
▁Annina	-2310
▁Toledo	-2311
▁brutto	-2312
▁caccia	-2313
▁chiara	-2314
▁datemi	-2315
▁dicono	-2316
▁lavora	-2317
▁lavoro	-2318
▁nostra	-2319
▁perciò	-2320
▁pianta	-2321
▁quegli	-2322
▁ricche	-2323
▁rumore	-2324
▁sbatte	-2325
▁serena	-2326
▁volare	-2327
ssignore	-2328
▁Vattene	-2329
▁addosso	-2330
▁bambina	-2331
▁coperta	-2332
▁gentile	-2333
▁lampare	-2334
▁lettera	-2335
▁passano	-2336
▁stretto	-2337
▁stringi	-2338
▁succhia	-2339
▁tornate	-2340
▁cercando	-2341
▁chiamano	-2342
▁dimentic	-2343
▁giornata	-2344
▁nascondi	-2345
▁sognando	-2346
▁americano	-2347
▁divertire	-2348
▁impazzire	-2349
▁innocente	-2350
▁magnifica	-2351
▁ritornare	-2352
▁svegliati	-2353
▁Concettina	-2354
▁appassiona	-2355
▁canzoncina	-2356
▁certamente	-2357
▁giovanotto	-2358
▁allegramente	-2359
Tu	-2360
av	-2361
èh	-2362
ati	-2363
nci	-2364
ond	-2365
par	-2366
ume	-2367
▁De	-2368
▁Uh	-2369
▁du	-2370
▁lì	-2371
Sono	-2372
ania	-2373
biti	-2374
dele	-2375
duto	-2376
erai	-2377
erno	-2378
esia	-2379
ffia	-2380
gara	-2381
gole	-2382
lano	-2383
lleg	-2384
meli	-2385
nano	-2386
ppor	-2387
rera	-2388
tura	-2389
vola	-2390
▁Fin	-2391
▁Fri	-2392
▁esi	-2393
▁fis	-2394
▁gal	-2395
▁giù	-2396
▁lla	-2397
▁oil	-2398
▁ric	-2399
▁ttu	-2400
anchi	-2401
arono	-2402
edera	-2403
estra	-2404
pagne	-2405
rnità	-2406
scono	-2407
zzato	-2408
zzino	-2409
▁Ness	-2410
▁Vita	-2411
▁aver	-2412
▁capa	-2413
▁cera	-2414
▁fami	-2415
▁filo	-2416
▁gamb	-2417
▁note	-2418
▁perm	-2419
▁raso	-2420
▁ridi	-2421
▁spav	-2422
▁vell	-2423
angolo	-2424
lmente	-2425
▁Cento	-2426
▁Donna	-2427
▁Dormi	-2428
▁Porta	-2429
▁accon	-2430
▁amato	-2431
▁ascol	-2432
▁farci	-2433
▁franc	-2434
▁getta	-2435
▁guari	-2436
▁lampi	-2437
▁lucci	-2438
▁matri	-2439
▁muori	-2440
▁onore	-2441
▁parlo	-2442
▁parto	-2443
▁quali	-2444
▁ripos	-2445
▁rivol	-2446
▁stupi	-2447
▁tempi	-2448
▁tengo	-2449
▁Domani	-2450
▁avanti	-2451
▁chiuso	-2452
▁conser	-2453
▁contro	-2454
▁dicevi	-2455
▁disper	-2456
▁intere	-2457
▁limone	-2458
▁nostro	-2459
▁pronto	-2460
▁quelle	-2461
▁salire	-2462
▁scrive	-2463
▁soffia	-2464
▁storia	-2465
▁venuto	-2466
▁vostra	-2467
annaggia	-2468
zzarella	-2469
▁Rosetta	-2470
▁aspetti	-2471
▁attento	-2472
▁capisci	-2473
▁dannare	-2474
▁dottore	-2475
▁fontana	-2476
▁infamia	-2477
▁inverno	-2478
▁mandato	-2479
▁nottate	-2480
▁padrona	-2481
▁respiro	-2482
▁rimasta	-2483
▁segnale	-2484
▁sorriso	-2485
▁suonano	-2486
▁tradito	-2487
▁tranqui	-2488
▁tremano	-2489
▁Concetta	-2490
▁avvelena	-2491
▁avvicina	-2492
▁bugiarda	-2493
▁comincia	-2494
▁diglielo	-2495
▁mangiare	-2496
▁piangono	-2497
▁possiamo	-2498
▁qualcuno	-2499
▁serenate	-2500
▁tormenti	-2501
▁zucchero	-2502
▁Ciliegina	-2503
▁ascoltami	-2504
▁consolare	-2505
▁ingannare	-2506
▁tristezza	-2507
▁Margherita	-2508
▁accompagna	-2509
▁aspettando	-2510
▁napoletana	-2511
▁napoletano	-2512
▁abbracciata	-2513
▁chiacchiere	-2514
▁dimenticata	-2515
▁maresciallo	-2516
▁trallarillirera	-2517
"?	-2518
Il	-2519
Ora	-2520
aff	-2521
ara	-2522
iam	-2523
mme	-2524
nic	-2525
olà	-2526
uva	-2527
▁Li	-2528
asso	-2529
cida	-2530
dero	-2531
dine	-2532
eria	-2533
erie	-2534
gino	-2535
mbre	-2536
olio	-2537
rosa	-2538
sino	-2539
trui	-2540
ttia	-2541
uola	-2542
vore	-2543
▁Dai	-2544
▁Pap	-2545
▁Sve	-2546
▁agi	-2547
▁ali	-2548
▁amo	-2549
▁ang	-2550
▁fru	-2551
▁gri	-2552
▁min	-2553
▁mon	-2554
▁tol	-2555
▁ved	-2556
Signo	-2557
anità	-2558
antal	-2559
asera	-2560
canti	-2561
gnere	-2562
llora	-2563
ppure	-2564
stero	-2565
telle	-2566
trice	-2567
utare	-2568
▁Bamb	-2569
▁Mari	-2570
▁Vola	-2571
▁aggi	-2572
▁andò	-2573
▁cadi	-2574
▁carc	-2575
▁cura	-2576
▁dura	-2577
▁eleg	-2578
▁esce	-2579
▁farà	-2580
▁mand	-2581
▁neve	-2582
▁poli	-2583
▁pomo	-2584
▁sare	-2585
▁spen	-2586
▁vera	-2587
curità	-2588
lietta	-2589
tratta	-2590
zzurro	-2591
▁Fiore	-2592
▁Sento	-2593
▁culla	-2594
▁dormo	-2595
▁finta	-2596
▁infuo	-2597
▁mangi	-2598
▁mesti	-2599
▁prego	-2600
▁prepo	-2601
▁quant	-2602
▁resti	-2603
▁rondi	-2604
▁sguar	-2605
▁trovi	-2606
▁Allora	-2607
▁chiede	-2608
▁cinque	-2609
▁distru	-2610
▁favore	-2611
▁finita	-2612
▁fresco	-2613
▁manina	-2614
▁motivo	-2615
▁pagare	-2616
▁pantal	-2617
▁peggio	-2618
▁penare	-2619
▁petali	-2620
▁povera	-2621
▁princi	-2622
▁quanta	-2623
▁rabbia	-2624
▁sembri	-2625
▁spalle	-2626
▁spesso	-2627
▁tenere	-2628
▁tiritì	-2629
▁uscire	-2630
ràcchete	-2631
▁Cantano	-2632
▁Nessuno	-2633
▁aspetto	-2634
▁attacca	-2635
▁cammino	-2636
▁cortese	-2637
▁dicesti	-2638
▁perdono	-2639
▁sentite	-2640
▁soldati	-2641
▁succede	-2642
▁arrivato	-2643
▁bellezza	-2644
▁cantante	-2645
▁famiglia	-2646
▁malattia	-2647
▁passando	-2648
▁permesso	-2649
▁saraceno	-2650
▁semplice	-2651
▁suonando	-2652
▁Giulietta	-2653
▁guardarla	-2654
▁incantare	-2655
▁sospirano	-2656
▁straniero	-2657
▁Napoletana	-2658
▁giuramenti	-2659
▁matrimonio	-2660
▁indifferente	-2661
La	-2662
No	-2663
rá	-2664
?".	-2665
Mio	-2666
ama	-2667
mbo	-2668
nno	-2669
rna	-2670
sio	-2671
utu	-2672
▁Be	-2673
▁Ce	-2674
▁Vo	-2675
▁nu	-2676
▁on	-2677
alba	-2678
asse	-2679
auto	-2680
bitu	-2681
cata	-2682
cile	-2683
cola	-2684
coni	-2685
curo	-2686
entò	-2687
erta	-2688
fino	-2689
gura	-2690
iete	-2691
lala	-2692
mici	-2693
moci	-2694
rati	-2695
sche	-2696
tone	-2697
uori	-2698
zebù	-2699
▁Ang	-2700
▁Bri	-2701
▁Col	-2702
▁Dav	-2703
▁Fur	-2704
▁Ohé	-2705
▁Seh	-2706
▁agg	-2707
▁bon	-2708
▁ete	-2709
▁mer	-2710
▁oro	-2711
▁pom	-2712
▁pun	-2713
▁rin	-2714
▁rom	-2715
▁tea	-2716
▁teh	-2717
bante	-2718
bbero	-2719
cello	-2720
cetta	-2721
gente	-2722
gnare	-2723
mmelo	-2724
mmolà	-2725
mpati	-2726
nicul	-2727
onare	-2728
taria	-2729
telli	-2730
▁Luci	-2731
▁Nove	-2732
▁Sere	-2733
▁Stri	-2734
▁Vino	-2735
▁aria	-2736
▁assa	-2737
▁calz	-2738
▁capo	-2739
▁ecco	-2740
▁invi	-2741
▁more	-2742
▁mori	-2743
▁nove	-2744
▁pers	-2745
▁potu	-2746
▁quad	-2747
▁quar	-2748
▁scal	-2749
▁scom	-2750
▁suoi	-2751
ammina	-2752
melina	-2753
utunno	-2754
▁Giuse	-2755
▁Tanto	-2756
▁accen	-2757
▁andai	-2758
▁batte	-2759
▁colpa	-2760
▁danno	-2761
▁erano	-2762
▁facci	-2763
▁gambe	-2764
▁lenta	-2765
▁mando	-2766
▁manti	-2767
▁palpi	-2768
▁pecca	-2769
▁perdi	-2770
▁persa	-2771
▁pezzo	-2772
▁piani	-2773
▁porte	-2774
▁prova	-2775
▁retta	-2776
▁ricco	-2777
▁salta	-2778
▁sparo	-2779
▁stava	-2780
▁tardi	-2781
▁tirit	-2782
▁vanta	-2783
▁venne	-2784
▁veste	-2785
lluccio	-2786
turella	-2787
▁Marina	-2788
▁Meglio	-2789
▁Prendi	-2790
▁andate	-2791
▁antico	-2792
▁arrivi	-2793
▁cadute	-2794
▁compro	-2795
▁cresce	-2796
▁diping	-2797
▁dispia	-2798
▁fianco	-2799
▁fretta	-2800
▁girare	-2801
▁povere	-2802
▁riusci	-2803
▁saluta	-2804
▁scappa	-2805
▁scendi	-2806
▁sigare	-2807
▁specia	-2808
▁tenera	-2809
▁trucca	-2810
▁turchi	-2811
▁vascio	-2812
▁volevi	-2813
eternità	-2814
▁Davanti	-2815
▁Procida	-2816
▁Signora	-2817
▁Sveglia	-2818
▁accende	-2819
▁affacci	-2820
▁ardenti	-2821
▁cantina	-2822
▁cattivo	-2823
▁credete	-2824
▁fermato	-2825
▁guarire	-2826
▁lettere	-2827
▁llariul	-2828
▁morendo	-2829
▁pallida	-2830
▁parenti	-2831
▁parlate	-2832
▁partito	-2833
▁perdona	-2834
▁perduto	-2835
▁scoglio	-2836
▁sconten	-2837
▁sentito	-2838
▁simpati	-2839
▁stretta	-2840
▁stringo	-2841
▁strugge	-2842
▁vestiti	-2843
▁Farfalla	-2844
▁Pasquale	-2845
▁aggrazia	-2846
▁brillano	-2847
▁ciliegia	-2848
▁coltello	-2849
▁comprare	-2850
▁dormendo	-2851
▁guardavo	-2852
▁lasciala	-2853
▁potrebbe	-2854
▁riposare	-2855
▁scappare	-2856
▁sembrava	-2857
▁spegnere	-2858
▁spiaggia	-2859
▁sposarmi	-2860
▁tramonto	-2861
▁Carmelina	-2862
▁Mandolino	-2863
▁Mannaggia	-2864
▁aspettare	-2865
▁camminare	-2866
▁incantata	-2867
▁insegnato	-2868
▁malinconi	-2869
▁messaggio	-2870
▁pantaloni	-2871
▁signorina	-2872
▁soffrendo	-2873
▁Furturella	-2874
▁Napoletano	-2875
▁affacciare	-2876
▁prepotente	-2877
▁sissignore	-2878
▁sospirando	-2879
▁splendente	-2880
▁tradimento	-2881
▁cavalluccio	-2882
▁tiritommolà	-2883
:"	-2884
Am	-2885
In	-2886
Nf	-2887
hh	-2888
oc	-2889
sé	-2890
Ave	-2891
Sei	-2892
arm	-2893
ave	-2894
car	-2895
cer	-2896
cie	-2897
fil	-2898
fio	-2899
for	-2900
ghi	-2901
nga	-2902
ose	-2903
rvi	-2904
▁Eh	-2905
▁eh	-2906
▁ni	-2907
anze	-2908
bare	-2909
bbra	-2910
derà	-2911
doro	-2912
erei	-2913
esca	-2914
ette	-2915
naia	-2916
nore	-2917
ntra	-2918
olfo	-2919
orto	-2920
osco	-2921
ossa	-2922
tato	-2923
teci	-2924
tero	-2925
voce	-2926
▁Bel	-2927
▁Cam	-2928
▁Don	-2929
▁Tro	-2930
▁ass	-2931
▁ber	-2932
▁bir	-2933
▁fri	-2934
▁gar	-2935
▁suo	-2936
▁ugu	-2937
▁vie	-2938
▁viv	-2939
▁von	-2940
▁zap	-2941
Vieni	-2942
ambia	-2943
amita	-2944
chest	-2945
china	-2946
diere	-2947
enica	-2948
gosto	-2949
greto	-2950
perto	-2951
scata	-2952
ttura	-2953
volta	-2954
ziosa	-2955
▁Rose	-2956
▁Veni	-2957
▁Zocc	-2958
▁bere	-2959
▁case	-2960
▁coro	-2961
▁fede	-2962
▁foto	-2963
▁geni	-2964
▁larà	-2965
▁mali	-2966
▁meno	-2967
▁mise	-2968
▁paes	-2969
▁pizz	-2970
▁pung	-2971
▁scel	-2972
▁spor	-2973
▁sull	-2974
▁tram	-2975
▁vele	-2976
▁vive	-2977
Questa	-2978
cciare	-2979
glieri	-2980
grotta	-2981
indici	-2982
sibile	-2983
ttanta	-2984
▁Dammi	-2985
▁Dorme	-2986
▁Gioia	-2987
▁Metti	-2988
▁Occhi	-2989
▁Quest	-2990
▁Sospi	-2991
▁Terra	-2992
▁aiuta	-2993
▁appro	-2994
▁balia	-2995
▁ballo	-2996
▁bigli	-2997
▁bontà	-2998
▁bravo	-2999
▁capre	-3000
▁causa	-3001
▁centi	-3002
▁colpi	-3003
▁farei	-3004
▁fiume	-3005
▁golfo	-3006
▁nonna	-3007
▁nuove	-3008
▁pasti	-3009
▁pesci	-3010
▁pieni	-3011
▁pizzi	-3012
▁portò	-3013
▁prora	-3014
▁ricon	-3015
▁rosso	-3016
▁sarto	-3017
▁secca	-3018
▁servo	-3019
▁sposi	-3020
▁stati	-3021
▁stavo	-3022
▁terre	-3023
▁tiene	-3024
▁tosta	-3025
▁voler	-3026
▁zitta	-3027
cchetta	-3028
cchiano	-3029
mattina	-3030
ostante	-3031
▁Caterì	-3032
▁Frisio	-3033
▁Lascia	-3034
▁Patria	-3035
▁Sanità	-3036
▁albero	-3037
▁andava	-3038
▁aprire	-3039
▁biondi	-3040
▁caduta	-3041
▁catene	-3042
▁chiaro	-3043
▁chiude	-3044
▁coppia	-3045
▁corona	-3046
▁galera	-3047
▁grandi	-3048
▁illumi	-3049
▁piante	-3050
▁pietre	-3051
▁portar	-3052
▁potuto	-3053
▁pregia	-3054
▁preten	-3055
▁riesce	-3056
▁rubato	-3057
▁scogli	-3058
▁scugni	-3059
▁smania	-3060
▁solita	-3061
▁soppor	-3062
▁stesse	-3063
▁taglia	-3064
▁vicoli	-3065
▁voleva	-3066
oscurità	-3067
▁Belzebù	-3068
▁ascolta	-3069
▁balconi	-3070
▁bambola	-3071
▁consola	-3072
▁dammelo	-3073
▁delizia	-3074
▁perduta	-3075
▁pergola	-3076
▁pettine	-3077
▁pregare	-3078
▁remando	-3079
▁salvare	-3080
▁segreto	-3081
▁sentono	-3082
▁sparare	-3083
▁toccare	-3084
▁vengono	-3085
▁zingara	-3086
▁zitella	-3087
chestrina	-3088
▁Diglielo	-3089
▁Giuseppe	-3090
▁arrivata	-3091
▁bellezze	-3092
▁brunetta	-3093
▁carrozza	-3094
▁ciliegie	-3095
▁francese	-3096
▁genitori	-3097
▁guardate	-3098
▁inteneri	-3099
▁llariulá	-3100
▁maledico	-3101
▁mestiere	-3102
▁migliori	-3103
▁pomodoro	-3104
▁presenti	-3105
▁principe	-3106
▁promesse	-3107
▁rispondo	-3108
▁scrivere	-3109
▁sentendo	-3110
▁spezzare	-3111
▁ttùppete	-3112
▁abbandona	-3113
▁abbraccio	-3114
▁centinaia	-3115
▁conoscono	-3116
▁impazzito	-3117
▁ricordare	-3118
▁sbagliare	-3119
▁solitaria	-3120
▁straniera	-3121
▁Lazzarella	-3122
▁fontanella	-3123
▁raccontare	-3124
▁ritornello	-3125
▁vecchietta	-3126
▁abbandonato	-3127
▁dimenticato	-3128
▁addormentato	-3129
Fa	-3130
fr	-3131
tè	-3132
ua	-3133
ann	-3134
anz	-3135
ari	-3136
bbi	-3137
dal	-3138
ffa	-3139
fia	-3140
ino	-3141
pol	-3142
uni	-3143
uzz	-3144
▁is	-3145
▁tr	-3146
Nfra	-3147
arle	-3148
arlo	-3149
cito	-3150
cura	-3151
dino	-3152
eric	-3153
lina	-3154
mani	-3155
mica	-3156
nali	-3157
occu	-3158
olce	-3159
oste	-3160
rava	-3161
rore	-3162
tono	-3163
tuno	-3164
zone	-3165
▁Fre	-3166
▁Già	-3167
▁Mai	-3168
▁Mon	-3169
▁Nun	-3170
▁Uno	-3171
▁beh	-3172
▁bor	-3173
▁cel	-3174
▁cru	-3175
▁dif	-3176
▁eri	-3177
▁gre	-3178
▁gru	-3179
▁inv	-3180
▁lad	-3181
▁mam	-3182
▁nov	-3183
▁nèh	-3184
▁tes	-3185
Addio	-3186
biere	-3187
cante	-3188
cella	-3189
entri	-3190
enzia	-3191
erata	-3192
fioso	-3193
gnano	-3194
olaro	-3195
olini	-3196
ombre	-3197
ranzo	-3198
scino	-3199
vanni	-3200
verai	-3201
zzina	-3202
▁Caro	-3203
▁Ieri	-3204
▁Sali	-3205
▁Scri	-3206
▁Sera	-3207
▁Vedi	-3208
▁atti	-3209
▁bara	-3210
▁cann	-3211
▁conc	-3212
▁fame	-3213
▁imme	-3214
▁lumi	-3215
▁mona	-3216
▁ndrà	-3217
▁nere	-3218
▁noti	-3219
▁pazi	-3220
▁ruta	-3221
▁smuo	-3222
▁tiro	-3223
▁urla	-3224
▁voto	-3225
Perchè	-3226
andare	-3227
anello	-3228
contro	-3229
dalena	-3230
essore	-3231
estero	-3232
ghiamo	-3233
naggia	-3234
ologio	-3235
omanda	-3236
talgia	-3237
▁Barca	-3238
▁Canto	-3239
▁Pensa	-3240
▁Ricor	-3241
▁Spagn	-3242
▁Stano	-3243
▁affli	-3244
▁appar	-3245
▁assai	-3246
▁balli	-3247
▁basti	-3248
▁botte	-3249
▁brava	-3250
▁bruna	-3251
▁calma	-3252
▁certe	-3253
▁certo	-3254
▁chiam	-3255
▁dille	-3256
▁diver	-3257
▁fatte	-3258
▁giuro	-3259
▁legna	-3260
▁lunga	-3261
▁pansé	-3262
▁pelle	-3263
▁penna	-3264
▁perle	-3265
▁piaci	-3266
▁quell	-3267
▁rasse	-3268
▁regno	-3269
▁rende	-3270
▁saper	-3271
▁scell	-3272
▁senta	-3273
▁spero	-3274
▁spese	-3275
▁spina	-3276
▁state	-3277
▁tasca	-3278
▁vendi	-3279
America	-3280
almente	-3281
garella	-3282
inferno	-3283
▁Amalia	-3284
▁Angeli	-3285
▁Chiara	-3286
▁Chitar	-3287
▁Niente	-3288
▁Stella	-3289
▁Ullèro	-3290
▁agosto	-3291
▁angelo	-3292
▁bianco	-3293
▁chiari	-3294
▁comare	-3295
▁compra	-3296
▁contra	-3297
▁coppie	-3298
▁dicevo	-3299
▁doveva	-3300
▁esiste	-3301
▁facevi	-3302
▁facile	-3303
▁fiamma	-3304
▁figura	-3305
▁gelosa	-3306
▁intero	-3307
▁levati	-3308
▁manine	-3309
▁nostri	-3310
▁pietra	-3311
▁pizzai	-3312
▁pranzo	-3313
▁sapore	-3314
▁scarpe	-3315
▁serata	-3316
▁sfizio	-3317
▁soffre	-3318
▁stende	-3319
▁stiamo	-3320
▁tenore	-3321
▁venite	-3322
▁volano	-3323
digrotta	-3324
saglieri	-3325
▁Ascolta	-3326
▁Lontano	-3327
▁Luciana	-3328
▁Ragazze	-3329
▁Sentite	-3330
▁Signore	-3331
▁allegre	-3332
▁campane	-3333
▁cantini	-3334
▁capisco	-3335
▁carcere	-3336
▁cavallo	-3337
▁celeste	-3338
▁costrui	-3339
▁diciamo	-3340
▁finisce	-3341
▁funicul	-3342
▁immedia	-3343
▁intanto	-3344
▁leggera	-3345
▁lucenti	-3346
▁mistero	-3347
▁momenti	-3348
▁palazzi	-3349
▁parlano	-3350
▁pastori	-3351
▁pianino	-3352
▁pittore	-3353
▁portata	-3354
▁preoccu	-3355
▁sguardo	-3356
▁signori	-3357
▁stringe	-3358
▁stupido	-3359
▁suonava	-3360
▁tenente	-3361
▁uccello	-3362
▁violino	-3363
▁zoccoli	-3364
Nfrascata	-3365
americano	-3366
ppariello	-3367
untamento	-3368
▁Giovanni	-3369
▁Stanotte	-3370
▁affianco	-3371
▁allontan	-3372
▁barbiere	-3373
▁cambiata	-3374
▁cambiato	-3375
▁campagne	-3376
▁compagna	-3377
▁desidero	-3378
▁domenica	-3379
▁elegante	-3380
▁facevano	-3381
▁giornale	-3382
▁mantiene	-3383
▁nasconde	-3384
▁parlando	-3385
▁pazienza	-3386
▁permette	-3387
▁pregiata	-3388
▁successo	-3389
▁tempesta	-3390
▁togliere	-3391
▁tramonta	-3392
▁tremando	-3393
▁Ascoltami	-3394
▁Maddalena	-3395
▁Zoccolaro	-3396
▁barchetta	-3397
▁biglietto	-3398
▁buonasera	-3399
▁comandare	-3400
▁diventata	-3401
▁incantato	-3402
▁mannaggia	-3403
▁nostalgia	-3404
▁prendermi	-3405
▁ricchezze	-3406
▁settembre	-3407
▁sigaretta	-3408
▁sottovoce	-3409
▁stringimi	-3410
▁svegliano	-3411
▁addormento	-3412
▁arrabbiare	-3413
▁forestiera	-3414
▁indovinate	-3415
▁innamorate	-3416
▁mezzanotte	-3417
▁sopportare	-3418
▁zampognaro	-3419
▁abbracciati	-3420
▁abbracciato	-3421
▁chitarrella	-3422
▁ndanderandá	-3423
▁immediatamente	-3424
Do	-3425
Fi	-3426
Mi	-3427
ag	-3428
ah	-3429
bo	-3430
bu	-3431
rl	-3432
sì	-3433
Tor	-3434
ago	-3435
app	-3436
asp	-3437
col	-3438
enz	-3439
eva	-3440
frù	-3441
glu	-3442
gui	-3443
ini	-3444
mpo	-3445
res	-3446
rle	-3447
ule	-3448
▁"'	-3449
▁Ad	-3450
▁Fe	-3451
▁Là	-3452
▁Pu	-3453
▁Zi	-3454
▁uh	-3455
amba	-3456
ammo	-3457
aran	-3458
arof	-3459
asta	-3460
atti	-3461
bbli	-3462
date	-3463
dela	-3464
dimi	-3465
està	-3466
filz	-3467
gale	-3468
gata	-3469
mata	-3470
omba	-3471
omma	-3472
orri	-3473
osse	-3474
osti	-3475
pera	-3476
pote	-3477
rena	-3478
scal	-3479
tele	-3480
titì	-3481
ttim	-3482
uard	-3483
vato	-3484
vuto	-3485
▁App	-3486
▁Cre	-3487
▁Dal	-3488
▁Lav	-3489
▁Mal	-3490
▁Mio	-3491
▁Sba	-3492
▁ann	-3493
▁arg	-3494
▁bei	-3495
▁ecc	-3496
▁fan	-3497
▁ndr	-3498
▁pio	-3499
▁sed	-3500
▁vin	-3501
alleg	-3502
amerò	-3503
condo	-3504
forte	-3505
gnità	-3506
llone	-3507
nando	-3508
piere	-3509
ramma	-3510
ranno	-3511
riamo	-3512
ritto	-3513
rotto	-3514
ttato	-3515
ttono	-3516
viano	-3517
▁Alla	-3518
▁Buon	-3519
▁Cade	-3520
▁Feli	-3521
▁Mand	-3522
▁Pari	-3523
▁Sola	-3524
▁Tira	-3525
▁Voga	-3526
▁angi	-3527
▁assi	-3528
▁cane	-3529
▁cari	-3530
▁caso	-3531
▁coll	-3532
▁comi	-3533
▁diff	-3534
▁dita	-3535
▁dito	-3536
▁duro	-3537
▁fazz	-3538
▁gelo	-3539
▁gels	-3540
▁lira	-3541
▁modi	-3542
▁muro	-3543
▁naso	-3544
▁odio	-3545
▁oilà	-3546
▁otto	-3547
▁peri	-3548
▁puli	-3549
▁quei	-3550
▁resi	-3551
▁scio	-3552
▁sott	-3553
▁tene	-3554
▁visi	-3555
Signor	-3556
annalo	-3557
cchere	-3558
colaio	-3559
ginare	-3560
gliare	-3561
vedere	-3562
zzurra	-3563
▁Amici	-3564
▁Certo	-3565
▁Cicer	-3566
▁Dille	-3567
▁Dolce	-3568
▁Franc	-3569
▁Fuori	-3570
▁Guard	-3571
▁Piove	-3572
▁Raffa	-3573
▁Siete	-3574
▁Tempi	-3575
▁Torre	-3576
▁Vento	-3577
▁abitu	-3578
▁altre	-3579
▁arriv	-3580
▁beste	-3581
▁bugie	-3582
▁caldo	-3583
▁cassa	-3584
▁certi	-3585
▁cesta	-3586
▁color	-3587
▁corde	-3588
▁darei	-3589
▁denti	-3590
▁feste	-3591
▁garof	-3592
▁gioco	-3593
▁grapp	-3594
▁imbar	-3595
▁imbro	-3596
▁latte	-3597
▁lusso	-3598
▁masch	-3599
▁molla	-3600
▁monte	-3601
▁muove	-3602
▁pazza	-3603
▁pento	-3604
▁pezza	-3605
▁piene	-3606
▁pochi	-3607
▁prepa	-3608
▁presa	-3609
▁puntu	-3610
▁raggi	-3611
▁rampi	-3612
▁riemp	-3613
▁salgo	-3614
▁santo	-3615
▁sarai	-3616
▁scena	-3617
▁scesa	-3618
▁scont	-3619
▁scura	-3620
▁spera	-3621
▁stavi	-3622
▁tromb	-3623
▁venga	-3624
▁vigna	-3625
▁zappa	-3626
enzuola	-3627
filzalo	-3628
gadiere	-3629
ggiando	-3630
omiglia	-3631
omincia	-3632
▁Arriva	-3633
▁Faccia	-3634
▁Foglia	-3635
▁Grotta	-3636
▁Maruzz	-3637
▁Nuvole	-3638
▁Poesia	-3639
▁Quanta	-3640
▁Tititì	-3641
▁acceso	-3642
▁amanti	-3643
▁americ	-3644
▁amiche	-3645
▁antica	-3646
▁aperto	-3647
▁aprite	-3648
▁avessi	-3649
▁caduto	-3650
▁cantar	-3651
▁chiodo	-3652
▁contin	-3653
▁curare	-3654
▁debiti	-3655
▁durare	-3656
▁fatemi	-3657
▁glielo	-3658
▁illude	-3659
▁incate	-3660
▁labbra	-3661
▁limoni	-3662
▁làlala	-3663
▁macchi	-3664
▁marino	-3665
▁minuto	-3666
▁novena	-3667
▁poteva	-3668
▁prepar	-3669
▁quarto	-3670
▁quelli	-3671
▁regalo	-3672
▁riempi	-3673
▁rimane	-3674
▁riposa	-3675
▁risata	-3676
▁riscal	-3677
▁salita	-3678
▁saputo	-3679
▁sbagli	-3680
▁sentir	-3681
▁sirene	-3682
▁spegne	-3683
▁spetta	-3684
▁stordi	-3685
▁tavola	-3686
▁tratti	-3687
▁tristi	-3688
▁ttuppe	-3689
▁uccide	-3690
▁uscito	-3691
▁vedevo	-3692
▁vostro	-3693
allegria	-3694
▁America	-3695
▁Azzurra	-3696
▁Diciamo	-3697
▁Nemmeno	-3698
▁Piccola	-3699
▁accompa	-3700
▁approfi	-3701
▁attenta	-3702
▁bancare	-3703
▁cammini	-3704
▁campagn	-3705
▁candela	-3706
▁carezze	-3707
▁cercare	-3708
▁credevo	-3709
▁credimi	-3710
▁crudele	-3711
▁cuscino	-3712
▁dicendo	-3713
▁dirotto	-3714
▁diventi	-3715
▁diventò	-3716
▁dormite	-3717
▁faccino	-3718
▁fischio	-3719
▁incanto	-3720
▁lariulà	-3721
▁lariulì	-3722
▁mattine	-3723
▁mischia	-3724
▁napolet	-3725
▁palazzo	-3726
▁partita	-3727
▁passate	-3728
▁pensava	-3729
▁persona	-3730
▁piccoli	-3731
▁portate	-3732
▁potessi	-3733
▁provare	-3734
▁restare	-3735
▁risparm	-3736
▁sapendo	-3737
▁sbaglio	-3738
▁scambia	-3739
▁schizzi	-3740
▁sciacqu	-3741
▁sognati	-3742
▁sognato	-3743
▁stretti	-3744
▁vedendo	-3745
▁vediamo	-3746
▁velluta	-3747
▁vendere	-3748
▁Marinaio	-3749
▁Prenditi	-3750
▁Spagnoli	-3751
▁baciarla	-3752
▁banchina	-3753
▁benedico	-3754
▁biondina	-3755
▁chiamato	-3756
▁comprato	-3757
▁dispiace	-3758
▁farfalla	-3759
▁farfalle	-3760
▁guadagna	-3761
▁guarisce	-3762
▁immagina	-3763
▁nacchere	-3764
▁parliamo	-3765
▁perdendo	-3766
▁perdiamo	-3767
▁prigione	-3768
▁quindici	-3769
▁rispetta	-3770
▁sentirti	-3771
▁speranze	-3772
▁spezzato	-3773
▁terrazzo	-3774
▁troverai	-3775
▁turchini	-3776
▁Cicerchia	-3777
▁allontana	-3778
▁ascoltare	-3779
▁attaccato	-3780
▁baciamoci	-3781
▁carcerato	-3782
▁cocchiere	-3783
▁consiglia	-3784
▁consiglio	-3785
▁distratta	-3786
▁fortunato	-3787
▁incantati	-3788
▁innamorai	-3789
▁lasciando	-3790
▁lasciarmi	-3791
▁lasciarti	-3792
▁pergolato	-3793
▁possibile	-3794
▁profumate	-3795
▁ragionare	-3796
▁scontento	-3797
▁scugnizzi	-3798
▁splendono	-3799
▁succhiati	-3800
▁svegliata	-3801
rammariello	-3802
▁Bambinello	-3803
▁addormenti	-3804
▁angioletto	-3805
▁buongiorno	-3806
▁immaginare	-3807
▁incontrata	-3808
▁indovinare	-3809
▁rampicanti	-3810
▁rondinella	-3811
▁tradimenti	-3812
▁ttràcchete	-3813
▁Ascoltatemi	-3814
▁Piedigrotta	-3815
▁bersaglieri	-3816
▁finestrella	-3817
▁mandolinata	-3818
▁passeggiare	-3819
▁addormentata	-3820
▁allontanarsi	-3821
▁dimenticarti	-3822
▁puntualmente	-3823
▁Chiappariello	-3824
."	-3825
Bu	-3826
Ri	-3827
bà	-3828
gr	-3829
im	-3830
oh	-3831
vì	-3832
Sta	-3833
acc	-3834
ass	-3835
dor	-3836
end	-3837
erm	-3838
erv	-3839
ghe	-3840
gra	-3841
lia	-3842
mbu	-3843
muo	-3844
nza	-3845
olé	-3846
qua	-3847
rie	-3848
tré	-3849
ttò	-3850
upa	-3851
zie	-3852
▁Fu	-3853
▁Gu	-3854
▁Vu	-3855
▁oè	-3856
▁us	-3857
▁za	-3858
Come	-3859
Torn	-3860
aaah	-3861
annì	-3862
bbio	-3863
bina	-3864
ccic	-3865
cerò	-3866
cita	-3867
cusa	-3868
enda	-3869
iate	-3870
lino	-3871
meno	-3872
ppie	-3873
rang	-3874
rone	-3875
ster	-3876
taio	-3877
teli	-3878
tico	-3879
tino	-3880
toni	-3881
ttri	-3882
turo	-3883
unto	-3884
usta	-3885
veri	-3886
vita	-3887
vità	-3888
vone	-3889
zare	-3890
▁Dic	-3891
▁Ecc	-3892
▁Ehi	-3893
▁Gia	-3894
▁Isa	-3895
▁Nan	-3896
▁Ohè	-3897
▁Pre	-3898
▁Può	-3899
▁Qui	-3900
▁Sai	-3901
▁Sul	-3902
▁Ten	-3903
▁Ter	-3904
▁Tua	-3905
▁Via	-3906
▁asi	-3907
▁bal	-3908
▁cic	-3909
▁cio	-3910
▁cri	-3911
▁des	-3912
▁est	-3913
▁fal	-3914
▁fur	-3915
▁ind	-3916
▁ins	-3917
▁lar	-3918
▁occ	-3919
▁off	-3920
▁ohé	-3921
▁pul	-3922
▁rif	-3923
▁roc	-3924
▁rub	-3925
▁sfo	-3926
▁toc	-3927
▁zio	-3928
Maria	-3929
amata	-3930
amela	-3931
carsi	-3932
gnata	-3933
iccic	-3934
llano	-3935
llare	-3936
lline	-3937
mbula	-3938
metti	-3939
monta	-3940
olora	-3941
onate	-3942
posta	-3943
ppare	-3944
ressi	-3945
schia	-3946
sione	-3947
ssare	-3948
state	-3949
stesa	-3950
tanti	-3951
ttare	-3952
unque	-3953
usica	-3954
veria	-3955
verie	-3956
verti	-3957
viera	-3958
vista	-3959
▁Anzi	-3960
▁Baci	-3961
▁Ciro	-3962
▁Dico	-3963
▁Gior	-3964
▁Oggi	-3965
▁Ride	-3966
▁Sale	-3967
▁Semp	-3968
▁Sole	-3969
▁Vedo	-3970
▁Vent	-3971
▁abba	-3972
▁acce	-3973
▁ahim	-3974
▁alza	-3975
▁aran	-3976
▁babà	-3977
▁bona	-3978
▁cana	-3979
▁core	-3980
▁cupo	-3981
▁deci	-3982
▁diam	-3983
▁esco	-3984
▁lava	-3985
▁lino	-3986
▁maga	-3987
▁mang	-3988
▁meda	-3989
▁melo	-3990
▁mina	-3991
▁mini	-3992
▁muri	-3993
▁oilì	-3994
▁peli	-3995
▁pesa	-3996
▁remi	-3997
▁rifi	-3998
▁rigi	-3999
▁rime	-4000
▁rinf	-4001
▁ring	-4002
▁riva	-4003
▁roba	-4004
▁roll	-4005
▁sala	-4006
▁scru	-4007
▁sete	-4008
▁spre	-4009
▁trap	-4010
▁trip	-4011
▁voli	-4012
Guarda	-4013
Quella	-4014
aldoli	-4015
andaia	-4016
artino	-4017
bblico	-4018
chiamo	-4019
cienza	-4020
entato	-4021
eresti	-4022
iamola	-4023
infame	-4024
oncino	-4025
orelle	-4026
tamone	-4027
tolina	-4028
▁Avevo	-4029
▁Buona	-4030
▁Dillo	-4031
▁Entra	-4032
▁Fogli	-4033
▁Mette	-4034
▁Nella	-4035
▁Padre	-4036
▁Parla	-4037
▁Peppe	-4038
▁Quale	-4039
▁Santi	-4040
▁Siamo	-4041
▁Visto	-4042
▁agita	-4043
▁altra	-4044
▁amari	-4045
▁bagno	-4046
▁calmo	-4047
▁carne	-4048
▁carni	-4049
▁cieco	-4050
▁collo	-4051
▁comin	-4052
▁confi	-4053
▁dagli	-4054
▁darmi	-4055
▁degna	-4056
▁degno	-4057
▁dieci	-4058
▁dirmi	-4059
▁dirti	-4060
▁entri	-4061
▁farvi	-4062
▁fermo	-4063
▁fiato	-4064
▁gatta	-4065
▁goder	-4066
▁gradi	-4067
▁grado	-4068
▁grani	-4069
▁impas	-4070
▁mamme	-4071
▁meren	-4072
▁miele	-4073
▁morso	-4074
▁morti	-4075
▁nocci	-4076
▁palla	-4077
▁paure	-4078
▁perse	-4079
▁pezze	-4080
▁pezzi	-4081
▁pizze	-4082
▁presi	-4083
▁prome	-4084
▁provo	-4085
▁punto	-4086
▁ricca	-4087
▁sacco	-4088
▁santi	-4089
▁sarei	-4090
▁scale	-4091
▁sentì	-4092
▁servi	-4093
▁sonna	-4094
▁sorda	-4095
▁spagn	-4096
▁stesa	-4097
▁sullo	-4098
▁sveni	-4099
▁tolto	-4100
▁tondo	-4101
▁torto	-4102
▁tremi	-4103
▁venir	-4104
▁verdi	-4105
▁vermi	-4106
▁verso	-4107
▁villa	-4108
▁viola	-4109
▁volle	-4110
arancio	-4111
azzurro	-4112
ciamoci	-4113
endario	-4114
essione	-4115
natella	-4116
ttimana	-4117
▁Appena	-4118
▁Catena	-4119
▁Dentro	-4120
▁Dicono	-4121
▁Faccio	-4122
▁Malinc	-4123
▁Mister	-4124
▁Musica	-4125
▁Povera	-4126
▁Signor	-4127
▁Sirene	-4128
▁Stelle	-4129
▁String	-4130
▁acchia	-4131
▁aprono	-4132
▁arrivo	-4133
▁benedi	-4134
▁camera	-4135
▁capace	-4136
▁capita	-4137
▁carità	-4138
▁chiudo	-4139
▁colomb	-4140
▁cresci	-4141
▁dispre	-4142
▁ditemi	-4143
▁dovere	-4144
▁fargli	-4145
▁geloso	-4146
▁giacca	-4147
▁giallo	-4148
▁grazia	-4149
▁ingino	-4150
▁melone	-4151
▁meloni	-4152
▁monaco	-4153
▁nessun	-4154
▁nipote	-4155
▁novità	-4156
▁paglia	-4157
▁pancia	-4158
▁pianti	-4159
▁piazza	-4160
▁portai	-4161
▁quadro	-4162
▁reggia	-4163
▁remare	-4164
▁ridare	-4165
▁rovina	-4166
▁salito	-4167
▁sangui	-4168
▁sirena	-4169
▁smuove	-4170
▁spezza	-4171
▁stanza	-4172
▁strazi	-4173
▁tesoro	-4174
▁ucciso	-4175
▁uguale	-4176
▁volere	-4177
incontra	-4178
▁Dicesti	-4179
▁Insieme	-4180
▁Mafioso	-4181
▁Martino	-4182
▁Napoleò	-4183
▁Neanche	-4184
▁Perfino	-4185
▁Suonate	-4186
▁abbassa	-4187
▁accanto	-4188
▁autunno	-4189
▁azzurro	-4190
▁baciate	-4191
▁baciava	-4192
▁bagnato	-4193
▁carnale	-4194
▁colomba	-4195
▁consuma	-4196
▁contare	-4197
▁correre	-4198
▁corrono	-4199
▁dammela	-4200
▁dignità	-4201
▁dimmelo	-4202
▁diritto	-4203
▁distesa	-4204
▁entrato	-4205
▁faranno	-4206
▁fattura	-4207
▁fermare	-4208
▁fermati	-4209
▁festino	-4210
▁fresche	-4211
▁garzone	-4212
▁giurare	-4213
▁infondo	-4214
▁lontane	-4215
▁mammina	-4216
▁mandare	-4217
▁mattino	-4218
▁mettere	-4219
▁milioni	-4220
▁notizia	-4221
▁orecchi	-4222
▁ottanta	-4223
▁pallone	-4224
▁parente	-4225
▁passati	-4226
▁pensate	-4227
▁pettina	-4228
▁piccole	-4229
▁pizzico	-4230
▁portava	-4231
▁portone	-4232
▁profond	-4233
▁qualità	-4234
▁ridendo	-4235
▁ridotto	-4236
▁scianto	-4237
▁secondo	-4238
▁strazio	-4239
▁tazzina	-4240
▁tornerà	-4241
▁trovate	-4242
▁vederla	-4243
▁velluto	-4244
▁ventuno	-4245
▁volesse	-4246
▁vongola	-4247
▁zoccolé	-4248
▁Felicità	-4249
▁Mariannì	-4250
▁Tramonta	-4251
▁acconten	-4252
▁afflitto	-4253
▁appiccic	-4254
▁arrabbio	-4255
▁arrivano	-4256
▁asinello	-4257
▁assicuro	-4258
▁birbante	-4259
▁bugiardo	-4260
▁cambiano	-4261
▁carretto	-4262
▁dicevano	-4263
▁diffonde	-4264
▁dividere	-4265
▁giornali	-4266
▁grappoli	-4267
▁imparare	-4268
▁impressi	-4269
▁incontro	-4270
▁lenzuola	-4271
▁litigato	-4272
▁marinare	-4273
▁martello	-4274
▁maschera	-4275
▁mettiamo	-4276
▁montagne	-4277
▁pompiere	-4278
▁promessa	-4279
▁qualcosa	-4280
▁rossetto	-4281
▁schiaffi	-4282
▁scompare	-4283
▁speciali	-4284
▁sperando	-4285
▁sposarci	-4286
▁sposarti	-4287
▁successe	-4288
▁Napoleone	-4289
▁Primavera	-4290
▁Ragazzino	-4291
▁Svegliati	-4292
▁allontani	-4293
▁asciugare	-4294
▁bestemmia	-4295
▁cartolina	-4296
▁coscienza	-4297
▁dipingere	-4298
▁distrutto	-4299
▁gelsomini	-4300
▁imbarcato	-4301
▁ingannato	-4302
▁passeggia	-4303
▁pastiglia	-4304
▁poveretto	-4305
▁ricchezza	-4306
▁risparmia	-4307
▁ritornano	-4308
▁sbagliato	-4309
▁splendore	-4310
▁succedere	-4311
▁succhialo	-4312
▁tiritomba	-4313
▁ubriacato	-4314
orchestrina	-4315
▁Bellavista	-4316
▁Chiatamone	-4317
▁Farfallina	-4318
▁Lasciamoci	-4319
▁affacciate	-4320
▁altrimenti	-4321
▁bancarelle	-4322
▁bastimento	-4323
▁brigadiere	-4324
▁calendario	-4325
▁cattiveria	-4326
▁cattiverie	-4327
▁cominciare	-4328
▁conosciuta	-4329
▁dispettosa	-4330
▁fazzoletto	-4331
▁giacchetta	-4332
▁incatenare	-4333
▁lentamente	-4334
▁metteresti	-4335
▁napoletane	-4336
▁raccomanda	-4337
▁scellerata	-4338
▁semplicità	-4339
▁sentinella	-4340
▁sfortunato	-4341
▁sonnambula	-4342
▁stamattina	-4343
▁tranquillo	-4344
▁vecchietto	-4345
▁Mandolinata	-4346
▁abbandonata	-4347
▁finestrelle	-4348
▁tiritùppete	-4349
▁accompagnare	-4350
▁appassionata	-4351
▁appassionati	-4352
▁divertimento	-4353
▁Sfortunatella	-4354
▁Sfortunatello	-4355
▁presentimento	-4356
▁profondamente	-4357
▁trallarillirá	-4358
!!	-4359
'.	-4360
Lo	-4361
ac	-4362
mò	-4363
nò	-4364
od	-4365
▁,	-4366
All	-4367
Cal	-4368
Ehi	-4369
Ori	-4370
Qua	-4371
Qui	-4372
Vai	-4373
abb	-4374
ars	-4375
bba	-4376
bio	-4377
bre	-4378
cin	-4379
ciu	-4380
don	-4381
fal	-4382
ggo	-4383
imb	-4384
ing	-4385
las	-4386
lor	-4387
mbè	-4388
men	-4389
pio	-4390
stu	-4391
trò	-4392
tur	-4393
▁Bi	-4394
▁Co	-4395
▁Na	-4396
▁Tt	-4397
▁au	-4398
▁ge	-4399
▁hi	-4400
Buon	-4401
Titì	-4402
affi	-4403
aldo	-4404
amai	-4405
anas	-4406
apri	-4407
bbie	-4408
cene	-4409
cero	-4410
chie	-4411
curi	-4412
dale	-4413
deri	-4414
derò	-4415
erma	-4416
esco	-4417
fono	-4418
garo	-4419
gere	-4420
gida	-4421
iara	-4422
infa	-4423
inte	-4424
ment	-4425
migr	-4426
molo	-4427
nema	-4428
osce	-4429
otto	-4430
pino	-4431
quar	-4432
rito	-4433
sten	-4434
talo	-4435
tani	-4436
tati	-4437
timb	-4438
tiva	-4439
uore	-4440
utar	-4441
utto	-4442
verà	-4443
zios	-4444
▁All	-4445
▁Cas	-4446
▁Cri	-4447
▁Dam	-4448
▁Fra	-4449
▁Gel	-4450
▁Sap	-4451
▁Sol	-4452
▁Toc	-4453
▁Uhi	-4454
▁Ver	-4455
▁Zin	-4456
▁alz	-4457
▁amm	-4458
▁bav	-4459
▁fil	-4460
▁fun	-4461
▁gen	-4462
▁gon	-4463
▁ina	-4464
▁ini	-4465
▁lic	-4466
▁loc	-4467
▁ndà	-4468
▁num	-4469
▁nuv	-4470
▁ohè	-4471
▁pec	-4472
▁pip	-4473
▁rea	-4474
▁ruo	-4475
▁sbo	-4476
▁sin	-4477
▁spu	-4478
▁sue	-4479
▁ton	-4480
▁top	-4481
▁uni	-4482
▁uva	-4483
▁val	-4484
▁vib	-4485
alato	-4486
amico	-4487
angui	-4488
araci	-4489
arosa	-4490
ccher	-4491
celli	-4492
ciata	-4493
ciere	-4494
cietà	-4495
cioff	-4496
cquai	-4497
derai	-4498
detto	-4499
enari	-4500
entra	-4501
estre	-4502
gando	-4503
garmi	-4504
ggere	-4505
giare	-4506
gioni	-4507
glese	-4508
grano	-4509
letta	-4510
lette	-4511
llati	-4512
mella	-4513
mello	-4514
monia	-4515
nelle	-4516
nesia	-4517
netto	-4518
ngici	-4519
niamo	-4520
occhi	-4521
onico	-4522
pille	-4523
razio	-4524
ronto	-4525
sando	-4526
signo	-4527
sogno	-4528
stato	-4529
stere	-4530
tanza	-4531
tegge	-4532
ttolo	-4533
ttoni	-4534
ttuta	-4535
uccio	-4536
vello	-4537
venti	-4538
vento	-4539
zzami	-4540
▁Anch	-4541
▁Anti	-4542
▁Bene	-4543
▁Capi	-4544
▁Dite	-4545
▁Fior	-4546
▁Font	-4547
▁Gira	-4548
▁Mali	-4549
▁Otta	-4550
▁Puoi	-4551
▁Quel	-4552
▁Risp	-4553
▁Usci	-4554
▁Vogl	-4555
▁albe	-4556
▁alzo	-4557
▁amma	-4558
▁ammi	-4559
▁bari	-4560
▁bast	-4561
▁cagn	-4562
▁calp	-4563
▁cham	-4564
▁cima	-4565
▁cimi	-4566
▁coda	-4567
▁cond	-4568
▁dica	-4569
▁disc	-4570
▁erba	-4571
▁esag	-4572
▁esci	-4573
▁fabb	-4574
▁feri	-4575
▁frac	-4576
▁gino	-4577
▁giur	-4578
▁gola	-4579
▁lume	-4580
▁maes	-4581
▁mone	-4582
▁mura	-4583
▁nerv	-4584
▁nfrù	-4585
▁nomi	-4586
▁rimb	-4587
▁rubi	-4588
▁salv	-4589
▁sarò	-4590
▁serp	-4591
▁stro	-4592
▁tamb	-4593
▁tamm	-4594
▁tipo	-4595
▁vale	-4596
▁vezz	-4597
▁vide	-4598
▁zero	-4599
Figlio	-4600
altare	-4601
andolo	-4602
andomi	-4603
angelo	-4604
aranto	-4605
arelle	-4606
astero	-4607
citare	-4608
colore	-4609
cusate	-4610
dicare	-4611
entate	-4612
eriere	-4613
ettate	-4614
ffetti	-4615
ggiate	-4616
gialli	-4617
goglio	-4618
inella	-4619
oletti	-4620
ondono	-4621
racoli	-4622
rovvis	-4623
ustare	-4624
▁Acqua	-4625
▁Capri	-4626
▁Compa	-4627
▁Corre	-4628
▁Digli	-4629
▁Donne	-4630
▁Falle	-4631
▁Hanno	-4632
▁Isaia	-4633
▁Ninna	-4634
▁Notte	-4635
▁Passe	-4636
▁Pesca	-4637
▁Porto	-4638
▁Ritor	-4639
▁Sulla	-4640
▁Tanti	-4641
▁Terzi	-4642
▁Trema	-4643
▁ahimè	-4644
▁alici	-4645
▁amica	-4646
▁bordo	-4647
▁bruci	-4648
▁buone	-4649
▁busto	-4650
▁butto	-4651
▁cesto	-4652
▁ciara	-4653
▁colpo	-4654
▁convi	-4655
▁corta	-4656
▁crava	-4657
▁cresc	-4658
▁desti	-4659
▁emigr	-4660
▁entro	-4661
▁espre	-4662
▁facce	-4663
▁falle	-4664
▁falli	-4665
▁farsi	-4666
▁fasce	-4667
▁gioie	-4668
▁grido	-4669
▁guaio	-4670
▁infor	-4671
▁ingen	-4672
▁intre	-4673
▁ladru	-4674
▁lampa	-4675
▁largo	-4676
▁legno	-4677
▁litro	-4678
▁lungo	-4679
▁manto	-4680
▁mormo	-4681
▁muoia	-4682
▁nacqu	-4683
▁ombre	-4684
▁panni	-4685
▁pasta	-4686
▁pazzi	-4687
▁pisto	-4688
▁poltr	-4689
▁popol	-4690
▁poppa	-4691
▁poter	-4692
▁potrò	-4693
▁predi	-4694
▁prete	-4695
▁primi	-4696
▁punte	-4697
▁rumba	-4698
▁sacri	-4699
▁samba	-4700
▁scemo	-4701
▁scene	-4702
▁scesi	-4703
▁scure	-4704
▁serio	-4705
▁servì	-4706
▁siano	-4707
▁spasi	-4708
▁spose	-4709
▁squar	-4710
▁stamp	-4711
▁tazza	-4712
▁terza	-4713
▁testi	-4714
▁tragi	-4715
▁tremo	-4716
▁tuoni	-4717
▁vince	-4718
Oriente	-4719
andrino	-4720
aspetta	-4721
cchiata	-4722
chestra	-4723
elletti	-4724
eriggio	-4725
quattro	-4726
▁Aprile	-4727
▁Chiesa	-4728
▁Devono	-4729
▁Fatemi	-4730
▁Fresca	-4731
▁Invece	-4732
▁Madama	-4733
▁Maggio	-4734
▁Nemica	-4735
▁Piange	-4736
▁Piango	-4737
▁Quelle	-4738
▁Sempre	-4739
▁Spagna	-4740
▁Stammi	-4741
▁Tirità	-4742
▁Venite	-4743
▁almeno	-4744
▁aperta	-4745
▁appese	-4746
▁attimo	-4747
▁chiedi	-4748
▁chiuse	-4749
▁commuo	-4750
▁denari	-4751
▁divide	-4752
▁eppure	-4753
▁fedele	-4754
▁ferita	-4755
▁figlie	-4756
▁frutta	-4757
▁frutti	-4758
▁giusto	-4759
▁grembo	-4760
▁grotta	-4761
▁gruppo	-4762
▁illudi	-4763
▁inchio	-4764
▁intera	-4765
▁maledi	-4766
▁mangio	-4767
▁marcia	-4768
▁misero	-4769
▁notaio	-4770
▁nuvola	-4771
▁onesto	-4772
▁papino	-4773
▁parten	-4774
▁polipi	-4775
▁potete	-4776
▁potevo	-4777
▁pulito	-4778
▁ricamo	-4779
▁sapete	-4780
▁scelto	-4781
▁scendo	-4782
▁scolla	-4783
▁scrivo	-4784
▁secoli	-4785
▁sicura	-4786
▁sicuro	-4787
▁smette	-4788
▁soffro	-4789
▁solito	-4790
▁spende	-4791
▁spergi	-4792
▁spunti	-4793
▁stammi	-4794
▁strano	-4795
▁strapp	-4796
▁teatri	-4797
▁teneva	-4798
▁toglie	-4799
▁uccisa	-4800
▁uscita	-4801
▁valore	-4802
▁vedete	-4803
▁vedono	-4804
▁veloce	-4805
▁vicini	-4806
Calamita	-4807
affaccia	-4808
arcolaio	-4809
asinello	-4810
chiamoci	-4811
timbanco	-4812
ziosella	-4813
▁Brigida	-4814
▁Cammina	-4815
▁Conosco	-4816
▁Dimmelo	-4817
▁Giovano	-4818
▁Mandami	-4819
▁Riviera	-4820
▁Sorella	-4821
▁Stringi	-4822
▁Tenente	-4823
▁Vienimi	-4824
▁accordo	-4825
▁accorgi	-4826
▁aiutare	-4827
▁argento	-4828
▁asciuga	-4829
▁attacco	-4830
▁avresti	-4831
▁baciami	-4832
▁baciato	-4833
▁bambini	-4834
▁bianche	-4835
▁bianchi	-4836
▁bottoni	-4837
▁buttare	-4838
▁capanna	-4839
▁cattivi	-4840
▁cocente	-4841
▁collana	-4842
▁corallo	-4843
▁cretina	-4844
▁diamole	-4845
▁dipinto	-4846
▁diverte	-4847
▁domanda	-4848
▁dormiva	-4849
▁dovesse	-4850
▁entrare	-4851
▁entrata	-4852
▁farebbe	-4853
▁faresti	-4854
▁farmelo	-4855
▁finisco	-4856
▁fiorite	-4857
▁fragola	-4858
▁graffia	-4859
▁infuoca	-4860
▁ingrata	-4861
▁ingrato	-4862
▁innaffi	-4863
▁invidia	-4864
▁lamento	-4865
▁lascerò	-4866
▁lavanda	-4867
▁leggere	-4868
▁leggero	-4869
▁lontani	-4870
▁maccher	-4871
▁mancare	-4872
▁merenda	-4873
▁miseria	-4874
▁muovere	-4875
▁nascere	-4876
▁partori	-4877
▁passata	-4878
▁passerà	-4879
▁peccati	-4880
▁pentita	-4881
▁perfino	-4882
▁pochino	-4883
▁polizia	-4884
▁portano	-4885
▁portati	-4886
▁pregato	-4887
▁presepe	-4888
▁profumi	-4889
▁pupille	-4890
▁ricorda	-4891
▁rimedio	-4892
▁ripassa	-4893
▁sardina	-4894
▁scarola	-4895
▁scherza	-4896
▁schiavo	-4897
▁scialle	-4898
▁scivola	-4899
▁sentiva	-4900
▁servire	-4901
▁servono	-4902
▁sinceri	-4903
▁società	-4904
▁sorelle	-4905
▁spadina	-4906
▁spoglia	-4907
▁sposano	-4908
▁stanchi	-4909
▁strette	-4910
▁treccia	-4911
▁trovere	-4912
▁vedermi	-4913
▁vestita	-4914
▁vibrare	-4915
aracianno	-4916
▁Chitarra	-4917
▁Facciamo	-4918
▁Finestra	-4919
▁Ridevano	-4920
▁Serenata	-4921
▁Soltanto	-4922
▁Torretta	-4923
▁Vogliono	-4924
▁aggiusta	-4925
▁allegria	-4926
▁andarono	-4927
▁braciere	-4928
▁bruciare	-4929
▁calamita	-4930
▁cammello	-4931
▁cappelli	-4932
▁capricci	-4933
▁carretta	-4934
▁carrozze	-4935
▁chiedere	-4936
▁cimitero	-4937
▁confetti	-4938
▁conserva	-4939
▁disperde	-4940
▁dovrebbe	-4941
▁duecento	-4942
▁fantasie	-4943
▁fratelli	-4944
▁frenesia	-4945
▁garofani	-4946
▁giocando	-4947
▁grattato	-4948
▁guadagno	-4949
▁guardava	-4950
▁ingialli	-4951
▁lampione	-4952
▁lasciami	-4953
▁lasciata	-4954
▁lasciate	-4955
▁macchina	-4956
▁malavita	-4957
▁mangiato	-4958
▁medaglia	-4959
▁militare	-4960
▁miracoli	-4961
▁nascosta	-4962
▁orecchie	-4963
▁orologio	-4964
▁pensarci	-4965
▁pensiamo	-4966
▁pericolo	-4967
▁piangevi	-4968
▁piantato	-4969
▁portando	-4970
▁portarla	-4971
▁prenditi	-4972
▁profondo	-4973
▁promesso	-4974
▁pubblico	-4975
▁quantità	-4976
▁risatina	-4977
▁rispetto	-4978
▁risposta	-4979
▁salutare	-4980
▁scannalo	-4981
▁scendete	-4982
▁sentirmi	-4983
▁sergente	-4984
▁simpatia	-4985
▁spavaldo	-4986
▁specchia	-4987
▁spiegare	-4988
▁spostare	-4989
▁stagione	-4990
▁stendono	-4991
▁studente	-4992
▁tammorre	-4993
▁topolino	-4994
▁trecento	-4995
▁trovarti	-4996
▁zampogne	-4997
▁Antignano	-4998
▁Camaldoli	-4999
▁Lavandaia	-5000
▁Mariarosa	-5001
▁Monastero	-5002
▁Ottaviano	-5003
▁accarezzo	-5004
▁americana	-5005
▁appassita	-5006
▁aspettami	-5007
▁brillante	-5008
▁cagnolino	-5009
▁camicetta	-5010
▁champagne	-5011
▁comparire	-5012
▁costruita	-5013
▁destinato	-5014
▁disperare	-5015
▁impastare	-5016
▁improvvis	-5017
▁infilzalo	-5018
▁interessa	-5019
▁maltratta	-5020
▁melograno	-5021
▁passaggio	-5022
▁picchiano	-5023
▁pizzaiolo	-5024
▁profumato	-5025
▁ragazzine	-5026
▁riconosce	-5027
▁ringrazio	-5028
▁ritornato	-5029
▁sbagliata	-5030
▁sbocciare	-5031
▁scherzare	-5032
▁scontrosa	-5033
▁settimana	-5034
▁signorino	-5035
▁solitario	-5036
▁sospirato	-5037
▁stornello	-5038
▁straniere	-5039
▁svegliate	-5040
▁tripoline	-5041
▁veramente	-5042
▁Diteglielo	-5043
▁Napoletani	-5044
▁Nonostante	-5045
▁Sfortunatè	-5046
▁Ttràcchete	-5047
▁accompagno	-5048
▁affacciata	-5049
▁aggiustare	-5050
▁approfitti	-5051
▁assomiglia	-5052
▁campagnola	-5053
▁cantiniere	-5054
▁confessore	-5055
▁desiderare	-5056
▁divertirsi	-5057
▁farfallina	-5058
▁giocattolo	-5059
▁giovanotti	-5060
▁illuminato	-5061
▁intenerire	-5062
▁malandrino	-5063
▁nonostante	-5064
▁pezzettino	-5065
▁pomeriggio	-5066
▁rispettare	-5067
▁rondinelle	-5068
▁sbagliando	-5069
▁sottanella	-5070
▁sposiamoci	-5071
▁svegliarti	-5072
▁tormentare	-5073
▁tranquilla	-5074
▁vermicelli	-5075
▁zingarella	-5076
▁Malinconico	-5077
▁Tiritàppete	-5078
▁abbracciare	-5079
▁capricciosa	-5080
▁controllati	-5081
▁malinconico	-5082
▁serenatella	-5083
▁Maliziosella	-5084
▁Paparacianno	-5085
▁Stringiamoci	-5086
▁appuntamento	-5087
▁sfortunatella	-5088
▁distrattamente	-5089
▁improvvisamente	-5090
An	-5091
Da	-5092
Gu	-5093
Pa	-5094
Ra	-5095
Sc	-5096
Su	-5097
Zi	-5098
be	-5099
bè	-5100
dì	-5101
eb	-5102
ee	-5103
▁-	-5104
Glu	-5105
Nun	-5106
Una	-5107
alb	-5108
alu	-5109
amm	-5110
anc	-5111
asc	-5112
ate	-5113
ble	-5114
bus	-5115
cam	-5116
ciù	-5117
dar	-5118
dda	-5119
dea	-5120
des	-5121
dri	-5122
drò	-5123
eff	-5124
ens	-5125
hia	-5126
iav	-5127
ina	-5128
iov	-5129
mbi	-5130
mos	-5131
ndi	-5132
nis	-5133
oda	-5134
olá	-5135
ood	-5136
pie	-5137
red	-5138
rin	-5139
rli	-5140
ser	-5141
toc	-5142
ucc	-5143
udi	-5144
uma	-5145
vai	-5146
voi	-5147
vvi	-5148
▁..	-5149
▁Ai	-5150
▁Ap	-5151
▁Av	-5152
▁gr	-5153
▁hà	-5154
▁nf	-5155
▁pp	-5156
▁sé	-5157
Cara	-5158
Vita	-5159
Vole	-5160
aaaa	-5161
amos	-5162
ango	-5163
arli	-5164
atta	-5165
azzi	-5166
bato	-5167
buso	-5168
caro	-5169
ccav	-5170
cchè	-5171
cela	-5172
ceni	-5173
cili	-5174
cine	-5175
cone	-5176
coso	-5177
data	-5178
dini	-5179
egna	-5180
erop	-5181
fara	-5182
feri	-5183
fifi	-5184
filo	-5185
gine	-5186
gnor	-5187
iare	-5188
idea	-5189
imma	-5190
indi	-5191
inqu	-5192
lláh	-5193
mbri	-5194
mico	-5195
mila	-5196
mpio	-5197
nava	-5198
odio	-5199
Dove	-5200
Glor	-5201
Ital	-5202
omeo	-5203
onne	-5204
orso	-5205
ospe	-5206
ossi	-5207
pelo	-5208
poca	-5209
poli	-5210
quet	-5211
quie	-5212
razi	-5213
rite	-5214
ráll	-5215
sami	-5216
sede	-5217
simo	-5218
sità	-5219
sola	-5220
sori	-5221
spor	-5222
stor	-5223
tate	-5224
timo	-5225
tire	-5226
uoco	-5227
vene	-5228
verò	-5229
vite	-5230
zoni	-5231
▁Aaa	-5232
▁Ass	-5233
▁Ero	-5234
▁Imp	-5235
▁Inc	-5236
▁Nin	-5237
▁Sia	-5238
▁Spe	-5239
▁Tac	-5240
▁Tri	-5241
▁Ttu	-5242
▁Vol	-5243
▁Zio	-5244
▁abi	-5245
▁ara	-5246
▁ari	-5247
▁arr	-5248
▁bou	-5249
▁bue	-5250
▁caf	-5251
▁cie	-5252
▁ciù	-5253
▁dar	-5254
▁dec	-5255
▁dur	-5256
▁ese	-5257
▁fam	-5258
▁fir	-5259
▁fro	-5260
▁gem	-5261
▁lan	-5262
▁moi	-5263
▁nec	-5264
▁pis	-5265
▁pru	-5266
▁san	-5267
▁seh	-5268
▁sfu	-5269
▁tic	-5270
▁url	-5271
▁vir	-5272
Aaaah	-5273
Bella	-5274
Cuore	-5275
Entra	-5276
Santa	-5277
abitu	-5278
accom	-5279
avete	-5280
busci	-5281
carta	-5282
ciami	-5283
ciare	-5284
cista	-5285
denza	-5286
dermi	-5287
dersi	-5288
derti	-5289
detta	-5290
diche	-5291
drone	-5292
ebano	-5293
endio	-5294
erano	-5295
erina	-5296
ffone	-5297
fitta	-5298
garti	-5299
Raga	-5300
gioli	-5301
gnilo	-5302
gnona	-5303
iamma	-5304
lende	-5305
llino	-5306
losci	-5307
ndisi	-5308
ntina	-5309
oiono	-5310
olaio	-5311
olata	-5312
onali	-5313
onami	-5314
opera	-5315
orero	-5316
ostri	-5317
perte	-5318
quisi	-5319
remmo	-5320
rende	-5321
riulì	-5322
setta	-5323
ssato	-5324
ssero	-5325
stare	-5326
tagne	-5327
tarda	-5328
tarle	-5329
tarsi	-5330
tarti	-5331
tengo	-5332
tiche	-5333
tosta	-5334
ttata	-5335
ttati	-5336
ttiva	-5337
unale	-5338
unghe	-5339
unica	-5340
volse	-5341
zioni	-5342
ziose	-5343
▁Alza	-5344
▁Balc	-5345
▁Capp	-5346
▁Desi	-5347
▁Dici	-5348
▁Dorm	-5349
▁Ecco	-5350
▁Fate	-5351
▁Fino	-5352
▁Fran	-5353
▁Germ	-5354
▁Maro	-5355
▁Nell	-5356
▁Pare	-5357
▁Pass	-5358
▁Prov	-5359
▁Scor	-5360
▁Sper	-5361
▁Spos	-5362
▁Stre	-5363
▁Suon	-5364
▁Tamm	-5365
▁Tere	-5366
▁Titì	-5367
▁Voce	-5368
▁abbi	-5369
▁affe	-5370
▁amor	-5371
▁appo	-5372
▁apre	-5373
▁arde	-5374
▁auto	-5375
▁avvo	-5376
▁bace	-5377
▁beve	-5378
▁bevi	-5379
▁bevo	-5380
▁cani	-5381
▁cent	-5382
▁ceri	-5383
▁cibo	-5384
▁coto	-5385
▁curo	-5386
▁darà	-5387
▁dati	-5388
▁diav	-5389
▁dirà	-5390
▁disg	-5391
▁disi	-5392
▁feci	-5393
▁figu	-5394
▁fila	-5395
▁fili	-5396
▁gall	-5397
▁giri	-5398
▁love	-5399
▁lupo	-5400
▁medi	-5401
▁mira	-5402
▁moda	-5403
▁modo	-5404
▁mora	-5405
▁morì	-5406
▁movi	-5407
▁navi	-5408
▁nego	-5409
▁nepi	-5410
▁nido	-5411
▁ossa	-5412
▁pazz	-5413
▁pece	-5414
▁pepe	-5415
▁pere	-5416
▁peso	-5417
▁petr	-5418
▁proc	-5419
▁ramo	-5420
▁reti	-5421
▁rice	-5422
▁riti	-5423
▁rive	-5424
▁romp	-5425
▁sbar	-5426
▁sciù	-5427
▁sede	-5428
▁suss	-5429
▁tara	-5430
▁tele	-5431
▁timi	-5432
▁tocc	-5433
▁urlo	-5434
▁vidi	-5435
▁vile	-5436
▁viss	-5437
▁viva	-5438
▁vivi	-5439
Gloria	-5440
Maestà	-5441
Rififi	-5442
Voglio	-5443
alallá	-5444
alegna	-5445
ammino	-5446
ananza	-5447
andoci	-5448
andosi	-5449
anelle	-5450
antant	-5451
automo	-5452
avessi	-5453
busciò	-5454
cchini	-5455
cciati	-5456
cciono	-5457
critto	-5458
deschi	-5459
endolo	-5460
essori	-5461
eterna	-5462
ffiava	-5463
ggiano	-5464
ggiato	-5465
ghetto	-5466
gioini	-5467
glioni	-5468
inizio	-5469
llallá	-5470
llegra	-5471
maggio	-5472
mbiule	-5473
mmella	-5474
niello	-5475
ombina	-5476
oncini	-5477
orrere	-5478
padina	-5479
peroni	-5480
raceni	-5481
ribile	-5482
ssione	-5483
teneva	-5484
uzione	-5485
zzetti	-5486
▁Addor	-5487
▁Agata	-5488
▁Alláh	-5489
▁Basta	-5490
▁Bello	-5491
▁Cerca	-5492
▁Cicci	-5493
▁Corri	-5494
▁Dalla	-5495
▁Fatti	-5496
▁Fiori	-5497
▁Frida	-5498
▁Grazi	-5499
▁Marzo	-5500
▁Merlo	-5501
▁Mezza	-5502
▁Mille	-5503
▁Nelle	-5504
▁Passi	-5505
▁Penti	-5506
▁Pietà	-5507
▁Quell	-5508
▁Romeo	-5509
▁Scali	-5510
▁Segre	-5511
▁Sente	-5512
▁Sogna	-5513
▁Sogno	-5514
▁Somma	-5515
▁State	-5516
▁Sugli	-5517
▁Tráll	-5518
▁Vanno	-5519
▁Vuole	-5520
▁abbia	-5521
▁affon	-5522
▁aiuto	-5523
▁annus	-5524
▁ansie	-5525
▁appla	-5526
▁appre	-5527
▁asino	-5528
▁aspra	-5529
▁bagni	-5530
▁banda	-5531
▁barba	-5532
▁beato	-5533
▁bimbo	-5534
▁bosco	-5535
▁botta	-5536
▁botti	-5537
▁cacci	-5538
▁cacio	-5539
▁calze	-5540
▁corri	-5541
▁corro	-5542
▁diamo	-5543
▁diede	-5544
▁dirai	-5545
▁direi	-5546
▁dirlo	-5547
▁falla	-5548
▁fallo	-5549
▁farle	-5550
▁farne	-5551
▁fichi	-5552
▁fiele	-5553
▁fiero	-5554
▁fogli	-5555
▁freva	-5556
▁furba	-5557
▁garba	-5558
▁giova	-5559
▁gozzi	-5560
▁ignor	-5561
▁lagna	-5562
▁lante	-5563
▁leggo	-5564
▁lente	-5565
▁libri	-5566
▁libro	-5567
▁lutto	-5568
▁magia	-5569
▁manco	-5570
▁mandi	-5571
▁menta	-5572
▁mogli	-5573
▁mosse	-5574
▁nonno	-5575
▁nulla	-5576
▁odore	-5577
▁parlò	-5578
▁perla	-5579
▁pesce	-5580
▁piume	-5581
▁polli	-5582
▁polpo	-5583
▁posta	-5584
▁posti	-5585
▁provi	-5586
▁punta	-5587
▁quand	-5588
▁radio	-5589
▁raffi	-5590
▁rendi	-5591
▁reste	-5592
▁riser	-5593
▁rompo	-5594
▁ruota	-5595
▁sarta	-5596
▁sasso	-5597
▁scala	-5598
▁scapp	-5599
▁sceso	-5600
▁schio	-5601
▁sciol	-5602
▁secco	-5603
▁segui	-5604
▁serva	-5605
▁sfron	-5606
▁siste	-5607
▁sonni	-5608
▁sorte	-5609
▁spara	-5610
▁sperd	-5611
▁spezz	-5612
▁sugna	-5613
▁tasse	-5614
▁tazze	-5615
▁tenta	-5616
▁terzo	-5617
▁tetto	-5618
▁tornò	-5619
▁trasc	-5620
▁trovò	-5621
▁vendo	-5622
▁versi	-5623
▁vigne	-5624
▁ville	-5625
▁volto	-5626
artieri	-5627
assione	-5628
autunno	-5629
cchiato	-5630
diamoci	-5631
ellenza	-5632
eluccio	-5633
estrale	-5634
ginetta	-5635
iacenti	-5636
mentati	-5637
uccello	-5638
uttosto	-5639
▁Accare	-5640
▁Aprite	-5641
▁Catene	-5642
▁Cristo	-5643
▁Diceva	-5644
▁Fredda	-5645
▁Ischia	-5646
▁Milano	-5647
▁Napule	-5648
▁Parigi	-5649
▁Parole	-5650
▁Pasqua	-5651
▁Piangi	-5652
▁Pietro	-5653
▁Popolo	-5654
▁Sbatte	-5655
▁Scrive	-5656
▁Soffia	-5657
▁Spunta	-5658
▁Torero	-5659
▁accorg	-5660
▁aiutar	-5661
▁amiamo	-5662
▁anelli	-5663
▁angolo	-5664
▁antipa	-5665
▁appesi	-5666
▁appeso	-5667
▁attacc	-5668
▁avesse	-5669
▁avvici	-5670
▁avvili	-5671
▁bacere	-5672
▁bacini	-5673
▁banana	-5674
▁bavosa	-5675
▁bevuto	-5676
▁brilla	-5677
▁brucio	-5678
▁caccav	-5679
▁cadono	-5680
▁cambio	-5681
▁capite	-5682
▁chiese	-5683
▁chiudi	-5684
▁chiusi	-5685
▁compar	-5686
▁compli	-5687
▁conclu	-5688
▁conqui	-5689
▁cucito	-5690
▁delica	-5691
▁discor	-5692
▁divent	-5693
▁dovrei	-5694
▁eccoti	-5695
▁errore	-5696
▁estran	-5697
▁eterna	-5698
▁eterno	-5699
▁facevo	-5700
▁farina	-5701
▁fascia	-5702
▁fatato	-5703
▁fatela	-5704
▁fumare	-5705
▁gabbia	-5706
▁gabbie	-5707
▁gelati	-5708
▁gelose	-5709
▁gialla	-5710
▁girato	-5711
▁grammi	-5712
▁grazie	-5713
▁grazio	-5714
▁grilli	-5715
▁guappa	-5716
▁incont	-5717
▁istrui	-5718
▁latina	-5719
▁litiga	-5720
▁maglie	-5721
▁manchi	-5722
▁manico	-5723
▁mariti	-5724
▁mature	-5725
▁minuti	-5726
▁moneta	-5727
▁motivi	-5728
▁nacque	-5729
▁nemica	-5730
▁nemici	-5731
▁numeri	-5732
▁occhia	-5733
▁ognuna	-5734
▁onesta	-5735
▁palchi	-5736
▁partii	-5737
▁patria	-5738
▁pavone	-5739
▁piatto	-5740
▁potevi	-5741
▁potrei	-5742
▁preghi	-5743
▁presta	-5744
▁proble	-5745
▁pronte	-5746
▁quadri	-5747
▁rarità	-5748
▁rasoio	-5749
▁regali	-5750
▁ridete	-5751
▁rimani	-5752
▁riposo	-5753
▁risate	-5754
▁romani	-5755
▁rubare	-5756
▁sapeva	-5757
▁sapone	-5758
▁sbarca	-5759
▁sbatti	-5760
▁scalda	-5761
▁scegli	-5762
▁sciare	-5763
▁sciupa	-5764
▁scorre	-5765
▁scotta	-5766
▁secolo	-5767
▁seppie	-5768
▁sicuri	-5769
▁sigaro	-5770
▁signor	-5771
▁sorpre	-5772
▁spiega	-5773
▁sporca	-5774
▁spremi	-5775
▁squisi	-5776
▁stendi	-5777
▁stento	-5778
▁stuzzi	-5779
▁tesori	-5780
▁tirare	-5781
▁tiritò	-5782
▁tratta	-5783
▁tratto	-5784
▁troppa	-5785
▁uccido	-5786
▁undici	-5787
▁urlare	-5788
▁urlava	-5789
▁usciti	-5790
▁vaglia	-5791
▁vedova	-5792
▁vedrai	-5793
▁veglia	-5794
▁vicine	-5795
▁vivono	-5796
▁vivrei	-5797
▁vostri	-5798
antesimo	-5799
cioffolá	-5800
eroplano	-5801
immagino	-5802
nalmente	-5803
orologio	-5804
ospedale	-5805
signoria	-5806
sportare	-5807
stornato	-5808
▁Apriamo	-5809
▁Baciami	-5810
▁Balcone	-5811
▁Canzoni	-5812
▁Cattiva	-5813
▁Correte	-5814
▁Credere	-5815
▁Fidanza	-5816
▁Francia	-5817
▁Mercato	-5818
▁Nanassa	-5819
▁Padrone	-5820
▁Quattro	-5821
▁Scusate	-5822
▁Signori	-5823
▁Sognare	-5824
▁Sospira	-5825
▁Sospiri	-5826
▁accettò	-5827
▁armonia	-5828
▁arrendi	-5829
▁attorci	-5830
▁avvelen	-5831
▁avverti	-5832
▁avvolto	-5833
▁baciata	-5834
▁bagnati	-5835
▁ballano	-5836
▁bastato	-5837
▁batosta	-5838
▁bouquet	-5839
▁bussare	-5840
▁buttato	-5841
▁camorri	-5842
▁campare	-5843
▁cannoni	-5844
▁cantavi	-5845
▁caprese	-5846
▁carezza	-5847
▁carogna	-5848
▁cercano	-5849
▁cercavo	-5850
▁ciliege	-5851
▁comanda	-5852
▁conserv	-5853
▁contale	-5854
▁corredo	-5855
▁correte	-5856
▁delinqu	-5857
▁deserta	-5858
▁difetti	-5859
▁discesa	-5860
▁divento	-5861
▁dormono	-5862
▁durante	-5863
▁eravamo	-5864
▁fagioli	-5865
▁fanfara	-5866
▁fissato	-5867
▁fragole	-5868
▁frasche	-5869
▁gallina	-5870
▁gemelli	-5871
▁gentili	-5872
▁giocava	-5873
▁giovani	-5874
▁giurato	-5875
▁gradini	-5876
▁gridare	-5877
▁guardia	-5878
▁indossa	-5879
▁infamie	-5880
▁infatti	-5881
▁inferno	-5882
▁inglese	-5883
▁insegni	-5884
▁lamenti	-5885
▁lariulá	-5886
▁maestra	-5887
▁malpelo	-5888
▁mancano	-5889
▁maniere	-5890
▁mettete	-5891
▁mettiti	-5892
▁mordere	-5893
▁muoiono	-5894
▁musiche	-5895
▁ndunghe	-5896
▁nervoso	-5897
▁paesane	-5898
▁palpiti	-5899
▁parlami	-5900
▁peccare	-5901
▁pensaci	-5902
▁pensato	-5903
▁pentola	-5904
▁perdute	-5905
▁persino	-5906
▁pesante	-5907
▁piedini	-5908
▁pisello	-5909
▁poterti	-5910
▁potrete	-5911
▁preparò	-5912
▁pudiche	-5913
▁quaglia	-5914
▁ragiona	-5915
▁ricetta	-5916
▁riempie	-5917
▁ripassi	-5918
▁ritarda	-5919
▁ritorno	-5920
▁rivolta	-5921
▁rosetta	-5922
▁salendo	-5923
▁santino	-5924
▁saperlo	-5925
▁sapessi	-5926
▁sarebbe	-5927
▁schiuma	-5928
▁scienza	-5929
▁sciocco	-5930
▁sfilano	-5931
▁sfregio	-5932
▁sguardi	-5933
▁specchi	-5934
▁splendi	-5935
▁sposato	-5936
▁spumone	-5937
▁strilli	-5938
▁tentare	-5939
▁tornese	-5940
▁trovata	-5941
▁venduto	-5942
▁vezzosa	-5943
▁vienimi	-5944
▁vivendo	-5945
▁volessi	-5946
▁vongole	-5947
abitudine	-5948
incontrai	-5949
ostricaro	-5950
▁Angelica	-5951
▁Angioini	-5952
▁Brillano	-5953
▁Chitarre	-5954
▁Compagni	-5955
▁Finestre	-5956
▁Forcella	-5957
▁Germania	-5958
▁Giornate	-5959
▁Guardate	-5960
▁Pensando	-5961
▁Raffaele	-5962
▁Saraceni	-5963
▁Saraceno	-5964
▁Stavolta	-5965
▁Tammorre	-5966
▁Tedeschi	-5967
▁Terzigno	-5968
▁Torniamo	-5969
▁Venitemi	-5970
▁abbandon	-5971
▁addolora	-5972
▁afflosci	-5973
▁amaranto	-5974
▁avvicini	-5975
▁baciarmi	-5976
▁baffetti	-5977
▁balliamo	-5978
▁cacciate	-5979
▁canarina	-5980
▁cantiamo	-5981
▁castagne	-5982
▁cervello	-5983
▁chiedete	-5984
▁coltelli	-5985
▁compagni	-5986
▁concerti	-5987
▁condanna	-5988
▁confonde	-5989
▁contenti	-5990
▁continua	-5991
▁contrabb	-5992
▁coracino	-5993
▁cravatta	-5994
▁crescere	-5995
▁desideri	-5996
▁dovevamo	-5997
▁eleganti	-5998
▁figliole	-5999
▁funiculá	-6000
▁giurando	-6001
▁gonnella	-6002
▁graziosa	-6003
▁guardami	-6004
▁guardano	-6005
▁indovina	-6006
▁infiamma	-6007
▁lallallá	-6008
▁lasciamo	-6009
▁mangiano	-6010
▁messaggi	-6011
▁minaccia	-6012
▁miracolo	-6013
▁nocciole	-6014
▁parlarti	-6015
▁parolina	-6016
▁passiamo	-6017
▁pennello	-6018
▁pensarla	-6019
▁petrolio	-6020
▁piaciuta	-6021
▁piangete	-6022
▁piangeva	-6023
▁piazzato	-6024
▁poltrone	-6025
▁popolane	-6026
▁prendono	-6027
▁presenta	-6028
▁presenza	-6029
▁presepio	-6030
▁pretendi	-6031
▁preziose	-6032
▁proposta	-6033
▁riflette	-6034
▁rimanete	-6035
▁rimbambi	-6036
▁risposto	-6037
▁riuscito	-6038
▁rovinato	-6039
▁saltando	-6040
▁salvarmi	-6041
▁sbattere	-6042
▁sbattuta	-6043
▁scaletta	-6044
▁scarpino	-6045
▁scendeva	-6046
▁scendono	-6047
▁schianta	-6048
▁scrivete	-6049
▁sembrare	-6050
▁sembrate	-6051
▁sentirla	-6052
▁serpente	-6053
▁settanta	-6054
▁soffiare	-6055
▁spagnola	-6056
▁speciale	-6057
▁spendevo	-6058
▁spendono	-6059
▁sperduto	-6060
▁spuntano	-6061
▁stellato	-6062
▁stordito	-6063
▁stradina	-6064
▁stregato	-6065
▁suoniamo	-6066
▁sveglino	-6067
▁terrazza	-6068
▁trapunta	-6069
▁trattore	-6070
▁truccata	-6071
▁turbante	-6072
▁velocità	-6073
▁ventitré	-6074
▁vicinato	-6075
▁voghiamo	-6076
automobile	-6077
occhiolino	-6078
▁Carognona	-6079
▁Colombina	-6080
▁Francesco	-6081
▁Gennarino	-6082
▁Graziella	-6083
▁Maestrale	-6084
▁Metteteci	-6085
▁Passeggio	-6086
▁Quartieri	-6087
▁accendere	-6088
▁aspettano	-6089
▁aspettato	-6090
▁attaccata	-6091
▁bamboline	-6092
▁benedetta	-6093
▁buonanima	-6094
▁cantatore	-6095
▁contratto	-6096
▁cresciuta	-6097
▁direttore	-6098
▁disgrazia	-6099
▁disperato	-6100
▁divertito	-6101
▁facendoci	-6102
▁fidanzati	-6103
▁ginocchia	-6104
▁grembiule	-6105
▁guardarci	-6106
▁guardiano	-6107
▁ignorante	-6108
▁incantate	-6109
▁incontrai	-6110
▁infuocata	-6111
▁intreccia	-6112
▁lasciarsi	-6113
▁maliziosa	-6114
▁mattinate	-6115
▁nepitella	-6116
▁peccatori	-6117
▁perdonami	-6118
▁pescatori	-6119
▁piacciono	-6120
▁piuttosto	-6121
▁ragazzina	-6122
▁respirare	-6123
▁riconosci	-6124
▁riempiono	-6125
▁rivoltano	-6126
▁rivoltare	-6127
▁sanguigna	-6128
▁sassofono	-6129
▁sciantose	-6130
▁sfregiare	-6131
▁sfrondare	-6132
▁sincerità	-6133
▁spergiuro	-6134
▁sporcarsi	-6135
▁strillare	-6136
▁stringere	-6137
▁strumento	-6138
▁svegliami	-6139
▁svegliato	-6140
▁terribile	-6141
▁testimone	-6142
▁traditore	-6143
▁trattiene	-6144
▁tricolore	-6145
▁trombetta	-6146
▁trovarono	-6147
▁vellutate	-6148
▁zappatore	-6149
▁Buongiorno	-6150
▁Foglioline	-6151
▁Giovanotto	-6152
▁Marocchini	-6153
▁Maruzzella	-6154
▁Sissignore	-6155
▁Stamattina	-6156
▁Tirabusciò	-6157
▁Zingarella	-6158
▁aggraziata	-6159
▁aggraziate	-6160
▁aggraziati	-6161
▁avvelenato	-6162
▁bandierina	-6163
▁caccavella	-6164
▁calzoncino	-6165
▁camminando	-6166
▁cantiniera	-6167
▁cassaforte	-6168
▁ciaramella	-6169
▁dispiacere	-6170
▁facciamoci	-6171
▁fogliolina	-6172
▁immaginate	-6173
▁impazzisce	-6174
▁incatenato	-6175
▁incomincia	-6176
▁innaffiava	-6177
▁litighiamo	-6178
▁maccheroni	-6179
▁manganello	-6180
▁mozzarella	-6181
▁pianoforte	-6182
▁pizzicotto	-6183
▁professori	-6184
▁provocante	-6185
▁raccontato	-6186
▁rassegnare	-6187
▁ricciolino	-6188
▁sfortunata	-6189
▁spaventate	-6190
▁stravedere	-6191
▁vergognate	-6192
▁vorrebbero	-6193
appuntamento	-6194
▁Accarezzami	-6195
▁Cappelletti	-6196
▁Carcioffolá	-6197
▁Serenatella	-6198
▁Svegliatevi	-6199
▁Trállalallá	-6200
▁albeggiando	-6201
▁apparteneva	-6202
▁appiccicosi	-6203
▁compassione	-6204
▁compiacenti	-6205
▁espressione	-6206
▁eternamente	-6207
▁francamente	-6208
▁frastornato	-6209
▁giardinetto	-6210
▁giardiniera	-6211
▁guardandomi	-6212
▁guardandoti	-6213
▁inutilmente	-6214
▁malinconica	-6215
▁orchestrina	-6216
▁passeggiata	-6217
▁presentiamo	-6218
▁saltimbanco	-6219
▁trascorrere	-6220
▁trasportare	-6221
▁tristemente	-6222
▁vossignoria	-6223
▁Addormentati	-6224
▁Raffaeluccio	-6225
▁Segretamente	-6226
▁abbracciarti	-6227
▁addormentati	-6228
▁appassionato	-6229
▁indifferenza	-6230
▁perdutamente	-6231
▁impressionato	-6232
▁inginocchiata	-6233
▁dimentichiamoci	-6234
!,	-6235
"!	-6236
'"	-6237
?!	-6238
Be	-6239
Di	-6240
Ho	-6241
Me	-6242
Ne	-6243
Po	-6244
Sp	-6245
cò	-6246
dò	-6247
eo	-6248
fe	-6249
fu	-6250
it	-6251
iu	-6252
lè	-6253
nd	-6254
pl	-6255
rè	-6256
ré	-6257
st	-6258
tù	-6259
ub	-6260
Con	-6261
Fai	-6262
Gli	-6263
Las	-6264
Mon	-6265
Nap	-6266
Pen	-6267
Sto	-6268
Tre	-6269
Val	-6270
ace	-6271
als	-6272
ase	-6273
bai	-6274
ber	-6275
ccò	-6276
cià	-6277
com	-6278
dam	-6279
dee	-6280
dra	-6281
eru	-6282
eta	-6283
età	-6284
fie	-6285
fos	-6286
ght	-6287
gro	-6288
hio	-6289
his	-6290
ila	-6291
ith	-6292
lai	-6293
mag	-6294
mai	-6295
man	-6296
mor	-6297
ngu	-6298
oce	-6299
bar	-6300
iss	-6301
nan	-6302
olì	-6303
oma	-6304
orr	-6305
oss	-6306
pan	-6307
pas	-6308
rdo	-6309
riu	-6310
rro	-6311
scì	-6312
sma	-6313
spi	-6314
tac	-6315
tel	-6316
ton	-6317
uce	-6318
uli	-6319
umi	-6320
uri	-6321
uso	-6322
utò	-6323
▁Ar	-6324
▁Bo	-6325
▁Du	-6326
▁Mu	-6327
▁Ro	-6328
▁Ru	-6329
▁Sè	-6330
▁br	-6331
▁cì	-6332
▁dì	-6333
▁ll	-6334
▁lù	-6335
▁nè	-6336
▁ol	-6337
▁ul	-6338
Atte	-6339
Cosa	-6340
Rosa	-6341
Tira	-6342
Vuoi	-6343
acci	-6344
allo	-6345
amor	-6346
andi	-6347
angi	-6348
antà	-6349
appo	-6350
arma	-6351
arne	-6352
arri	-6353
ball	-6354
bola	-6355
cché	-6356
cell	-6357
cosa	-6358
daco	-6359
dava	-6360
deva	-6361
dice	-6362
diti	-6363
dità	-6364
dori	-6365
egli	-6366
elia	-6367
endi	-6368
enne	-6369
entu	-6370
erlo	-6371
ermi	-6372
erri	-6373
erto	-6374
erza	-6375
fero	-6376
fico	-6377
gano	-6378
gedo	-6379
iale	-6380
iato	-6381
ieci	-6382
lato	-6383
liba	-6384
lità	-6385
luna	-6386
mene	-6387
mine	-6388
mite	-6389
mole	-6390
namo	-6391
nere	-6392
nero	-6393
neta	-6394
nghe	-6395
nvol	-6396
olla	-6397
olti	-6398
onte	-6399
egn	-6400
ogo	-6401
▁zù	-6402
cure	-6403
etle	-6404
falù	-6405
ordo	-6406
orgo	-6407
orte	-6408
orti	-6409
pale	-6410
pana	-6411
pine	-6412
pira	-6413
ppio	-6414
rana	-6415
rine	-6416
rini	-6417
ritè	-6418
roco	-6419
roni	-6420
roso	-6421
scio	-6422
sina	-6423
sing	-6424
sono	-6425
stra	-6426
stro	-6427
tava	-6428
teno	-6429
tite	-6430
tolo	-6431
trai	-6432
trei	-6433
ttai	-6434
uovo	-6435
vall	-6436
vati	-6437
vela	-6438
visi	-6439
viti	-6440
vole	-6441
▁Abb	-6442
▁Acc	-6443
▁Asp	-6444
▁Bar	-6445
▁Cha	-6446
▁Cin	-6447
▁Cor	-6448
▁Cun	-6449
▁Del	-6450
▁Dom	-6451
▁Eri	-6452
▁Fli	-6453
▁Fru	-6454
▁Lil	-6455
▁Ogn	-6456
▁Spi	-6457
▁Vic	-6458
▁ada	-6459
▁bev	-6460
▁bis	-6461
▁bro	-6462
▁but	-6463
▁cef	-6464
▁ciò	-6465
▁elo	-6466
▁esp	-6467
▁età	-6468
▁fac	-6469
▁fid	-6470
▁fli	-6471
▁ira	-6472
▁leo	-6473
▁lim	-6474
▁mos	-6475
▁mus	-6476
▁nor	-6477
▁ogg	-6478
▁ono	-6479
▁rig	-6480
▁sac	-6481
▁sbi	-6482
▁sos	-6483
▁sud	-6484
▁svi	-6485
▁ves	-6486
▁vic	-6487
▁vor	-6488
Bambi	-6489
Hotel	-6490
India	-6491
Siete	-6492
Treno	-6493
Zitto	-6494
aglio	-6495
alche	-6496
alcos	-6497
amato	-6498
amolo	-6499
?",	-6500
alfi	-6501
duti	-6502
mmio	-6503
nghi	-6504
schi	-6505
stre	-6506
▁Cic	-6507
▁Ins	-6508
ascin	-6509
bacco	-6510
baret	-6511
bbedi	-6512
bbene	-6513
bella	-6514
cciti	-6515
chela	-6516
chine	-6517
ciama	-6518
cotti	-6519
cuore	-6520
cuori	-6521
della	-6522
derio	-6523
desti	-6524
erati	-6525
eravi	-6526
ffete	-6527
franc	-6528
getti	-6529
ggeva	-6530
gilia	-6531
gisco	-6532
glimi	-6533
gnato	-6534
gnese	-6535
gnolo	-6536
ielli	-6537
lessi	-6538
letto	-6539
marmi	-6540
media	-6541
orale	-6542
pardo	-6543
petti	-6544
pieno	-6545
potto	-6546
ppola	-6547
ppone	-6548
quita	-6549
quore	-6550
racci	-6551
ranca	-6552
riche	-6553
riera	-6554
rnino	-6555
roppo	-6556
scina	-6557
scura	-6558
siana	-6559
sogna	-6560
steri	-6561
stono	-6562
tarlo	-6563
terno	-6564
tetto	-6565
tezza	-6566
tiera	-6567
ttate	-6568
ttile	-6569
ttini	-6570
ttuto	-6571
turco	-6572
urare	-6573
vando	-6574
verio	-6575
versa	-6576
vesti	-6577
vetta	-6578
zzano	-6579
zzari	-6580
▁Abbi	-6581
▁Alle	-6582
▁Atto	-6583
▁Bell	-6584
▁Caru	-6585
▁Cent	-6586
▁Chie	-6587
▁Devo	-6588
▁Dipi	-6589
▁Gela	-6590
▁Lont	-6591
▁Mano	-6592
▁Papa	-6593
▁Parl	-6594
▁Perd	-6595
▁Sare	-6596
▁Soli	-6597
▁Tocc	-6598
▁Vico	-6599
mami	-6600
ombo	-6601
rpre	-6602
terà	-6603
▁Meh	-6604
amici	-6605
amoci	-6606
ccede	-6607
ncoli	-6608
ncolo	-6609
pario	-6610
petto	-6611
range	-6612
resca	-6613
sieur	-6614
volto	-6615
▁Sull	-6616
▁Vivo	-6617
▁Vole	-6618
▁Zero	-6619
▁acca	-6620
▁alti	-6621
▁alzi	-6622
▁anzi	-6623
▁appa	-6624
▁arag	-6625
▁arsa	-6626
▁avrò	-6627
▁bell	-6628
▁beni	-6629
▁beva	-6630
▁boll	-6631
▁bomb	-6632
▁brig	-6633
▁buco	-6634
▁buss	-6635
▁cena	-6636
▁chic	-6637
▁cine	-6638
▁civi	-6639
▁como	-6640
▁cono	-6641
▁crea	-6642
▁cuci	-6643
▁culo	-6644
▁cupa	-6645
▁curi	-6646
▁data	-6647
▁davi	-6648
▁debu	-6649
▁doll	-6650
▁doro	-6651
▁ebbe	-6652
▁espa	-6653
▁fess	-6654
▁fior	-6655
▁fisi	-6656
▁fran	-6657
▁fugg	-6658
▁fuma	-6659
▁girl	-6660
▁gode	-6661
▁gond	-6662
▁inde	-6663
▁insi	-6664
▁lana	-6665
▁less	-6666
▁malv	-6667
▁masc	-6668
▁mata	-6669
▁meri	-6670
▁moro	-6671
▁mumm	-6672
▁muta	-6673
▁nati	-6674
▁nfrì	-6675
▁noci	-6676
▁ogge	-6677
▁paga	-6678
▁paio	-6679
▁pani	-6680
▁perc	-6681
▁pino	-6682
▁pupa	-6683
▁rara	-6684
▁rare	-6685
▁rasp	-6686
▁regn	-6687
▁remo	-6688
▁reso	-6689
▁rida	-6690
▁rigo	-6691
▁riso	-6692
▁sana	-6693
▁sape	-6694
▁sbru	-6695
▁scan	-6696
▁semi	-6697
▁sepa	-6698
▁smor	-6699
brai	-6700
enze	-6701
fato	-6702
hhhh	-6703
illu	-6704
urlo	-6705
▁Rim	-6706
dessi	-6707
hhhhh	-6708
parmi	-6709
▁Glie	-6710
▁Illu	-6711
▁Imma	-6712
▁Ridi	-6713
▁cele	-6714
▁dame	-6715
▁esca	-6716
▁eser	-6717
▁ghia	-6718
▁spar	-6719
▁spin	-6720
▁stan	-6721
▁stia	-6722
▁stip	-6723
▁tali	-6724
▁tena	-6725
▁tomb	-6726
▁toni	-6727
▁topi	-6728
▁tore	-6729
▁uscì	-6730
▁vada	-6731
▁vali	-6732
▁vaso	-6733
▁vere	-6734
▁vizi	-6735
Foglia	-6736
Italia	-6737
Lascia	-6738
Otello	-6739
Quando	-6740
amante	-6741
amento	-6742
ammore	-6743
andera	-6744
annina	-6745
antano	-6746
aprile	-6747
arella	-6748
armela	-6749
armelo	-6750
arsina	-6751
asione	-6752
assaco	-6753
assate	-6754
assimo	-6755
autore	-6756
azzire	-6757
baione	-6758
binare	-6759
bitare	-6760
catore	-6761
cciano	-6762
ccione	-6763
chiara	-6764
chiusa	-6765
colava	-6766
dolito	-6767
domani	-6768
egneri	-6769
endere	-6770
entata	-6771
entola	-6772
eretta	-6773
errore	-6774
essero	-6775
etterà	-6776
finare	-6777
ghetti	-6778
gliano	-6779
gnelle	-6780
incont	-6781
iugale	-6782
llucci	-6783
luccio	-6784
monica	-6785
mpiang	-6786
omando	-6787
omilla	-6788
onestà	-6789
onnate	-6790
osione	-6791
ostare	-6792
ostitu	-6793
perchè	-6794
raccio	-6795
roglia	-6796
sciamo	-6797
siccia	-6798
stella	-6799
Sii	-6800
antè	-6801
antì	-6802
▁ttù	-6803
ansia	-6804
cassa	-6805
garsi	-6806
siata	-6807
tusia	-6808
▁Embè	-6809
▁Tram	-6810
▁gara	-6811
▁pagh	-6812
assati	-6813
cavamo	-6814
datevi	-6815
innamo	-6816
onario	-6817
onerei	-6818
stiera	-6819
teneri	-6820
ticchi	-6821
tristi	-6822
ttengo	-6823
tterei	-6824
ttiere	-6825
ttugia	-6826
ttuosa	-6827
untano	-6828
untina	-6829
utista	-6830
uviano	-6831
verina	-6832
zzante	-6833
zzendo	-6834
▁Amaro	-6835
▁Amata	-6836
▁Aveva	-6837
▁Beati	-6838
▁Belle	-6839
▁Betle	-6840
▁Caffè	-6841
▁Cambi	-6842
▁Canti	-6843
▁Conto	-6844
▁Della	-6845
▁Denti	-6846
▁Dieci	-6847
▁Ferma	-6848
▁Giura	-6849
▁Lacri	-6850
▁Lasci	-6851
▁Manda	-6852
▁Marsi	-6853
▁Mezzo	-6854
▁Paris	-6855
▁Pensi	-6856
▁Penso	-6857
▁Piano	-6858
▁Pizzi	-6859
▁Possa	-6860
▁Profu	-6861
▁Quand	-6862
▁Resta	-6863
▁Schia	-6864
▁Sofia	-6865
▁Sogni	-6866
▁Sopra	-6867
▁Sorso	-6868
▁Stava	-6869
▁Stavi	-6870
▁Sulle	-6871
▁Tante	-6872
▁Tieni	-6873
▁Tocca	-6874
▁Uscii	-6875
▁Verso	-6876
▁Zitta	-6877
▁abiti	-6878
▁abito	-6879
▁adoro	-6880
▁affia	-6881
▁allun	-6882
▁ansia	-6883
▁avana	-6884
▁avaro	-6885
▁avevi	-6886
▁avrai	-6887
▁baciò	-6888
▁banco	-6889
▁basso	-6890
▁batti	-6891
▁beata	-6892
▁begli	-6893
▁boccu	-6894
▁bolle	-6895
▁bromo	-6896
▁buchi	-6897
▁bussa	-6898
▁caddi	-6899
busi	-6900
Anche	-6901
incen	-6902
rtelo	-6903
▁larì	-6904
accare	-6905
chesca	-6906
datela	-6907
▁Abbra	-6908
▁Foria	-6909
▁Fosse	-6910
▁Partì	-6911
▁Peppi	-6912
▁Posso	-6913
▁busso	-6914
▁capra	-6915
▁carte	-6916
▁casse	-6917
▁certa	-6918
▁cervi	-6919
▁cocco	-6920
▁cogli	-6921
▁colli	-6922
▁compi	-6923
▁conse	-6924
▁coppa	-6925
▁corna	-6926
▁corsa	-6927
▁darai	-6928
▁darle	-6929
▁dello	-6930
▁dento	-6931
▁desse	-6932
▁diffi	-6933
▁dillo	-6934
▁dorge	-6935
▁dorma	-6936
▁dosso	-6937
▁dovre	-6938
▁dovrà	-6939
▁farli	-6940
▁farma	-6941
▁ferro	-6942
▁fette	-6943
▁fieno	-6944
▁fisar	-6945
▁fisso	-6946
▁forma	-6947
▁forno	-6948
▁fossa	-6949
▁frego	-6950
▁fugge	-6951
▁gallo	-6952
▁gatti	-6953
▁gonna	-6954
▁gover	-6955
▁inami	-6956
▁inciu	-6957
▁infer	-6958
▁infil	-6959
▁insap	-6960
▁itali	-6961
▁lacci	-6962
▁lallá	-6963
▁lariu	-6964
▁leggi	-6965
▁lesse	-6966
▁lumin	-6967
▁luogo	-6968
▁madia	-6969
▁madon	-6970
▁malva	-6971
▁marci	-6972
▁matto	-6973
▁mazza	-6974
▁mazzo	-6975
▁molli	-6976
▁molti	-6977
▁morde	-6978
▁nello	-6979
▁nozze	-6980
▁nuovo	-6981
▁oltre	-6982
▁ombra	-6983
▁ostri	-6984
▁paesi	-6985
▁palle	-6986
▁pegno	-6987
▁penne	-6988
▁piede	-6989
▁pittu	-6990
▁pizzo	-6991
▁pozzo	-6992
▁prote	-6993
▁pugni	-6994
▁puzza	-6995
▁quore	-6996
▁rimar	-6997
▁risor	-6998
▁risto	-6999
▁Dei	-7000
▁Nèh	-7001
▁zoc	-7002
avevo	-7003
parve	-7004
▁Deve	-7005
Cambia	-7006
anzale	-7007
anzane	-7008
gurata	-7009
tudine	-7010
univer	-7011
▁Beato	-7012
▁Trovi	-7013
▁birra	-7014
▁dirvi	-7015
▁merce	-7016
▁merlu	-7017
▁monti	-7018
▁oppor	-7019
▁rifia	-7020
▁ritro	-7021
▁rompi	-7022
▁rotto	-7023
▁sazia	-7024
▁scese	-7025
▁scopp	-7026
▁secon	-7027
▁sedia	-7028
▁seria	-7029
▁sfida	-7030
▁soffi	-7031
▁soldo	-7032
▁sorso	-7033
▁spada	-7034
▁spade	-7035
▁spesa	-7036
▁steso	-7037
▁strin	-7038
▁sugli	-7039
▁tagli	-7040
▁tarda	-7041
▁tenda	-7042
▁teste	-7043
▁tetti	-7044
▁tolgo	-7045
▁tremò	-7046
▁tribù	-7047
▁usare	-7048
▁vanti	-7049
▁vanto	-7050
▁vedre	-7051
▁vesto	-7052
▁virtù	-7053
▁viste	-7054
▁visti	-7055
▁vizio	-7056
▁vogli	-7057
▁zitti	-7058
Signora	-7059
Signore	-7060
Tornerò	-7061
abbiamo	-7062
accordo	-7063
ancerie	-7064
andiere	-7065
avevamo	-7066
cadenti	-7067
cchetto	-7068
cchiamo	-7069
cchiati	-7070
cciotto	-7071
concino	-7072
conosci	-7073
derebbe	-7074
effetto	-7075
elletta	-7076
entiamo	-7077
enziale	-7078
eratore	-7079
erubare	-7080
gliacca	-7081
matogra	-7082
mentale	-7083
mentino	-7084
mozione	-7085
ogliamo	-7086
ogliete	-7087
ombrero	-7088
ondanza	-7089
ortasse	-7090
rullèro	-7091
scibile	-7092
sissimo	-7093
tarella	-7094
tellata	-7095
terebbe	-7096
toranti	-7097
torella	-7098
uamente	-7099
Stai	-7100
▁Guè	-7101
Anema	-7102
ferma	-7103
▁Nanà	-7104
▁Nfrù	-7105
▁Vuol	-7106
abband	-7107
assare	-7108
cinque	-7109
ungere	-7110
▁Aaaah	-7111
▁Crede	-7112
▁Prese	-7113
▁Punto	-7114
▁Tempo	-7115
▁Zitto	-7116
▁dirle	-7117
▁falso	-7118
▁rilas	-7119
Tornerà	-7120
affitto	-7121
aspetto	-7122
avranno	-7123
bissare	-7124
cellaia	-7125
chietto	-7126
eratino	-7127
gnataro	-7128
llanova	-7129
mentano	-7130
vvivere	-7131
zzemolo	-7132
▁Adesso	-7133
▁Amelia	-7134
▁Ancora	-7135
▁Anelli	-7136
▁Arrivo	-7137
▁Cadono	-7138
▁Chiaia	-7139
▁Comari	-7140
▁Eccola	-7141
▁Eccomi	-7142
▁Eppure	-7143
▁Estate	-7144
▁Fatela	-7145
▁Febbre	-7146
▁Figlio	-7147
▁Finché	-7148
▁Giacca	-7149
▁Lascio	-7150
▁Listen	-7151
▁Làlala	-7152
▁Perdon	-7153
▁Petalo	-7154
▁Potrei	-7155
▁Quanno	-7156
▁Quegli	-7157
▁Rimani	-7158
▁Saluta	-7159
▁Scrivo	-7160
▁Spesso	-7161
▁Troppi	-7162
▁Ttuppi	-7163
▁Vicolo	-7164
▁Vincen	-7165
▁abitui	-7166
▁accesa	-7167
▁altare	-7168
▁amalfi	-7169
▁ananas	-7170
▁andati	-7171
▁andavi	-7172
▁andavo	-7173
▁anello	-7174
▁annusa	-7175
▁aperte	-7176
▁aperti	-7177
▁appari	-7178
▁arance	-7179
▁aranci	-7180
▁armato	-7181
▁arrang	-7182
▁attira	-7183
▁attore	-7184
▁autori	-7185
▁averla	-7186
▁averti	-7187
▁bionde	-7188
▁caduti	-7189
▁cafone	-7190
▁calama	-7191
▁carati	-7192
▁carina	-7193
▁cercar	-7194
▁cerchi	-7195
▁chiamò	-7196
▁chiave	-7197
▁chiodi	-7198
▁chistu	-7199
Gué	-7200
Dalla	-7201
epoca	-7202
servo	-7203
▁Palu	-7204
▁abus	-7205
▁bebè	-7206
▁drin	-7207
▁pipì	-7208
Scapri	-7209
acquai	-7210
albero	-7211
cenico	-7212
tiritè	-7213
▁Amico	-7214
▁aaaaa	-7215
▁abuso	-7216
▁gener	-7217
▁padri	-7218
▁reall	-7219
▁spiov	-7220
▁tonni	-7221
anguida	-7222
attacco	-7223
esisten	-7224
ritomba	-7225
▁Geloso	-7226
▁Sembri	-7227
▁acquai	-7228
▁barile	-7229
▁cascam	-7230
▁cinema	-7231
▁ciocca	-7232
▁colora	-7233
▁comari	-7234
▁compri	-7235
▁cotone	-7236
▁creare	-7237
▁creato	-7238
▁cucina	-7239
▁distur	-7240
▁divido	-7241
▁diviso	-7242
▁dodici	-7243
▁dolori	-7244
▁domand	-7245
▁donare	-7246
▁dorati	-7247
▁ecciti	-7248
▁eccola	-7249
▁esista	-7250
▁fabbro	-7251
▁fanciu	-7252
▁fecero	-7253
▁ferito	-7254
▁fiasco	-7255
▁filare	-7256
▁filoso	-7257
▁finché	-7258
▁finite	-7259
▁focoso	-7260
▁folata	-7261
▁fucili	-7262
▁furono	-7263
▁gelata	-7264
▁gelato	-7265
▁giochi	-7266
▁girano	-7267
▁gruppi	-7268
▁guanti	-7269
▁guappi	-7270
▁guardò	-7271
▁hippie	-7272
▁impara	-7273
▁infami	-7274
▁infred	-7275
▁inizia	-7276
▁lancia	-7277
▁lasciò	-7278
▁lavare	-7279
▁legato	-7280
▁levato	-7281
▁libero	-7282
▁locale	-7283
▁loggia	-7284
▁lunghi	-7285
▁lusing	-7286
▁magari	-7287
▁mandar	-7288
▁manica	-7289
▁marine	-7290
▁minimo	-7291
▁misura	-7292
▁monaca	-7293
▁morirò	-7294
▁morivi	-7295
▁musici	-7296
▁nastri	-7297
▁nebbia	-7298
▁nostre	-7299
!!!,	-7300
espl	-7301
pasto	-7302
tonio	-7303
▁Lilì	-7304
▁Roma	-7305
Napoli	-7306
solato	-7307
▁Fuoco	-7308
▁abita	-7309
▁burro	-7310
▁colub	-7311
▁dimag	-7312
▁magro	-7313
▁moine	-7314
▁prude	-7315
Ragazzo	-7316
Spadina	-7317
cerofos	-7318
fittasi	-7319
settaia	-7320
▁Bocche	-7321
▁Parete	-7322
▁Scorza	-7323
▁ciechi	-7324
▁filava	-7325
▁frotte	-7326
▁imbals	-7327
▁obbedi	-7328
▁occupa	-7329
▁oppure	-7330
▁ordina	-7331
▁pagina	-7332
▁parlai	-7333
▁parlar	-7334
▁pascià	-7335
▁patate	-7336
▁patire	-7337
▁pazzia	-7338
▁pecora	-7339
▁pecore	-7340
▁petalo	-7341
▁picchè	-7342
▁poiché	-7343
▁posare	-7344
▁prezzo	-7345
▁profum	-7346
▁pronti	-7347
▁pulita	-7348
▁regola	-7349
▁resede	-7350
▁ricama	-7351
▁ricchi	-7352
▁rideva	-7353
▁ridono	-7354
▁rigido	-7355
▁rigira	-7356
▁rimase	-7357
▁rimasi	-7358
▁ripete	-7359
▁rubavo	-7360
▁sabato	-7361
▁saluti	-7362
▁sapori	-7363
▁sbarre	-7364
▁scanno	-7365
▁scappo	-7366
▁scappò	-7367
▁scarse	-7368
▁scelgo	-7369
▁scelta	-7370
▁scivol	-7371
▁scomme	-7372
▁scopre	-7373
▁scrivi	-7374
▁sedici	-7375
▁seduta	-7376
▁seduti	-7377
▁sentii	-7378
▁sereno	-7379
▁sfreni	-7380
▁sfugge	-7381
▁smetti	-7382
▁soffio	-7383
▁soffri	-7384
▁spacca	-7385
▁sparla	-7386
▁spasso	-7387
▁spendo	-7388
▁spiava	-7389
▁spiego	-7390
▁spillo	-7391
▁spuntò	-7392
▁stando	-7393
▁starei	-7394
▁stessi	-7395
▁storto	-7396
▁strega	-7397
▁studio	-7398
▁sudore	-7399
ollata	-7400
▁Borgo	-7401
▁svilu	-7402
Bambina	-7403
Paquita	-7404
angieri	-7405
toglimi	-7406
▁Barche	-7407
▁Cefalù	-7408
▁Cinque	-7409
▁Guappo	-7410
▁Innamo	-7411
▁Ognuno	-7412
▁Scendi	-7413
▁doppio	-7414
▁fascio	-7415
▁ispira	-7416
▁meravi	-7417
▁musdee	-7418
▁palcos	-7419
▁pineta	-7420
▁potrai	-7421
▁sferza	-7422
▁spinge	-7423
▁susami	-7424
▁sussur	-7425
▁sventu	-7426
▁tacchi	-7427
▁teatro	-7428
▁tennis	-7429
▁tirità	-7430
▁tiritá	-7431
▁ttuppi	-7432
▁uccisi	-7433
▁uguali	-7434
▁ultimo	-7435
▁uniamo	-7436
▁uscite	-7437
▁usciva	-7438
▁veglio	-7439
▁venivi	-7440
▁verace	-7441
▁verrei	-7442
▁videro	-7443
▁viento	-7444
▁vipera	-7445
▁visita	-7446
▁zucche	-7447
Signorsì	-7448
Valenzia	-7449
Voletevi	-7450
alegname	-7451
amicizia	-7452
cchietto	-7453
gioniera	-7454
gogliosa	-7455
ielliere	-7456
incontro	-7457
infrange	-7458
mentando	-7459
mentarsi	-7460
nvoltura	-7461
orecchio	-7462
orgoglio	-7463
ortunato	-7464
racciolo	-7465
tarsiata	-7466
televisi	-7467
▁Antonio	-7468
▁Aspetto	-7469
▁Attorno	-7470
▁Bambina	-7471
▁Cammino	-7472
▁Cantami	-7473
▁Capelli	-7474
▁Capisci	-7475
▁Carmine	-7476
▁Ciccino	-7477
▁Dammela	-7478
▁Dammelo	-7479
▁Divento	-7480
▁Diverti	-7481
▁Dormono	-7482
▁Entrate	-7483
▁Facendo	-7484
▁Foresti	-7485
▁Giorgio	-7486
▁Inverno	-7487
▁Madonne	-7488
▁Mandolì	-7489
▁Marigli	-7490
▁Maruzzè	-7491
▁Michela	-7492
▁Mistero	-7493
▁Nottata	-7494
▁Parroco	-7495
▁Pensaci	-7496
▁Pentita	-7497
▁Piccolo	-7498
▁Portami	-7499
▁Qualche	-7500
▁Ragazzo	-7501
▁Ricordi	-7502
▁Rosinaa	-7503
▁Salisti	-7504
▁Sapendo	-7505
▁Sarebbe	-7506
▁Saverio	-7507
▁Sentilo	-7508
▁Sognami	-7509
▁Sospiro	-7510
▁Succede	-7511
▁Suonano	-7512
▁Tarantì	-7513
▁Tremano	-7514
▁Uscisti	-7515
▁Vecchio	-7516
▁Vedendo	-7517
▁Vediamo	-7518
▁Vicaria	-7519
▁Volando	-7520
▁accorto	-7521
▁accosto	-7522
▁afferra	-7523
▁affitto	-7524
▁agitare	-7525
▁allocco	-7526
▁amabile	-7527
▁andando	-7528
▁apparta	-7529
▁apparti	-7530
▁appunta	-7531
▁arrabbi	-7532
▁arranca	-7533
▁arrende	-7534
▁arrendo	-7535
▁arrosti	-7536
▁attenti	-7537
▁aumenta	-7538
▁avevano	-7539
▁avrebbe	-7540
▁bacerei	-7541
▁bacetto	-7542
▁baciamo	-7543
▁bagnate	-7544
▁ballate	-7545
▁bancone	-7546
▁basette	-7547
▁bastava	-7548
▁bellino	-7549
▁bisogno	-7550
▁bottega	-7551
▁buttate	-7552
▁cancell	-7553
▁cannoli	-7554
▁cantala	-7555
▁cantata	-7556
▁cantato	-7557
▁cantavo	-7558
▁capiamo	-7559
▁capirlo	-7560
▁capirmi	-7561
▁carnali	-7562
▁cascata	-7563
▁cattive	-7564
▁celebre	-7565
▁cercate	-7566
▁chiesto	-7567
▁ciocche	-7568
▁civetta	-7569
▁colombo	-7570
▁colpiti	-7571
▁combina	-7572
▁comiche	-7573
▁cominci	-7574
▁comprai	-7575
▁congedo	-7576
▁conobbi	-7577
▁contano	-7578
▁contate	-7579
▁contati	-7580
▁convinc	-7581
▁correvo	-7582
▁costata	-7583
▁cotogne	-7584
▁credono	-7585
▁creduto	-7586
▁dannato	-7587
▁demonio	-7588
▁difetto	-7589
▁dipinti	-7590
▁direbbe	-7591
▁disperi	-7592
▁dissero	-7593
▁domando	-7594
▁elettri	-7595
▁entrate	-7596
▁entrava	-7597
▁esempio	-7598
▁facesse	-7599
▁fammela	-7600
▁fartelo	-7601
▁fattela	-7602
▁fermano	-7603
▁fermata	-7604
▁fianchi	-7605
▁fiatare	-7606
▁finanza	-7607
▁finendo	-7608
▁fingere	-7609
▁fontane	-7610
▁fregare	-7611
▁galante	-7612
▁galline	-7613
▁gamberi	-7614
▁gettare	-7615
▁giocati	-7616
▁goderci	-7617
▁gondola	-7618
▁governo	-7619
▁granita	-7620
▁granito	-7621
▁guadagn	-7622
▁guardie	-7623
▁imbarca	-7624
▁impegna	-7625
▁incanti	-7626
▁inciuci	-7627
▁infuoco	-7628
▁inganno	-7629
▁ingenuo	-7630
▁insomma	-7631
▁integre	-7632
▁intendi	-7633
▁lampade	-7634
▁lampara	-7635
▁lazzari	-7636
▁leggevo	-7637
▁lessare	-7638
▁lezione	-7639
▁licenza	-7640
▁liquore	-7641
▁litigio	-7642
▁locanda	-7643
▁luccica	-7644
▁luciama	-7645
▁maestri	-7646
▁maestro	-7647
▁mafioso	-7648
▁mandata	-7649
▁marrone	-7650
▁marsina	-7651
▁maschio	-7652
▁massimo	-7653
▁metteva	-7654
▁mettevo	-7655
▁mettile	-7656
▁mettono	-7657
▁miglior	-7658
▁miniera	-7659
▁misteri	-7660
▁moriamo	-7661
▁mormora	-7662
▁nascita	-7663
▁negozio	-7664
▁notizie	-7665
▁oggetti	-7666
▁oggetto	-7667
▁onorato	-7668
▁osservo	-7669
▁ottobre	-7670
▁paesana	-7671
▁paesani	-7672
▁pagando	-7673
▁pallido	-7674
▁palline	-7675
▁palombo	-7676
▁palpita	-7677
▁palpito	-7678
▁paranza	-7679
▁parlale	-7680
▁partite	-7681
▁passavi	-7682
▁passegg	-7683
▁pastore	-7684
▁pendeva	-7685
▁pensata	-7686
▁pensavi	-7687
▁pensavo	-7688
▁pensier	-7689
▁perderà	-7690
▁perduti	-7691
▁persone	-7692
▁piacete	-7693
▁piaceva	-7694
▁picchia	-7695
▁pioggia	-7696
▁piovere	-7697
▁pistola	-7698
▁pizzica	-7699
▁polmone	-7700
▁portale	-7701
▁portalo	-7702
▁porterà	-7703
▁potermi	-7704
▁potesse	-7705
▁preferi	-7706
▁pregate	-7707
▁preliba	-7708
▁prepara	-7709
▁procura	-7710
▁provate	-7711
▁pungere	-7712
▁punture	-7713
▁resisto	-7714
▁respiri	-7715
▁resterà	-7716
▁ridiamo	-7717
▁rientra	-7718
▁rifiutò	-7719
▁rimango	-7720
▁rimessa	-7721
▁rimette	-7722
▁rinfres	-7723
▁riserva	-7724
▁rispose	-7725
▁risposi	-7726
▁rivedrò	-7727
▁rubasti	-7728
▁sacrile	-7729
▁salotto	-7730
▁saltano	-7731
▁saltare	-7732
▁saranno	-7733
▁scherzo	-7734
▁sciogli	-7735
▁scritta	-7736
▁scusate	-7737
▁seccata	-7738
▁secchio	-7739
▁seguita	-7740
▁sentita	-7741
▁sentivi	-7742
▁sfaccia	-7743
▁sincere	-7744
▁sipario	-7745
▁smorfie	-7746
▁soffere	-7747
▁sognami	-7748
▁sorride	-7749
▁sorridi	-7750
▁sottile	-7751
▁sparire	-7752
▁spasima	-7753
▁sperare	-7754
▁spiagge	-7755
▁spigole	-7756
▁spirito	-7757
▁sposati	-7758
▁sposava	-7759
▁stimato	-7760
▁succosa	-7761
▁svenire	-7762
▁tabacco	-7763
▁tabaret	-7764
▁tambure	-7765
▁tamburo	-7766
▁tarantà	-7767
▁tarantè	-7768
▁tardare	-7769
▁tienile	-7770
▁tienilo	-7771
▁tienimi	-7772
▁togliti	-7773
▁tolgono	-7774
▁tonight	-7775
▁tornavi	-7776
▁tradire	-7777
▁tragico	-7778
▁tramite	-7779
▁tremate	-7780
▁tremava	-7781
▁triglia	-7782
▁triglie	-7783
▁trovano	-7784
▁trovati	-7785
▁ubriaca	-7786
▁vedervi	-7787
▁vedessi	-7788
▁vedesti	-7789
▁venendo	-7790
▁vennero	-7791
▁ventina	-7792
▁venturo	-7793
▁vestire	-7794
▁vetrine	-7795
▁vincere	-7796
▁vissuto	-7797
▁volando	-7798
▁volendo	-7799
▁zitelle	-7800
Ascoltami	-7801
Buonasera	-7802
Mannaggia	-7803
aeroplano	-7804
ascinante	-7805
illusione	-7806
impazzire	-7807
matografo	-7808
occasione	-7809
orchestra	-7810
statemela	-7811
▁Avellino	-7812
▁Betlemme	-7813
▁Cambiano	-7814
▁Cantando	-7815
▁Carulina	-7816
▁Chantant	-7817
▁Cuncetta	-7818
▁Dolcezza	-7819
▁Duchesca	-7820
▁Francese	-7821
▁Guardami	-7822
▁Illudimi	-7823
▁Ninuccia	-7824
▁Passione	-7825
▁Perderai	-7826
▁Piangeva	-7827
▁Piangono	-7828
▁Portagli	-7829
▁Positano	-7830
▁Quindici	-7831
▁Sbattono	-7832
▁Scannalo	-7833
▁Scassaco	-7834
▁Schiaffi	-7835
▁Scriveva	-7836
▁Serenate	-7837
▁Sperduto	-7838
▁Teresina	-7839
▁abbaglia	-7840
▁abbracci	-7841
▁affabile	-7842
▁affinare	-7843
▁agitando	-7844
▁aiutarci	-7845
▁alticcio	-7846
▁ammalato	-7847
▁andavamo	-7848
▁annusare	-7849
▁applaudi	-7850
▁apprezza	-7851
▁appurare	-7852
▁aragoste	-7853
▁arrivate	-7854
▁arrivava	-7855
▁arriverà	-7856
▁avvocato	-7857
▁baciando	-7858
▁baciarle	-7859
▁baciasti	-7860
▁benedice	-7861
▁bollenti	-7862
▁brillerà	-7863
▁brindisi	-7864
▁bruciano	-7865
▁bussando	-7866
▁butterei	-7867
▁cacciato	-7868
▁cadevano	-7869
▁calmarmi	-7870
▁cambiati	-7871
▁canarino	-7872
▁cancello	-7873
▁cannella	-7874
▁cantanti	-7875
▁cantieri	-7876
▁capacita	-7877
▁capitato	-7878
▁cappotto	-7879
▁capretti	-7880
▁capretto	-7881
▁carriera	-7882
▁cartella	-7883
▁caruccia	-7884
▁chiacchi	-7885
▁chiamata	-7886
▁chiamate	-7887
▁chiamava	-7888
▁chiarore	-7889
▁chiedeva	-7890
▁chiodino	-7891
▁colpisce	-7892
▁comitiva	-7893
▁comunale	-7894
▁correndo	-7895
▁crescevo	-7896
▁daglielo	-7897
▁dedicare	-7898
▁derubare	-7899
▁discorso	-7900
▁dispetti	-7901
▁distante	-7902
▁dovunque	-7903
▁dubitare	-7904
▁eccentri	-7905
▁esercito	-7906
▁estranee	-7907
▁eternità	-7908
▁facciate	-7909
▁fantasma	-7910
▁fatalità	-7911
▁fermarlo	-7912
▁fermasse	-7913
▁fermiamo	-7914
▁figurare	-7915
▁fortezza	-7916
▁frescura	-7917
▁friggeva	-7918
▁funiculà	-7919
▁galleria	-7920
▁garofano	-7921
▁giornate	-7922
▁giurasti	-7923
▁guadagni	-7924
▁guardala	-7925
▁guarisci	-7926
▁imbrogli	-7927
▁indovini	-7928
▁intristi	-7929
▁invitato	-7930
▁lampioni	-7931
▁languida	-7932
▁lasciale	-7933
▁lascialo	-7934
▁lasciavo	-7935
▁lavoravi	-7936
▁leopardo	-7937
▁limonata	-7938
▁litigare	-7939
▁maledire	-7940
▁manciata	-7941
▁mantengo	-7942
▁maritino	-7943
▁martella	-7944
▁medicina	-7945
▁merletto	-7946
▁mestieri	-7947
▁metterei	-7948
▁nascosti	-7949
▁ndandera	-7950
▁occhiali	-7951
▁oscurità	-7952
▁pagliaio	-7953
▁parlarci	-7954
▁parlarmi	-7955
▁parrucca	-7956
▁partendo	-7957
▁partenza	-7958
▁pensione	-7959
▁peperoni	-7960
▁perdemmo	-7961
▁perderti	-7962
▁piattino	-7963
▁piperita	-7964
▁pomodori	-7965
▁portasti	-7966
▁portiere	-7967
▁postegge	-7968
▁pregando	-7969
▁presento	-7970
▁problema	-7971
▁progetti	-7972
▁prometti	-7973
▁prometto	-7974
▁prostitu	-7975
▁protegge	-7976
▁proteggo	-7977
▁questura	-7978
▁rallegra	-7979
▁reagisco	-7980
▁recitare	-7981
▁regnante	-7982
▁restiamo	-7983
▁ricamata	-7984
▁ricamato	-7985
▁ricevuto	-7986
▁riempire	-7987
▁rimpiang	-7988
▁riposano	-7989
▁riscaldi	-7990
▁riuscita	-7991
▁rovinata	-7992
▁sbatteva	-7993
▁scaldare	-7994
▁scappate	-7995
▁scendere	-7996
▁sciabola	-7997
▁sciacqui	-7998
▁scollato	-7999
▁sconosci	-8000
▁scoperta	-8001
▁scoperto	-8002
▁scordare	-8003
▁scriverà	-8004
▁scrupoli	-8005
▁scrupolo	-8006
▁sembrano	-8007
▁sfogarsi	-8008
▁sfrenato	-8009
▁smettete	-8010
▁sombrero	-8011
▁sospirai	-8012
▁spagnolo	-8013
▁spavento	-8014
▁spegnilo	-8015
▁spendere	-8016
▁sperduta	-8017
▁spiegale	-8018
▁sposarsi	-8019
▁spuntata	-8020
▁squarcia	-8021
▁squisito	-8022
▁stampata	-8023
▁stancato	-8024
▁stavolta	-8025
▁stazione	-8026
▁straccio	-8027
▁sventola	-8028
▁tardiamo	-8029
▁tempeste	-8030
▁terrazzi	-8031
▁tornerai	-8032
▁tornerei	-8033
▁torniamo	-8034
▁tradisce	-8035
▁trappola	-8036
▁trattare	-8037
▁trovarmi	-8038
▁trovarne	-8039
▁trovasti	-8040
▁truccati	-8041
▁turchino	-8042
▁vascello	-8043
▁vendetta	-8044
▁volevamo	-8045
▁vorremmo	-8046
▁vorresti	-8047
▁zabaione	-8048
Buongiorno	-8049
Margherita	-8050
accompagna	-8051
cciatiello	-8052
esplosione	-8053
università	-8054
▁Abbraccia	-8055
▁Assuntina	-8056
▁Bambolina	-8057
▁Benedetto	-8058
▁Desiderio	-8059
▁Dipingici	-8060
▁Fidanzate	-8061
▁Fortunato	-8062
▁Giocavamo	-8063
▁Monticchi	-8064
▁Paparelle	-8065
▁Pescatore	-8066
▁Piccolina	-8067
▁Pignataro	-8068
▁Reginetta	-8069
▁Sospirami	-8070
▁Stringimi	-8071
▁Tiritomba	-8072
▁Villanova	-8073
▁accendono	-8074
▁acchiappo	-8075
▁accostare	-8076
▁acquaiola	-8077
▁affiatati	-8078
▁affittato	-8079
▁affondare	-8080
▁allontano	-8081
▁amichetti	-8082
▁antipasto	-8083
▁appendere	-8084
▁arrivando	-8085
▁aspettate	-8086
▁aspettava	-8087
▁assonnate	-8088
▁bacchetta	-8089
▁barchette	-8090
▁belvedere	-8091
▁benissimo	-8092
▁bottiglia	-8093
▁calzolaio	-8094
▁cambiando	-8095
▁cambiarmi	-8096
▁cameriere	-8097
▁camminano	-8098
▁camminava	-8099
▁camminavo	-8100
▁camomilla	-8101
▁cantarono	-8102
▁cantavano	-8103
▁carattere	-8104
▁carissimo	-8105
▁cerchiamo	-8106
▁chiamiamo	-8107
▁chiedessi	-8108
▁colubrine	-8109
▁comarelle	-8110
▁combinare	-8111
▁coniugale	-8112
▁conoscete	-8113
▁consumare	-8114
▁corallina	-8115
▁coscritto	-8116
▁crescerti	-8117
▁davanzale	-8118
▁difficile	-8119
▁dipingici	-8120
▁disprezza	-8121
▁distrugge	-8122
▁diventati	-8123
▁divertite	-8124
▁divertono	-8125
▁emigrante	-8126
▁emigranti	-8127
▁fabbriche	-8128
▁falegname	-8129
▁finiamola	-8130
▁finocchio	-8131
▁frizzante	-8132
▁funghetto	-8133
▁giudicare	-8134
▁graffiala	-8135
▁granturco	-8136
▁grattugia	-8137
▁guardarle	-8138
▁guardarli	-8139
▁guardarlo	-8140
▁guardasti	-8141
▁indossato	-8142
▁ingannava	-8143
▁ingegneri	-8144
▁insegnano	-8145
▁inventare	-8146
▁lasciarci	-8147
▁lasciarlo	-8148
▁luccicano	-8149
▁macellaia	-8150
▁madonnina	-8151
▁magazzino	-8152
▁malvarosa	-8153
▁mandamela	-8154
▁mandatemi	-8155
▁marciapie	-8156
▁mascolina	-8157
▁melanzane	-8158
▁mischiali	-8159
▁mormorare	-8160
▁mortifica	-8161
▁movimento	-8162
▁opportuno	-8163
▁orchestra	-8164
▁palpitare	-8165
▁peccatore	-8166
▁perdonato	-8167
▁picciotto	-8168
▁pizzaiola	-8169
▁portatemi	-8170
▁poveretta	-8171
▁preghiera	-8172
▁prendendo	-8173
▁prendesti	-8174
▁preoccupi	-8175
▁preparano	-8176
▁preparata	-8177
▁primavere	-8178
▁profumano	-8179
▁profumati	-8180
▁profumava	-8181
▁qualunque	-8182
▁quartetto	-8183
▁quartieri	-8184
▁raffinata	-8185
▁resistere	-8186
▁ricordato	-8187
▁rifiatare	-8188
▁rifiutare	-8189
▁rinchiusa	-8190
▁rinfaccia	-8191
▁rischiara	-8192
▁risplende	-8193
▁rosellina	-8194
▁rovinarti	-8195
▁salsiccia	-8196
▁sanguigno	-8197
▁scambiare	-8198
▁sciantosa	-8199
▁scogliera	-8200
▁scontenta	-8201
▁sconvolse	-8202
▁scugnizzo	-8203
▁sentirono	-8204
▁sigarette	-8205
▁simpatica	-8206
▁simpatico	-8207
▁smancerie	-8208
▁soldatino	-8209
▁solitarie	-8210
▁sonnifero	-8211
▁sospirava	-8212
▁sospirosa	-8213
▁spaghetti	-8214
▁spiovente	-8215
▁splendere	-8216
▁splendeva	-8217
▁squartare	-8218
▁stipendio	-8219
▁stranieri	-8220
▁strettina	-8221
▁stringano	-8222
▁stringevi	-8223
▁stringiti	-8224
▁struggere	-8225
▁succederà	-8226
▁suonavano	-8227
▁svegliava	-8228
▁teniamoci	-8229
▁tentatore	-8230
▁toglierti	-8231
▁trombette	-8232
▁troverete	-8233
▁ubriacare	-8234
▁vedendomi	-8235
▁vicoletti	-8236
▁vigliacca	-8237
cerofosfato	-8238
▁Bambinella	-8239
▁Caracciolo	-8240
▁Chitarella	-8241
▁Filangieri	-8242
▁Fogliolina	-8243
▁Fontanella	-8244
▁Fontanelle	-8245
▁Forestiero	-8246
▁Incomincia	-8247
▁Mariannina	-8248
▁Padreterno	-8249
▁Palummella	-8250
▁Pescatrice	-8251
▁Pizzicotti	-8252
▁Sorrentina	-8253
▁Sposiamoci	-8254
▁Tramontano	-8255
▁abbagliare	-8256
▁accompagni	-8257
▁accontente	-8258
▁addolorate	-8259
▁affacciano	-8260
▁affacciati	-8261
▁affettuosa	-8262
▁agitazione	-8263
▁amalfitana	-8264
▁antipatico	-8265
▁arrabbiato	-8266
▁asciugarti	-8267
▁ascoltando	-8268
▁ascoltarlo	-8269
▁aspettarti	-8270
▁avvelenare	-8271
▁avvicinare	-8272
▁baciandomi	-8273
▁balconcino	-8274
▁bastoncino	-8275
▁buonanotte	-8276
▁cacciatore	-8277
▁camorrista	-8278
▁campanello	-8279
▁capacitare	-8280
▁carceriere	-8281
▁carrettino	-8282
▁catenaccio	-8283
▁chiamavano	-8284
▁collinetta	-8285
▁colombelle	-8286
▁coltellata	-8287
▁concertino	-8288
▁confidenza	-8289
▁consegnare	-8290
▁corsettaia	-8291
▁desideroso	-8292
▁dimenticar	-8293
▁dimentichi	-8294
▁dipingerti	-8295
▁diventando	-8296
▁divertirvi	-8297
▁dopodomani	-8298
▁eccellenza	-8299
▁elementare	-8300
▁finalmente	-8301
▁fioriscono	-8302
▁giuramento	-8303
▁illuminata	-8304
▁impazzendo	-8305
▁impazzisco	-8306
▁inabissare	-8307
▁incantarmi	-8308
▁incatenavo	-8309
▁incontrare	-8310
▁incontrate	-8311
▁ingialliti	-8312
▁innamoravo	-8313
▁intenerita	-8314
▁irascibile	-8315
▁ladruncoli	-8316
▁ladruncolo	-8317
▁lanternino	-8318
▁lasciamoci	-8319
▁lontananza	-8320
▁luccicante	-8321
▁luccicanti	-8322
▁mettiamoci	-8323
▁milionario	-8324
▁mollichine	-8325
▁mummarelle	-8326
▁nasconditi	-8327
▁ndrànghete	-8328
▁nfrìnghete	-8329
▁nfrùnghete	-8330
▁parliamoci	-8331
▁passionali	-8332
▁pentimento	-8333
▁permettete	-8334
▁prediletta	-8335
▁prenditelo	-8336
▁prezzemolo	-8337
▁principale	-8338
▁professore	-8339
▁pupazzetti	-8340
▁raccomando	-8341
▁rassegnata	-8342
▁rassegnato	-8343
▁ricciolini	-8344
▁rimbambire	-8345
▁riportasse	-8346
▁riscaldare	-8347
▁rispondimi	-8348
▁rispondono	-8349
▁ristoranti	-8350
▁ritornarci	-8351
▁rivoltella	-8352
▁scellerato	-8353
▁schiaffone	-8354
▁sciagurata	-8355
▁sconsolato	-8356
▁sentimenti	-8357
▁spaventato	-8358
▁specchiano	-8359
▁specialità	-8360
▁splendenti	-8361
▁stringendo	-8362
▁strofinare	-8363
▁svenimento	-8364
▁sventurato	-8365
▁tarallucci	-8366
▁terraferma	-8367
▁terrazzino	-8368
▁tiritiritè	-8369
▁tortorella	-8370
▁traditrice	-8371
▁trapuntato	-8372
▁venditrice	-8373
▁Andiamocene	-8374
▁Maresciallo	-8375
▁Peppiniello	-8376
▁Ricordatevi	-8377
▁abbracciami	-8378
▁abbracciate	-8379
▁accarezzato	-8380
▁accarezzava	-8381
▁acchiappare	-8382
▁andiamocene	-8383
▁attorciglia	-8384
▁benedicendo	-8385
▁bestemmiare	-8386
▁brillantina	-8387
▁cappelletta	-8388
▁capriccioso	-8389
▁carrettiere	-8390
▁complimenti	-8391
▁confessione	-8392
▁conoscevano	-8393
▁conquistato	-8394
▁consigliami	-8395
▁delinquenti	-8396
▁desiderando	-8397
▁dimenticati	-8398
▁disgraziato	-8399
▁festeggiare	-8400
▁fisarmonica	-8401
▁gentilmente	-8402
▁gioielliere	-8403
▁imbalsamata	-8404
▁imbrogliare	-8405
▁incantesimo	-8406
▁innamorasti	-8407
▁lampioncini	-8408
▁malinconici	-8409
▁maltrattato	-8410
▁marinaretto	-8411
▁ndanderandì	-8412
▁preoccupare	-8413
▁processione	-8414
▁riflettendo	-8415
▁risparmiati	-8416
▁sicuramente	-8417
▁svegliamela	-8418
▁svegliarono	-8419
▁ucciderebbe	-8420
▁venticinque	-8421
▁zampognelle	-8422
televisionato	-8423
▁Scalinatella	-8424
▁Scassacocchi	-8425
▁abbandonasti	-8426
▁accontentare	-8427
▁appassiscono	-8428
▁approfittate	-8429
▁appuntamenti	-8430
▁ardentemente	-8431
▁avvertimento	-8432
▁disinvoltura	-8433
▁immaginatevi	-8434
▁infreddolito	-8435
▁palcoscenico	-8436
▁passeggiando	-8437
▁pettinatrice	-8438
▁preoccuparmi	-8439
▁prestatemela	-8440
▁raccomandata	-8441
▁scarseggiano	-8442
▁sentimentale	-8443
▁sopravvivere	-8444
▁sudamericano	-8445
▁ventiquattro	-8446
▁Mariglianella	-8447
▁cinematografo	-8448
▁delicatamente	-8449
▁graziosissimo	-8450
▁stuzzicadenti	-8451
▁appartamentino	-8452
▁glicerofosfato	-8453
Scapricciatiello	-8454
!?	-8455
':	-8456
?.	-8457
Ba	-8458
Ce	-8459
Ci	-8460
Fu	-8461
Gi	-8462
Ha	-8463
Mm	-8464
Mo	-8465
On	-8466
Re	-8467
Te	-8468
Uè	-8469
Va	-8470
Ve	-8471
Vu	-8472
at	-8473
bé	-8474
cù	-8475
dn	-8476
ed	-8477
fl	-8478
hè	-8479
is	-8480
là	-8481
mè	-8482
nn	-8483
né	-8484
pà	-8485
pù	-8486
rn	-8487
rs	-8488
rù	-8489
sù	-8490
um	-8491
up	-8492
zu	-8493
zì	-8494
▁?	-8495
▁é	-8496
!".	-8497
Are	-8498
Col	-8499
'?	-8500
Le	-8501
dt	-8502
gù	-8503
'??	-8504
Eli	-8505
Era	-8506
Fia	-8507
Gio	-8508
Nna	-8509
Par	-8510
Pas	-8511
Pro	-8512
San	-8513
Sti	-8514
Toc	-8515
Uno	-8516
Ven	-8517
Via	-8518
all	-8519
anf	-8520
apo	-8521
arr	-8522
aso	-8523
bbè	-8524
bli	-8525
cab	-8526
ccì	-8527
cic	-8528
dai	-8529
dan	-8530
dem	-8531
die	-8532
dol	-8533
ert	-8534
est	-8535
eti	-8536
eto	-8537
fas	-8538
fon	-8539
fra	-8540
gan	-8541
gga	-8542
gri	-8543
gua	-8544
ice	-8545
ill	-8546
ins	-8547
ioi	-8548
lin	-8549
lon	-8550
lte	-8551
ltà	-8552
lue	-8553
mla	-8554
nco	-8555
nie	-8556
nin	-8557
nio	-8558
onò	-8559
osì	-8560
pli	-8561
ppè	-8562
rda	-8563
ret	-8564
rne	-8565
rol	-8566
rra	-8567
rur	-8568
smo	-8569
spe	-8570
tan	-8571
tap	-8572
tim	-8573
toi	-8574
uff	-8575
urà	-8576
ven	-8577
vra	-8578
zer	-8579
zin	-8580
▁Ga	-8581
▁LA	-8582
▁Lì	-8583
▁Mo	-8584
▁Ni	-8585
▁Nà	-8586
▁ac	-8587
▁cl	-8588
▁cm	-8589
▁cr	-8590
▁cè	-8591
▁et	-8592
▁if	-8593
▁lá	-8594
▁pù	-8595
▁sd	-8596
▁sè	-8597
▁tá	-8598
▁um	-8599
Cos	-8600
For	-8601
Ono	-8602
asa	-8603
ffe	-8604
fré	-8605
mpa	-8606
org	-8607
tua	-8608
▁uo	-8609
▁ur	-8610
▁ué	-8611
▁và	-8612
Arri	-8613
Core	-8614
alza	-8615
anie	-8616
annà	-8617
anzo	-8618
arde	-8619
arei	-8620
arte	-8621
arvi	-8622
bini	-8623
cani	-8624
cerà	-8625
cido	-8626
dira	-8627
dolo	-8628
dosi	-8629
dote	-8630
enso	-8631
eppe	-8632
eral	-8633
erre	-8634
fare	-8635
ffio	-8636
ffri	-8637
gani	-8638
iata	-8639
iati	-8640
ieta	-8641
illo	-8642
impa	-8643
iolo	-8644
livo	-8645
maco	-8646
male	-8647
mate	-8648
miro	-8649
mise	-8650
misi	-8651
mmer	-8652
mobi	-8653
moto	-8654
nasc	-8655
nego	-8656
ogni	-8657
oles	-8658
ommo	-8659
onti	-8660
orle	-8661
orna	-8662
pore	-8663
racc	-8664
rafa	-8665
rate	-8666
rere	-8667
rese	-8668
reto	-8669
reve	-8670
rich	-8671
rico	-8672
riva	-8673
roci	-8674
roto	-8675
sett	-8676
simi	-8677
sini	-8678
tari	-8679
tata	-8680
tell	-8681
teni	-8682
teri	-8683
tita	-8684
todo	-8685
toli	-8686
tuma	-8687
tàre	-8688
uare	-8689
uasa	-8690
unco	-8691
uona	-8692
vate	-8693
vedo	-8694
visa	-8695
voco	-8696
zzin	-8697
▁Aff	-8698
▁Ahi	-8699
apa	-8700
ddi	-8701
sam	-8702
▁En	-8703
▁St	-8704
asca	-8705
atte	-8706
ccap	-8707
dora	-8708
elen	-8709
elto	-8710
natè	-8711
oman	-8712
vava	-8713
▁Ama	-8714
▁Bal	-8715
▁Bro	-8716
▁Cal	-8717
▁Ces	-8718
▁Emb	-8719
▁Lla	-8720
▁Mel	-8721
▁Mèh	-8722
▁Pan	-8723
▁Reg	-8724
▁Sar	-8725
▁Sco	-8726
▁Ser	-8727
▁Sie	-8728
▁Spa	-8729
▁Sti	-8730
▁Teo	-8731
▁Von	-8732
▁Zia	-8733
▁are	-8734
▁ato	-8735
▁bai	-8736
▁bbù	-8737
▁bed	-8738
▁blo	-8739
▁bol	-8740
▁cep	-8741
▁chè	-8742
▁cip	-8743
▁ddt	-8744
▁den	-8745
▁dim	-8746
▁dra	-8747
▁dri	-8748
▁fle	-8749
▁goi	-8750
▁gro	-8751
▁ine	-8752
▁inn	-8753
▁int	-8754
▁llá	-8755
▁mad	-8756
▁meh	-8757
▁men	-8758
▁mim	-8759
▁ndá	-8760
▁ner	-8761
▁piu	-8762
▁pla	-8763
▁pur	-8764
▁ria	-8765
▁rib	-8766
▁sem	-8767
▁sen	-8768
▁sev	-8769
▁smo	-8770
▁teg	-8771
▁tim	-8772
▁tin	-8773
▁trà	-8774
▁udi	-8775
Facci	-8776
Mamma	-8777
Mario	-8778
Parsi	-8779
Porta	-8780
Quant	-8781
Sotto	-8782
Tanto	-8783
Torna	-8784
Vendo	-8785
Zitta	-8786
agalo	-8787
alber	-8788
alite	-8789
ambra	-8790
ancia	-8791
ardam	-8792
astra	-8793
bbano	-8794
cchiù	-8795
ceano	-8796
cegli	-8797
cerai	-8798
cherò	-8799
Aus	-8800
Dal	-8801
Nin	-8802
cid	-8803
dro	-8804
lmi	-8805
soi	-8806
▁MI	-8807
Otto	-8808
alta	-8809
ance	-8810
capo	-8811
coro	-8812
esci	-8813
lmin	-8814
sene	-8815
uada	-8816
ulta	-8817
zina	-8818
zine	-8819
▁Men	-8820
▁Mes	-8821
▁Mor	-8822
▁Sib	-8823
▁Tuo	-8824
Sorre	-8825
Spera	-8826
chiam	-8827
ciono	-8828
cissi	-8829
corro	-8830
cucch	-8831
danai	-8832
derna	-8833
diate	-8834
dotta	-8835
eggia	-8836
eogra	-8837
erare	-8838
ericù	-8839
erini	-8840
esero	-8841
ffale	-8842
ffesa	-8843
ffici	-8844
genze	-8845
ggete	-8846
ghese	-8847
giate	-8848
gliai	-8849
gliam	-8850
ietto	-8851
imbar	-8852
inano	-8853
lanti	-8854
latra	-8855
lesso	-8856
llaio	-8857
llate	-8858
llato	-8859
llena	-8860
llini	-8861
milor	-8862
mmati	-8863
mpano	-8864
nderà	-8865
nenza	-8866
olavo	-8867
oloni	-8868
onese	-8869
osatu	-8870
pando	-8871
popol	-8872
ppato	-8873
prile	-8874
quina	-8875
ratto	-8876
rella	-8877
renta	-8878
rente	-8879
reria	-8880
riari	-8881
risce	-8882
ronde	-8883
ronzi	-8884
schio	-8885
siasi	-8886
sicci	-8887
spire	-8888
ssona	-8889
ssopi	-8890
steni	-8891
tarli	-8892
terio	-8893
toria	-8894
torta	-8895
trate	-8896
ttano	-8897
ttima	-8898
unali	-8899
ast	-8900
eci	-8901
ndà	-8902
uga	-8903
▁Né	-8904
▁op	-8905
Pusi	-8906
asci	-8907
bole	-8908
lizz	-8909
mmin	-8910
mpia	-8911
reco	-8912
trac	-8913
uett	-8914
uora	-8915
vede	-8916
▁Seg	-8917
▁Ucc	-8918
▁mei	-8919
▁odo	-8920
▁sie	-8921
▁vap	-8922
adore	-8923
arole	-8924
ciale	-8925
delle	-8926
ffoni	-8927
nette	-8928
niera	-8929
sente	-8930
uardo	-8931
vette	-8932
vizzi	-8933
ziona	-8934
zzata	-8935
zzati	-8936
zzerò	-8937
▁Alba	-8938
▁Bebè	-8939
▁Bebé	-8940
▁Beve	-8941
▁Carc	-8942
▁Casi	-8943
▁Comp	-8944
▁Conc	-8945
▁Core	-8946
▁Dall	-8947
▁Devi	-8948
▁Esco	-8949
▁Fido	-8950
▁Fili	-8951
▁Mang	-8952
▁Mele	-8953
▁Mere	-8954
▁Mola	-8955
▁Molo	-8956
▁Pane	-8957
▁Papà	-8958
▁Quar	-8959
▁Resi	-8960
▁Rinf	-8961
▁Roba	-8962
▁Stra	-8963
▁Stro	-8964
▁Tata	-8965
▁Tene	-8966
▁Tran	-8967
▁Urla	-8968
▁Viso	-8969
▁Viva	-8970
▁Vivi	-8971
▁aime	-8972
▁alto	-8973
▁anal	-8974
▁anna	-8975
▁arpe	-8976
▁arre	-8977
▁arru	-8978
▁arse	-8979
▁beng	-8980
▁bran	-8981
▁brit	-8982
▁cala	-8983
▁camb	-8984
▁cano	-8985
▁casi	-8986
▁ceci	-8987
▁cene	-8988
▁chef	-8989
▁cile	-8990
▁cori	-8991
▁cucù	-8992
▁cull	-8993
▁cuor	-8994
▁dava	-8995
▁davo	-8996
▁digi	-8997
▁dono	-8998
▁embè	-8999
Noi	-9000
Sve	-9001
Voi	-9002
azz	-9003
din	-9004
edi	-9005
smi	-9006
ude	-9007
▁".	-9008
dire	-9009
enni	-9010
fida	-9011
iano	-9012
iosa	-9013
mati	-9014
olvo	-9015
rade	-9016
rema	-9017
tive	-9018
vavo	-9019
voni	-9020
▁Ciò	-9021
▁Pal	-9022
▁azz	-9023
▁imi	-9024
▁oli	-9025
▁tav	-9026
Donna	-9027
Occhi	-9028
arghi	-9029
mvera	-9030
ombri	-9031
ziere	-9032
▁Coma	-9033
▁Cosi	-9034
▁Pepp	-9035
▁Pres	-9036
▁Unaa	-9037
▁armò	-9038
▁coma	-9039
▁esta	-9040
▁facc	-9041
▁fall	-9042
▁fara	-9043
▁fati	-9044
▁firm	-9045
▁fram	-9046
▁fuco	-9047
▁furi	-9048
▁gass	-9049
▁gile	-9050
▁give	-9051
▁good	-9052
▁iena	-9053
▁imbo	-9054
▁inci	-9055
▁inve	-9056
▁inzu	-9057
▁lama	-9058
▁lamè	-9059
▁lare	-9060
▁lato	-9061
▁lavi	-9062
▁lirà	-9063
▁mamm	-9064
▁mele	-9065
▁monu	-9066
▁muli	-9067
▁mulo	-9068
▁nfrà	-9069
▁nono	-9070
▁nuca	-9071
▁para	-9072
▁pedi	-9073
▁pera	-9074
▁perf	-9075
▁pian	-9076
▁prua	-9077
▁puni	-9078
▁puro	-9079
▁raff	-9080
▁rapp	-9081
▁recu	-9082
▁reni	-9083
▁rese	-9084
▁salì	-9085
▁sbir	-9086
▁scos	-9087
▁sedu	-9088
▁sicc	-9089
▁siri	-9090
▁soni	-9091
▁sopp	-9092
▁spol	-9093
▁squa	-9094
▁tess	-9095
▁tire	-9096
▁tisi	-9097
▁tras	-9098
▁trav	-9099
mov	-9100
▁Ll	-9101
ansi	-9102
coll	-9103
doni	-9104
ersi	-9105
moli	-9106
ncre	-9107
nima	-9108
nino	-9109
nita	-9110
raso	-9111
siva	-9112
ttes	-9113
▁Tap	-9114
▁Tes	-9115
▁Ttr	-9116
▁ipo	-9117
▁rid	-9118
▁usi	-9119
acciò	-9120
anghi	-9121
hiera	-9122
lliti	-9123
nanti	-9124
nghio	-9125
quale	-9126
ttasi	-9127
veste	-9128
▁Enga	-9129
▁Esci	-9130
▁Smuo	-9131
▁Togl	-9132
▁Ttrá	-9133
▁comb	-9134
▁fuso	-9135
▁misc	-9136
▁pezz	-9137
▁rise	-9138
▁trem	-9139
▁ttrá	-9140
▁uffi	-9141
▁ungu	-9142
▁unta	-9143
▁vasi	-9144
▁volu	-9145
▁vota	-9146
Arriva	-9147
Foglie	-9148
Povera	-9149
Quanta	-9150
Quanto	-9151
Rimani	-9152
Ullèro	-9153
Vibrai	-9154
anando	-9155
andita	-9156
annata	-9157
annati	-9158
antato	-9159
antica	-9160
antino	-9161
arling	-9162
arrita	-9163
arsene	-9164
asorte	-9165
attira	-9166
bitino	-9167
cabolo	-9168
ccagna	-9169
ccando	-9170
cciosi	-9171
chella	-9172
chetta	-9173
cinate	-9174
ciotta	-9175
ciotto	-9176
commpa	-9177
curare	-9178
datelo	-9179
derato	-9180
deroso	-9181
detevi	-9182
dicine	-9183
ellate	-9184
ellita	-9185
ellone	-9186
endole	-9187
erotto	-9188
esando	-9189
essert	-9190
essità	-9191
estire	-9192
estoso	-9193
ettere	-9194
ettino	-9195
faccia	-9196
gliani	-9197
gliese	-9198
gnacco	-9199
nda	-9200
Alla	-9201
gevo	-9202
isce	-9203
neci	-9204
olgo	-9205
▁Bru	-9206
▁cli	-9207
▁def	-9208
▁dep	-9209
▁dev	-9210
▁nef	-9211
▁sbu	-9212
▁ttè	-9213
Pensa	-9214
aluna	-9215
colla	-9216
dette	-9217
miche	-9218
omina	-9219
peria	-9220
retti	-9221
terna	-9222
ttiti	-9223
▁Onda	-9224
▁Pene	-9225
▁belo	-9226
▁deva	-9227
▁dond	-9228
▁muto	-9229
▁salo	-9230
▁segu	-9231
▁tutt	-9232
Quello	-9233
arsura	-9234
chetto	-9235
endomi	-9236
ennato	-9237
ianchi	-9238
innare	-9239
iorata	-9240
lacchi	-9241
latore	-9242
llegro	-9243
lterra	-9244
luette	-9245
lunato	-9246
mbatti	-9247
mbocco	-9248
mmerso	-9249
mpella	-9250
navamo	-9251
ngrato	-9252
nistra	-9253
oglimi	-9254
ometto	-9255
ondere	-9256
ondina	-9257
onente	-9258
oniamo	-9259
oniere	-9260
ontane	-9261
orando	-9262
orerei	-9263
oretta	-9264
oretto	-9265
orrono	-9266
osisci	-9267
ostati	-9268
panava	-9269
peggia	-9270
ppetta	-9271
quenti	-9272
render	-9273
ridare	-9274
ronghi	-9275
rucchi	-9276
rurgia	-9277
samene	-9278
sedevo	-9279
siglio	-9280
somina	-9281
stallo	-9282
taplas	-9283
tarono	-9284
temelo	-9285
ticata	-9286
tiello	-9287
tigare	-9288
tinaio	-9289
tinati	-9290
tinato	-9291
traggo	-9292
ttacco	-9293
ttadin	-9294
ttermi	-9295
ttiene	-9296
ttuare	-9297
tusias	-9298
urchio	-9299
Mai	-9300
anne	-9301
cari	-9302
cati	-9303
cisa	-9304
devo	-9305
dila	-9306
goni	-9307
lica	-9308
lite	-9309
uini	-9310
▁Lap	-9311
▁sop	-9312
▁sup	-9313
▁usa	-9314
apurà	-9315
ciato	-9316
dasse	-9317
ncono	-9318
ondra	-9319
ttica	-9320
ttoli	-9321
vieni	-9322
▁Ruba	-9323
▁Scia	-9324
▁Vale	-9325
▁dili	-9326
▁file	-9327
▁iosa	-9328
▁mapp	-9329
▁mica	-9330
▁migo	-9331
▁onda	-9332
▁poso	-9333
▁prem	-9334
▁rica	-9335
▁soll	-9336
▁sver	-9337
Queste	-9338
Sposta	-9339
anenza	-9340
argaro	-9341
attimo	-9342
cheria	-9343
llette	-9344
macchi	-9345
rature	-9346
turano	-9347
uzzaro	-9348
vunque	-9349
zzando	-9350
▁Andre	-9351
▁Arriv	-9352
▁Avere	-9353
▁Avevi	-9354
▁Brava	-9355
▁Buoni	-9356
▁Cuori	-9357
▁Danno	-9358
▁Darei	-9359
▁Dissi	-9360
▁Facce	-9361
▁Falla	-9362
▁Fallo	-9363
▁Ficca	-9364
▁Forno	-9365
▁Incor	-9366
▁Insap	-9367
▁Latte	-9368
▁Massa	-9369
▁Morsi	-9370
▁Muore	-9371
▁Nocci	-9372
▁Paese	-9373
▁Paola	-9374
▁Parto	-9375
▁Passò	-9376
▁Paura	-9377
▁Paure	-9378
▁Penna	-9379
▁Pochi	-9380
▁Ricci	-9381
▁Rimas	-9382
▁Stare	-9383
▁Suora	-9384
▁Tasse	-9385
▁Vamos	-9386
▁Vende	-9387
▁Vesco	-9388
▁Villa	-9389
▁acini	-9390
▁allar	-9391
▁allie	-9392
▁amavo	-9393
▁angui	-9394
▁avite	-9395
▁bermi	-9396
▁boghe	-9397
▁breve	-9398
▁bricc	-9399
here	-9400
mere	-9401
nguè	-9402
sone	-9403
urca	-9404
vini	-9405
▁evi	-9406
Dammi	-9407
Hanno	-9408
anati	-9409
ccere	-9410
cinie	-9411
eremo	-9412
erone	-9413
forti	-9414
guine	-9415
lioni	-9416
ostra	-9417
siere	-9418
tradi	-9419
trare	-9420
▁bone	-9421
▁ebbi	-9422
▁mela	-9423
▁rilu	-9424
▁scam	-9425
▁voga	-9426
Onestà	-9427
anetto	-9428
antico	-9429
catola	-9430
cchito	-9431
erella	-9432
eriamo	-9433
eriole	-9434
essuno	-9435
fonato	-9436
lletto	-9437
onette	-9438
triolo	-9439
▁Butta	-9440
▁batta	-9441
▁buoni	-9442
▁buttò	-9443
▁cadrà	-9444
▁calde	-9445
▁calme	-9446
▁canes	-9447
▁cante	-9448
▁cantò	-9449
▁capii	-9450
▁cattu	-9451
▁cente	-9452
▁cieli	-9453
▁colla	-9454
▁comba	-9455
▁corno	-9456
▁corse	-9457
▁corto	-9458
▁cosce	-9459
▁dando	-9460
▁danze	-9461
▁detta	-9462
▁detti	-9463
▁dilla	-9464
▁fiorì	-9465
▁folle	-9466
▁fonda	-9467
▁fusto	-9468
▁gamba	-9469
▁gesso	-9470
▁giapp	-9471
▁gigli	-9472
▁gingi	-9473
▁gocce	-9474
▁guarì	-9475
▁impos	-9476
▁incen	-9477
▁inimi	-9478
▁intra	-9479
▁ladri	-9480
▁ladro	-9481
▁lardo	-9482
▁lassù	-9483
▁lauro	-9484
▁lento	-9485
▁lenza	-9486
▁leone	-9487
▁lessi	-9488
▁lesta	-9489
▁lotta	-9490
▁lunar	-9491
▁mafio	-9492
▁mancò	-9493
▁mandu	-9494
▁marzo	-9495
▁massa	-9496
▁merlo	-9497
▁messi	-9498
▁molta	-9499
ine	-9500
nne	-9501
rut	-9502
une	-9503
cale	-9504
duna	-9505
mero	-9506
orne	-9507
sero	-9508
zari	-9509
▁Des	-9510
▁pag	-9511
▁tru	-9512
Dimmi	-9513
Penso	-9514
gnino	-9515
llero	-9516
netti	-9517
spare	-9518
▁Vene	-9519
▁acqu	-9520
▁dote	-9521
▁lune	-9522
▁oper	-9523
▁pari	-9524
▁pavi	-9525
▁pura	-9526
▁rate	-9527
▁sche	-9528
▁sepp	-9529
▁vigi	-9530
cchino	-9531
cciaio	-9532
cciata	-9533
cciato	-9534
dunate	-9535
elline	-9536
linesi	-9537
▁Sette	-9538
▁acqui	-9539
▁casco	-9540
▁dotto	-9541
▁fiere	-9542
▁morbi	-9543
▁mordo	-9544
▁morse	-9545
▁morsi	-9546
▁mossa	-9547
▁motto	-9548
▁palmo	-9549
▁parro	-9550
▁passò	-9551
▁patto	-9552
▁pelli	-9553
▁perno	-9554
▁piagn	-9555
▁pollo	-9556
▁pozza	-9557
▁prati	-9558
▁preti	-9559
▁propi	-9560
▁pugna	-9561
▁pulpi	-9562
▁queso	-9563
▁rassi	-9564
▁razze	-9565
▁reggi	-9566
▁regna	-9567
▁reper	-9568
▁robba	-9569
▁rotta	-9570
▁rotte	-9571
▁ruffi	-9572
▁ruppe	-9573
▁sarac	-9574
▁sarde	-9575
▁sarte	-9576
▁sauri	-9577
▁scavi	-9578
▁sciar	-9579
▁sella	-9580
▁seppe	-9581
▁sfera	-9582
▁sfila	-9583
▁sfrut	-9584
▁sogli	-9585
▁solla	-9586
▁solle	-9587
▁spacc	-9588
▁spago	-9589
▁sparg	-9590
▁sping	-9591
▁sposò	-9592
▁stese	-9593
▁stesi	-9594
▁stile	-9595
▁stima	-9596
▁stono	-9597
▁studi	-9598
▁suone	-9599
Hai	-9600
ffo	-9601
use	-9602
▁Or	-9603
altà	-9604
gnac	-9605
nità	-9606
tese	-9607
▁gus	-9608
▁gué	-9609
▁ref	-9610
▁ttà	-9611
alino	-9612
betto	-9613
osito	-9614
rasse	-9615
rirti	-9616
spera	-9617
ssimi	-9618
▁Inno	-9619
▁Magi	-9620
▁dolo	-9621
▁logg	-9622
▁pros	-9623
▁prov	-9624
▁reli	-9625
▁veri	-9626
Storia	-9627
antare	-9628
chiena	-9629
entati	-9630
essere	-9631
posito	-9632
salite	-9633
ziante	-9634
▁Dello	-9635
▁Ormai	-9636
▁Parli	-9637
▁Rivol	-9638
▁Salii	-9639
▁baila	-9640
▁callo	-9641
▁copri	-9642
▁forti	-9643
▁pasce	-9644
▁pasto	-9645
▁pette	-9646
▁spass	-9647
▁tordi	-9648
▁torta	-9649
▁toste	-9650
▁trave	-9651
▁trote	-9652
▁umore	-9653
▁under	-9654
▁usano	-9655
▁vacca	-9656
▁vedrò	-9657
▁venni	-9658
▁verrà	-9659
▁versa	-9660
▁volpe	-9661
▁zappo	-9662
Darling	-9663
Diamoci	-9664
Portami	-9665
accioni	-9666
affanna	-9667
afferra	-9668
agliani	-9669
albergo	-9670
allocco	-9671
annando	-9672
anzetta	-9673
armonia	-9674
ascagni	-9675
aseball	-9676
aspetti	-9677
astidio	-9678
▁	-9679
a	-9680
e	-9681
o	-9682
i	-9683
n	-9684
t	-9685
r	-9686
l	-9687
c	-9688
s	-9689
m	-9690
u	-9691
d	-9692
,	-9693
p	-9694
v	-9695
h	-9696
g	-9697
f	-9698
b	-9699
q	-9700
z	-9701
'	-9702
è	-9703
"	-9704
S	-9705
C	-9706
?	-9707
E	-9708
M	-9709
.	-9710
ù	-9711
N	-9712
à	-9713
P	-9714
T	-9715
A	-9716
:	-9717
Q	-9718
I	-9719
L	-9720
D	-9721
ò	-9722
V	-9723
ì	-9724
O	-9725
U	-9726
F	-9727
!	-9728
G	-9729
B	-9730
R	-9731
é	-9732
1	-9733
H	-9734
–	-9735
á	-9736
2	-9737
-	-9738
Z	-9739
’	-9740
